<unk>	0
<s>	0
</s>	0
[PAD]	0
[UNK]	0
[CLS]	0
[SEP]	0
[MASK]	0
▁그	-0
▁이	-1
▁있	-2
▁사	-3
▁것	-4
▁아	-5
으로	-6
▁하	-7
▁수	-8
에서	-9
▁대	-10
▁가	-11
▁지	-12
▁한	-13
니다	-14
▁어	-15
▁자	-16
▁나	-17
▁보	-18
▁다	-19
▁정	-20
▁기	-21
▁시	-22
▁일	-23
이다	-24
▁전	-25
하는	-26
었다	-27
▁1	-28
▁말	-29
▁"	-30
▁거	-31
했다	-32
하고	-33
▁없	-34
▁주	-35
▁있다	-36
▁때	-37
▁않	-38
▁인	-39
▁내	-40
▁있는	-41
▁모	-42
▁부	-43
▁경	-44
▁제	-45
▁생	-46
▁여	-47
▁위	-48
▁우	-49
▁해	-50
▁마	-51
▁되	-52
▁상	-53
▁중	-54
습니다	-55
▁오	-56
들이	-57
▁의	-58
▁사람	-59
▁소	-60
▁고	-61
▁안	-62
▁공	-63
▁'	-64
▁같	-65
▁만	-66
▁조	-67
▁비	-68
지만	-69
▁예	-70
▁무	-71
▁2	-72
▁바	-73
▁관	-74
이라	-75
▁문	-76
▁유	-77
▁등	-78
▁들	-79
에게	-80
▁세	-81
적인	-82
▁우리	-83
▁신	-84
▁그러	-85
니까	-86
..	-87
다는	-88
▁또	-89
▁동	-90
▁저	-91
▁선	-92
하게	-93
▁도	-94
▁미	-95
▁아니	-96
▁구	-97
▁개	-98
▁국	-99
는데	-100
▁연	-101
▁많	-102
▁네	-103
▁서	-104
▁생각	-105
면서	-106
▁것이	-107
▁방	-108
에는	-109
."	-110
▁더	-111
렇게	-112
▁불	-113
▁분	-114
▁성	-115
▁알	-116
▁결	-117
리고	-118
들은	-119
▁발	-120
▁것이다	-121
▁당	-122
해서	-123
적으로	-124
▁영	-125
까지	-126
▁그런	-127
한다	-128
▁때문	-129
▁통	-130
▁할	-131
▁남	-132
▁실	-133
▁원	-134
▁진	-135
▁교	-136
▁장	-137
▁못	-138
▁물	-139
▁따	-140
▁두	-141
라고	-142
▁반	-143
▁계	-144
▁현	-145
▁하는	-146
▁뭐	-147
▁노	-148
다고	-149
▁3	-150
▁대한	-151
▁강	-152
▁좋	-153
▁받	-154
하여	-155
▁살	-156
▁건	-157
▁차	-158
부터	-159
았다	-160
▁지금	-161
▁한다	-162
▁적	-163
▁단	-164
였다	-165
들의	-166
▁최	-167
▁후	-168
▁과	-169
▁재	-170
▁감	-171
▁잘	-172
▁입	-173
▁들어	-174
▁이제	-175
▁같은	-176
하기	-177
▁스	-178
▁집	-179
▁이런	-180
▁자신	-181
▁요	-182
▁된	-183
▁것은	-184
하지	-185
▁역	-186
▁작	-187
▁특	-188
▁학	-189
어요	-190
들을	-191
▁게	-192
라는	-193
▁달	-194
▁했	-195
▁그래	-196
00	-197
▁그리고	-198
▁좀	-199
기를	-200
▁있었다	-201
▁행	-202
▁배	-203
▁김	-204
▁매	-205
▁가지	-206
▁명	-207
▁19	-208
▁하고	-209
이나	-210
▁속	-211
▁경우	-212
▁문제	-213
▁하나	-214
▁새	-215
▁때문에	-216
▁이렇게	-217
▁열	-218
▁목	-219
▁걸	-220
▁점	-221
▁사실	-222
▁번	-223
입니다	-224
처럼	-225
▁돌	-226
▁회	-227
▁필	-228
▁근	-229
▁설	-230
▁다른	-231
▁참	-232
▁확	-233
▁눈	-234
▁앞	-235
▁추	-236
▁너	-237
▁어떤	-238
▁올	-239
▁것을	-240
▁평	-241
▁4	-242
▁음	-243
▁얼	-244
이라고	-245
▁간	-246
▁손	-247
▁그러나	-248
▁피	-249
▁직	-250
▁그렇	-251
▁나는	-252
▁데	-253
▁변	-254
▁5	-255
리를	-256
▁따라	-257
대로	-258
▁본	-259
지는	-260
▁했다	-261
이었다	-262
▁함	-263
▁외	-264
▁그것	-265
▁있었	-266
▁파	-267
리는	-268
▁처	-269
▁심	-270
▁맞	-271
▁양	-272
하다	-273
에서는	-274
▁언	-275
▁누	-276
▁형	-277
▁민	-278
▁아이	-279
▁포	-280
에도	-281
▁정도	-282
보다	-283
하면	-284
▁그는	-285
▁종	-286
▁사회	-287
▁없는	-288
▁드	-289
▁운	-290
?"	-291
▁출	-292
▁화	-293
▁있어	-294
▁시작	-295
▁박	-296
▁초	-297
▁표	-298
▁위해	-299
▁뒤	-300
▁산	-301
▁“	-302
이라는	-303
주의	-304
▁시간	-305
▁합	-306
으면	-307
으며	-308
▁싶	-309
▁얘	-310
▁내가	-311
아요	-312
▁찾	-313
▁다시	-314
▁먹	-315
▁필요	-316
▁날	-317
▁책	-318
떻게	-319
▁만들	-320
▁(	-321
▁‘	-322
▁한국	-323
▁마음	-324
▁많이	-325
▁약	-326
▁삼	-327
도록	-328
▁프	-329
▁않는	-330
▁청	-331
기도	-332
▁될	-333
▁있을	-334
▁아니라	-335
해야	-336
▁그래서	-337
기가	-338
기에	-339
▁이상	-340
이고	-341
▁가장	-342
▁어떻게	-343
▁왜	-344
자가	-345
▁치	-346
▁힘	-347
▁느	-348
▁활	-349
▁함께	-350
▁하지만	-351
▁법	-352
▁모든	-353
되는	-354
▁죽	-355
▁각	-356
리가	-357
....	-358
▁투	-359
▁독	-360
▁많은	-361
▁줄	-362
▁타	-363
▁순	-364
▁없다	-365
▁친	-366
▁금	-367
사를	-368
▁된다	-369
▁큰	-370
▁이야	-371
▁것으로	-372
▁그렇게	-373
▁6	-374
▁갖	-375
▁높	-376
▁체	-377
▁다음	-378
▁호	-379
거나	-380
▁편	-381
지를	-382
성을	-383
▁식	-384
▁채	-385
되어	-386
자는	-387
▁그녀	-388
▁증	-389
▁환	-390
▁씨	-391
▁천	-392
▁태	-393
▁아무	-394
▁지난	-395
▁쓰	-396
▁길	-397
er	-398
▁세계	-399
▁에	-400
▁여러	-401
▁막	-402
▁중요	-403
▁절	-404
지고	-405
▁되는	-406
▁판	-407
▁모두	-408
▁인간	-409
▁창	-410
기는	-411
▁군	-412
▁너무	-413
▁이러	-414
▁상황	-415
▁북	-416
▁크	-417
가는	-418
들에게	-419
▁있습니다	-420
▁버	-421
이는	-422
▁바로	-423
▁미국	-424
▁충	-425
▁임	-426
▁엄	-427
▁준	-428
▁권	-429
▁몸	-430
▁끝	-431
▁검	-432
▁말했다	-433
▁그의	-434
장을	-435
로운	-436
▁관계	-437
다가	-438
▁볼	-439
▁존	-440
▁곳	-441
▁허	-442
▁가능	-443
▁돌아	-444
▁정치	-445
▁지역	-446
▁논	-447
▁그런데	-448
라도	-449
▁질	-450
......	-451
▁온	-452
▁통해	-453
▁떠	-454
▁잠	-455
▁담	-456
▁잡	-457
▁오늘	-458
on	-459
▁20	-460
▁백	-461
이었	-462
▁애	-463
▁의미	-464
▁복	-465
정을	-466
자의	-467
력을	-468
▁취	-469
▁10	-470
▁넘	-471
▁자신의	-472
▁및	-473
▁벌	-474
▁보면	-475
▁위한	-476
▁7	-477
성이	-478
▁자기	-479
▁규	-480
),	-481
머니	-482
▁갈	-483
▁사람이	-484
▁있고	-485
된다	-486
in	-487
▁대해	-488
거든	-489
▁총	-490
어서	-491
▁완	-492
▁않고	-493
어나	-494
세요	-495
an	-496
▁보고	-497
렸다	-498
화를	-499
▁가지고	-500
▁사용	-501
▁광	-502
▁사이	-503
▁머	-504
▁이러한	-505
▁병	-506
통령	-507
▁나타	-508
▁이미	-509
하면서	-510
▁일본	-511
▁인제	-512
▁「	-513
인이	-514
하며	-515
▁돈	-516
▁부분	-517
▁여기	-518
▁관련	-519
▁수도	-520
▁사랑	-521
▁교육	-522
▁모르	-523
▁8	-524
▁모습	-525
▁어느	-526
▁난	-527
졌다	-528
▁항	-529
▁경제	-530
상을	-531
▁일이	-532
인데	-533
▁향	-534
▁계속	-535
▁좋은	-536
▁정말	-537
▁토	-538
▁몇	-539
▁대통령	-540
사가	-541
▁용	-542
▁『	-543
되고	-544
▁때문이다	-545
장이	-546
서는	-547
▁정부	-548
▁방법	-549
▁이것	-550
▁놓	-551
▁대해서	-552
▁대표	-553
▁이유	-554
▁몰	-555
▁않았	-556
▁또한	-557
▁밝	-558
▁야	-559
▁기업	-560
▁동안	-561
겠습니다	-562
▁우리가	-563
▁빠	-564
왔다	-565
▁같이	-566
▁즉	-567
합니다	-568
▁찾아	-569
▁말이	-570
▁200	-571
▁나오	-572
자를	-573
예요	-574
▁말을	-575
인가	-576
▁무엇	-577
▁중국	-578
▁있다는	-579
그래	-580
▁얼마	-581
▁제가	-582
▁것도	-583
▁리	-584
▁떨	-585
▁말씀	-586
했던	-587
지도	-588
▁연구	-589
▁결과	-590
▁<	-591
▁국가	-592
다면	-593
장은	-594
▁처음	-595
▁내용	-596
려고	-597
▁아닌	-598
▁없었다	-599
겠다	-600
시키	-601
▁않았다	-602
▁듯	-603
▁9	-604
▁이해	-605
▁철	-606
▁농	-607
▁특히	-608
▁효	-609
▁글	-610
▁먼	-611
▁국민	-612
▁당신	-613
▁위해서	-614
▁뿐	-615
거든요	-616
▁카	-617
잖아요	-618
밖에	-619
▁있는데	-620
▁프로	-621
식을	-622
▁않은	-623
▁늘	-624
▁이번	-625
들과	-626
에서도	-627
▁얘기	-628
▁사업	-629
하였다	-630
en	-631
▁이후	-632
▁새로운	-633
▁돼	-634
▁귀	-635
▁존재	-636
습니까	-637
인의	-638
▁얼굴	-639
▁왕	-640
▁혼	-641
▁둘	-642
▁해서	-643
▁삶	-644
이가	-645
▁은	-646
어진	-647
▁하지	-648
▁조금	-649
▁없이	-650
▁놀	-651
▁별	-652
▁받아	-653
▁물론	-654
▁하면	-655
▁학생	-656
ti	-657
▁팔	-658
음을	-659
▁협	-660
학교	-661
▁됐	-662
▁승	-663
사의	-664
▁커	-665
▁당시	-666
지가	-667
▁서울	-668
▁이게	-669
▁현재	-670
▁메	-671
한테	-672
▁접	-673
므로	-674
리에	-675
갔다	-676
이지	-677
시는	-678
▁우리는	-679
▁해야	-680
▁이루	-681
▁와	-682
▁S	-683
▁황	-684
▁업	-685
▁아버	-686
나라	-687
▁지나	-688
▁사람들이	-689
▁년	-690
▁의원	-691
스트	-692
▁그냥	-693
동을	-694
▁이름	-695
▁첫	-696
▁어디	-697
▁아주	-698
▁설명	-699
▁되어	-700
▁친구	-701
▁아직	-702
▁그리	-703
가지	-704
▁C	-705
or	-706
▁무슨	-707
없이	-708
...	-709
▁결국	-710
▁않을	-711
▁사건	-712
▁얻	-713
▁보여	-714
사는	-715
▁되었다	-716
▁저는	-717
▁중요한	-718
▁등을	-719
▁문화	-720
▁알고	-721
▁만들어	-722
나는	-723
▁좋아	-724
▁면	-725
▁믿	-726
▁그때	-727
력이	-728
▁뜻	-729
▁이용	-730
▁어려	-731
▁수가	-732
▁따라서	-733
▁깨	-734
회의	-735
al	-736
주는	-737
▁이야기	-738
▁로	-739
es	-740
▁A	-741
▁또는	-742
로서	-743
도를	-744
▁살아	-745
▁199	-746
▁합니다	-747
▁먼저	-748
에요	-749
되었다	-750
▁정보	-751
▁울	-752
들도	-753
▁코	-754
▁북한	-755
정이	-756
▁일을	-757
▁육	-758
▁자유	-759
▁폭	-760
▁나라	-761
그러	-762
▁읽	-763
▁침	-764
원을	-765
▁후보	-766
▁생활	-767
구나	-768
▁베	-769
▁이를	-770
▁웃	-771
▁극	-772
▁있다고	-773
▁희	-774
▁다양	-775
으나	-776
▁근데	-777
▁역시	-778
▁아니다	-779
는다	-780
운데	-781
▁테	-782
▁정신	-783
ar	-784
굉장	-785
▁되고	-786
제로	-787
▁상태	-788
▁그가	-789
▁이어	-790
▁직접	-791
▁혹	-792
▁학교	-793
▁범	-794
▁사람은	-795
스로	-796
▁여성	-797
▁서로	-798
▁측	-799
르는	-800
▁거예요	-801
▁겁	-802
▁준비	-803
기로	-804
▁듣	-805
이며	-806
▁자연	-807
었던	-808
▁능	-809
▁라	-810
구요	-811
▁봐	-812
!"	-813
인지	-814
▁알아	-815
상이	-816
전히	-817
▁결정	-818
▁더욱	-819
▁일반	-820
▁관심	-821
굉장히	-822
▁대학	-823
대의	-824
▁쉽	-825
▁기술	-826
▁거야	-827
부분	-828
▁엄마	-829
19	-830
▁자체	-831
▁현실	-832
▁축	-833
▁성공	-834
위원	-835
▁선생	-836
느냐	-837
▁표현	-838
▁급	-839
he	-840
▁진행	-841
으로써	-842
마다	-843
치는	-844
▁중심	-845
▁내려	-846
▁영향	-847
대를	-848
▁P	-849
어야	-850
이를	-851
치를	-852
▁-	-853
▁어머니	-854
는지	-855
▁쪽	-856
이란	-857
▁전에	-858
▁전문	-859
▁풀	-860
▁키	-861
▁그것은	-862
▁밀	-863
▁십	-864
▁때는	-865
문을	-866
▁굉장히	-867
▁주장	-868
▁12	-869
▁꿈	-870
그렇	-871
시아	-872
▁계획	-873
▁싸	-874
▁거의	-875
▁앉	-876
).	-877
▁풍	-878
려는	-879
시에	-880
▁가운데	-881
났다	-882
▁역사	-883
▁곧	-884
네요	-885
▁영화	-886
드는	-887
▁T	-888
▁갑	-889
▁홍	-890
그런	-891
▁발생	-892
그래서	-893
▁요구	-894
▁악	-895
▁골	-896
인은	-897
▁전체	-898
가를	-899
까요	-900
위를	-901
원이	-902
▁한번	-903
▁붙	-904
▁작품	-905
▁역할	-906
▁만나	-907
▁깊	-908
▁시장	-909
▁이거	-910
▁:	-911
▁넣	-912
지요	-913
▁과정	-914
더니	-915
물을	-916
▁변화	-917
▁움	-918
▁그럼	-919
▁응	-920
▁뛰	-921
▁여자	-922
▁있던	-923
▁그러니까	-924
▁M	-925
▁기억	-926
대한	-927
▁있어서	-928
정한	-929
▁않는다	-930
▁가족	-931
▁민주	-932
▁빨	-933
▁밤	-934
▁투자	-935
▁분명	-936
▁떨어	-937
스를	-938
▁패	-939
▁올라	-940
▁발전	-941
기업	-942
▁그러면	-943
▁조선	-944
▁갖고	-945
▁거죠	-946
인을	-947
▁얼마나	-948
▁생각을	-949
▁흔	-950
▁경험	-951
▁정책	-952
▁터	-953
수를	-954
▁I	-955
수가	-956
상의	-957
▁생각이	-958
▁구성	-959
의를	-960
내는	-961
▁지원	-962
▁브	-963
is	-964
▁맛	-965
▁바라	-966
도가	-967
▁효과	-968
▁되면	-969
▁왔	-970
▁그게	-971
▁레	-972
▁최근	-973
임을	-974
▁디	-975
▁즐	-976
▁18	-977
제를	-978
▁해도	-979
▁대부분	-980
제가	-981
▁알려	-982
▁술	-983
▁상대	-984
회를	-985
더라도	-986
▁숨	-987
들에	-988
▁스스로	-989
▁언제	-990
로부터	-991
▁소리	-992
▁있으	-993
▁누구	-994
동안	-995
▁자신이	-996
▁순간	-997
보다는	-998
▁t	-999
▁문제가	-1000
가가	-1001
▁B	-1002
님이	-1003
▁번째	-1004
었고	-1005
▁다양한	-1006
▁기록	-1007
▁선택	-1008
▁속에서	-1009
▁앞으로	-1010
교육	-1011
원의	-1012
▁상당	-1013
▁개발	-1014
▁조직	-1015
▁지방	-1016
▁크게	-1017
▁참여	-1018
▁해결	-1019
▁생산	-1020
▁궁	-1021
▁환경	-1022
▁11	-1023
▁이에	-1024
▁201	-1025
▁사람들은	-1026
▁월	-1027
▁나가	-1028
히려	-1029
▁핵	-1030
▁등의	-1031
▁최고	-1032
▁땅	-1033
명을	-1034
▁바람	-1035
000	-1036
▁낮	-1037
는데요	-1038
지막	-1039
▁있어요	-1040
▁윤	-1041
▁사고	-1042
▁일부	-1043
▁운영	-1044
▁드러	-1045
▁그렇죠	-1046
대에	-1047
▁어린	-1048
▁개인	-1049
스는	-1050
보고	-1051
▁들어가	-1052
▁것입니다	-1053
자기	-1054
하였	-1055
▁확인	-1056
▁진짜	-1057
▁대상	-1058
스럽	-1059
점을	-1060
▁아마	-1061
▁노동	-1062
▁기다	-1063
개를	-1064
그램	-1065
▁하루	-1066
▁분석	-1067
▁이는	-1068
▁있기	-1069
었습니다	-1070
계를	-1071
▁꼭	-1072
▁결혼	-1073
▁끌	-1074
▁벗	-1075
▁관한	-1076
▁부모	-1077
되지	-1078
▁매우	-1079
▁30	-1080
▁흐	-1081
▁욕	-1082
▁활동	-1083
▁포함	-1084
▁마련	-1085
전에	-1086
으로서	-1087
▁것처럼	-1088
한다는	-1089
▁15	-1090
▁탄	-1091
움을	-1092
▁있지	-1093
스러	-1094
▁오히려	-1095
식이	-1096
▁움직	-1097
▁방송	-1098
▁작은	-1099
했고	-1100
▁그녀는	-1101
▁잔	-1102
장에서	-1103
국의	-1104
▁경쟁	-1105
시간	-1106
▁잘못	-1107
▁없어	-1108
아서	-1109
만큼	-1110
▁하여	-1111
리아	-1112
▁견	-1113
▁시민	-1114
▁인정	-1115
장의	-1116
▁퍼	-1117
▁가는	-1118
▁일단	-1119
▁의해	-1120
▁겁니다	-1121
▁나를	-1122
시고	-1123
▁기본	-1124
▁발견	-1125
▁목소	-1126
적이	-1127
▁속에	-1128
자들이	-1129
▁긴	-1130
▁보내	-1131
하자	-1132
▁트	-1133
▁교수	-1134
▁세상	-1135
▁국내	-1136
▁전혀	-1137
▁도시	-1138
스의	-1139
▁그대로	-1140
▁그들은	-1141
▁송	-1142
했습니다	-1143
▁맡	-1144
▁헤	-1145
▁봉	-1146
장에	-1147
it	-1148
▁저희	-1149
든지	-1150
▁마지막	-1151
▁나와	-1152
▁행동	-1153
년에	-1154
▁공부	-1155
▁운동	-1156
이야	-1157
▁경찰	-1158
됩니다	-1159
▁수밖에	-1160
ic	-1161
거리	-1162
▁높은	-1163
▁그림	-1164
로는	-1165
어가	-1166
▁평가	-1167
▁제공	-1168
▁국제	-1169
▁전쟁	-1170
▁특별	-1171
군요	-1172
사업	-1173
▁기대	-1174
▁p	-1175
▁선거	-1176
▁폐	-1177
▁한편	-1178
▁같다	-1179
선을	-1180
▁겨	-1181
근데	-1182
▁뭔	-1183
▁판단	-1184
▁L	-1185
▁목표	-1186
▁보는	-1187
오는	-1188
▁구조	-1189
▁암	-1190
▁젊	-1191
혔다	-1192
▁자리	-1193
▁이야기를	-1194
▁나서	-1195
사에	-1196
▁건강	-1197
▁만큼	-1198
▁강조	-1199
물이	-1200
사회	-1201
▁인터	-1202
금을	-1203
도의	-1204
인다	-1205
▁거기	-1206
▁있지만	-1207
▁노력	-1208
기의	-1209
▁우선	-1210
▁노래	-1211
아니	-1212
문화	-1213
▁남편	-1214
▁등이	-1215
▁정도로	-1216
▁추진	-1217
도로	-1218
만이	-1219
지역	-1220
르면	-1221
▁유지	-1222
▁옆	-1223
▁행복	-1224
▁가져	-1225
▁피해	-1226
__	-1227
▁흘	-1228
▁한다는	-1229
됐다	-1230
▁가까	-1231
지의	-1232
▁과거	-1233
전을	-1234
▁수준	-1235
잖아	-1236
▁제대로	-1237
스가	-1238
어난	-1239
리의	-1240
▁마치	-1241
▁그것을	-1242
▁주는	-1243
▁뉴	-1244
▁기준	-1245
▁죄	-1246
▁휴	-1247
중에	-1248
▁공동	-1249
▁망	-1250
리지	-1251
▁있게	-1252
권을	-1253
▁남자	-1254
▁사실을	-1255
▁것이었다	-1256
tion	-1257
감을	-1258
으니	-1259
▁싶은	-1260
▁나온	-1261
▁발표	-1262
▁있었던	-1263
▁있도록	-1264
▁탈	-1265
▁답	-1266
▁K	-1267
▁그거	-1268
서를	-1269
어도	-1270
▁충분	-1271
▁그랬	-1272
르고	-1273
▁프로그램	-1274
▁못한	-1275
▁틀	-1276
▁봤	-1277
하지만	-1278
▁있으며	-1279
▁개념	-1280
▁가진	-1281
성과	-1282
께서	-1283
▁가서	-1284
격을	-1285
▁대신	-1286
▁필요한	-1287
소를	-1288
지에	-1289
성의	-1290
▁관리	-1291
명의	-1292
▁산업	-1293
▁헌	-1294
▁걱	-1295
분이	-1296
님의	-1297
▁잃	-1298
른다	-1299
▁어렵	-1300
▁위험	-1301
▁딸	-1302
겠다는	-1303
▁얘기를	-1304
▁가슴	-1305
레이	-1306
▁198	-1307
▁시작했다	-1308
▁o	-1309
▁대답	-1310
▁소비	-1311
▁일어나	-1312
▁아래	-1313
▁사람을	-1314
시켜	-1315
re	-1316
▁모습을	-1317
▁과학	-1318
이기	-1319
▁D	-1320
했을	-1321
▁없을	-1322
▁석	-1323
▁멀	-1324
케이	-1325
▁약간	-1326
▁느낌	-1327
▁시간이	-1328
▁미래	-1329
▁지적	-1330
▁하는데	-1331
이라도	-1332
으로는	-1333
보는	-1334
▁하면서	-1335
▁이루어	-1336
대가	-1337
▁묻	-1338
움이	-1339
▁만든	-1340
▁느끼	-1341
▁못하고	-1342
▁쉬	-1343
▁아침	-1344
▁짓	-1345
시오	-1346
▁비판	-1347
▁비교	-1348
▁살펴	-1349
▁경우에는	-1350
▁형태	-1351
하거나	-1352
명이	-1353
▁고려	-1354
▁고객	-1355
▁우리의	-1356
지지	-1357
▁기능	-1358
과의	-1359
▁오래	-1360
▁민족	-1361
at	-1362
▁활용	-1363
▁마찬	-1364
었을	-1365
아가	-1366
면은	-1367
▁옷	-1368
▁사람의	-1369
▁생각해	-1370
▁아름	-1371
▁우리나라	-1372
▁힘들	-1373
▁조사	-1374
▁숙	-1375
▁하늘	-1376
▁슬	-1377
▁경영	-1378
▁않아	-1379
▁가치	-1380
▁끊	-1381
▁문학	-1382
▁그것이	-1383
▁받고	-1384
▁억	-1385
▁전략	-1386
디어	-1387
음에	-1388
▁주변	-1389
▁인생	-1390
하던	-1391
진다	-1392
▁니	-1393
▁제시	-1394
▁혁	-1395
▁나의	-1396
으니까	-1397
.”	-1398
▁문제를	-1399
▁혹은	-1400
▁수는	-1401
성은	-1402
있는	-1403
었는데	-1404
▁이와	-1405
▁됩니다	-1406
▁주민	-1407
▁당연	-1408
▁두고	-1409
듯이	-1410
▁돈을	-1411
정부	-1412
▁경기	-1413
▁사라	-1414
린다	-1415
내가	-1416
주고	-1417
▁분야	-1418
▁하나의	-1419
▁마찬가지	-1420
▁빼	-1421
정은	-1422
el	-1423
랜드	-1424
▁사실은	-1425
▁빈	-1426
▁동시에	-1427
냈다	-1428
▁소설	-1429
▁현대	-1430
▁되지	-1431
▁좌	-1432
는가	-1433
▁이것은	-1434
▁영향을	-1435
▁품	-1436
▁꾸	-1437
▁사람들	-1438
▁책임	-1439
고요	-1440
▁정확	-1441
▁적이	-1442
▁갑자기	-1443
안을	-1444
▁언론	-1445
▁예를	-1446
▁똑	-1447
▁혼자	-1448
▁만약	-1449
▁비롯	-1450
회가	-1451
으로부터	-1452
▁몸을	-1453
▁쉽게	-1454
관이	-1455
▁빛	-1456
▁갔	-1457
20	-1458
▁격	-1459
▁여기서	-1460
▁전통	-1461
ch	-1462
▁R	-1463
리로	-1464
▁실제로	-1465
▁흥	-1466
원에	-1467
▁해당	-1468
▁여행	-1469
우는	-1470
▁다르	-1471
ol	-1472
▁안에	-1473
▁공간	-1474
▁사는	-1475
자로	-1476
랐다	-1477
성에	-1478
▁E	-1479
쳤다	-1480
자들은	-1481
▁손을	-1482
▁부족	-1483
▁방식	-1484
▁젊은	-1485
▁항상	-1486
▁밖	-1487
▁단순	-1488
▁지도	-1489
▁외국	-1490
(1	-1491
▁음악	-1492
▁역할을	-1493
▁제품	-1494
▁선생님	-1495
드시	-1496
겠지만	-1497
심을	-1498
▁그들의	-1499
▁모양	-1500
▁마음을	-1501
▁페	-1502
▁인식	-1503
▁사진	-1504
▁자세	-1505
수의	-1506
트를	-1507
데요	-1508
▁아니면	-1509
시면	-1510
▁보니까	-1511
▁찬	-1512
에서의	-1513
▁압	-1514
--	-1515
▁눈을	-1516
하다고	-1517
만을	-1518
▁통해서	-1519
가지고	-1520
▁올해	-1521
▁중에	-1522
생활	-1523
▁그를	-1524
훨씬	-1525
▁서비	-1526
원은	-1527
아야	-1528
▁달리	-1529
▁회사	-1530
▁적극	-1531
▁칼	-1532
▁딱	-1533
▁밝혔다	-1534
▁나무	-1535
수록	-1536
화가	-1537
센터	-1538
▁그녀의	-1539
▁인간의	-1540
적이고	-1541
라면	-1542
도는	-1543
and	-1544
▁16	-1545
▁증가	-1546
료를	-1547
om	-1548
▁없고	-1549
▁훨씬	-1550
▁구체	-1551
▁옛	-1552
▁적용	-1553
▁위에	-1554
업을	-1555
▁위해서는	-1556
▁빌	-1557
하다는	-1558
▁앞에	-1559
경제	-1560
▁자신을	-1561
시키는	-1562
▁G	-1563
하도록	-1564
▁of	-1565
▁않다	-1566
그리고	-1567
▁플	-1568
ing	-1569
▁성장	-1570
같이	-1571
운동	-1572
▁꽃	-1573
▁의견	-1574
▁지속	-1575
▁받은	-1576
려면	-1577
▁써	-1578
▁자동	-1579
가의	-1580
▁여러분	-1581
▁가르	-1582
치고	-1583
▁착	-1584
에게는	-1585
▁꺼	-1586
스템	-1587
▁집중	-1588
▁주고	-1589
▁아파	-1590
▁보다	-1591
▁하기	-1592
▁싫	-1593
▁괜	-1594
▁따르면	-1595
▁옮	-1596
▁방향	-1597
▁반드시	-1598
▁요즘	-1599
▁익	-1600
겠다고	-1601
▁그럴	-1602
▁종교	-1603
▁달라	-1604
▁이곳	-1605
연구	-1606
am	-1607
부를	-1608
▁17	-1609
▁지난해	-1610
▁고개를	-1611
과는	-1612
▁상품	-1613
▁클	-1614
▁감사	-1615
▁아니고	-1616
▁행위	-1617
수는	-1618
▁반대	-1619
지금	-1620
▁끼	-1621
관계	-1622
▁프랑	-1623
우리	-1624
년대	-1625
부가	-1626
▁했던	-1627
▁불가	-1628
▁잊	-1629
▁했는데	-1630
▁N	-1631
▁F	-1632
정에	-1633
롭게	-1634
산을	-1635
기관	-1636
▁쓸	-1637
▁전국	-1638
자와	-1639
으면서	-1640
구하고	-1641
▁팀	-1642
▁말한다	-1643
▁까	-1644
▁13	-1645
.......	-1646
▁누가	-1647
▁연결	-1648
▁오는	-1649
▁언어	-1650
......."	-1651
▁안전	-1652
▁인천	-1653
▁보니	-1654
없는	-1655
▁일은	-1656
웠다	-1657
▁그래도	-1658
▁이르	-1659
체의	-1660
▁잠시	-1661
▁이론	-1662
▁100	-1663
▁칠	-1664
보았다	-1665
▁기간	-1666
스럽게	-1667
▁비슷	-1668
▁판매	-1669
▁H	-1670
▁마을	-1671
▁그걸	-1672
▁지켜	-1673
▁위원	-1674
▁시간을	-1675
▁아닙	-1676
▁빨리	-1677
비를	-1678
구를	-1679
▁하며	-1680
▁염	-1681
▁떠나	-1682
▁가격	-1683
경을	-1684
▁다음과	-1685
▁강화	-1686
▁쳐	-1687
▁고통	-1688
부의	-1689
▁말고	-1690
▁감독	-1691
▁주요	-1692
▁나누	-1693
▁대해서는	-1694
▁나왔	-1695
▁빠져	-1696
▁들고	-1697
정의	-1698
▁보통	-1699
▁못했다	-1700
▁밥	-1701
▁보이	-1702
▁덕	-1703
st	-1704
▁절대	-1705
▁14	-1706
▁낙	-1707
했지만	-1708
▁어려운	-1709
▁아닌가	-1710
▁전화	-1711
대는	-1712
▁유럽	-1713
▁있으면	-1714
▁타고	-1715
▁공격	-1716
▁엄청	-1717
▁대로	-1718
▁소개	-1719
원에서	-1720
▁분위	-1721
▁금융	-1722
▁경우가	-1723
▁왜냐	-1724
▁문제는	-1725
▁대구	-1726
한다고	-1727
▁독일	-1728
▁해석	-1729
▁펼	-1730
▁정당	-1731
▁사회적	-1732
▁인물	-1733
▁먹고	-1734
▁완전히	-1735
▁않으면	-1736
▁지배	-1737
▁예술	-1738
▁시절	-1739
체가	-1740
▁없다는	-1741
▁색	-1742
▁아까	-1743
문학	-1744
▁보호	-1745
체를	-1746
우고	-1747
▁머리	-1748
상에	-1749
▁쓴	-1750
▁질문	-1751
▁보이는	-1752
▁듣고	-1753
함으로써	-1754
▁중앙	-1755
▁아버지	-1756
▁필요가	-1757
▁루	-1758
ed	-1759
▁남아	-1760
이라면	-1761
명한	-1762
▁업무	-1763
▁퇴	-1764
ou	-1765
▁목적	-1766
▁사이에	-1767
이트	-1768
▁같습니다	-1769
▁뜨	-1770
▁괴	-1771
조차	-1772
제의	-1773
▁녹	-1774
▁달려	-1775
▁여전히	-1776
▁불러	-1777
어들	-1778
그렇죠	-1779
▁50	-1780
▁훈	-1781
보면	-1782
▁지식	-1783
▁기존	-1784
▁겪	-1785
▁있어야	-1786
도에	-1787
▁마음이	-1788
▁집에	-1789
▁선수	-1790
▁하게	-1791
▁지금까지	-1792
▁힘을	-1793
)'	-1794
함을	-1795
부는	-1796
세를	-1797
▁짐	-1798
이면	-1799
▁넘어	-1800
▁등에	-1801
▁밑	-1802
▁그러한	-1803
자들의	-1804
▁주인	-1805
▁다니	-1806
▁자본	-1807
▁나도	-1808
▁책을	-1809
▁것과	-1810
하기도	-1811
▁조건	-1812
▁티	-1813
▁규모	-1814
▁광고	-1815
▁파악	-1816
▁졸	-1817
il	-1818
심히	-1819
▁일으	-1820
나무	-1821
▁것이라고	-1822
▁놓고	-1823
음이	-1824
▁했습니다	-1825
센트	-1826
▁불구하고	-1827
▁못하는	-1828
▁인사	-1829
▁부정	-1830
▁확실	-1831
▁자주	-1832
놓고	-1833
자인	-1834
▁형성	-1835
▁걱정	-1836
▁아무리	-1837
▁냉	-1838
점이	-1839
▁나오는	-1840
▁아름다	-1841
▁신문	-1842
▁하였다	-1843
▁말하는	-1844
▁단계	-1845
▁상당히	-1846
리스	-1847
자에	-1848
▁던	-1849
et	-1850
▁하다	-1851
▁한다고	-1852
▁부담	-1853
세기	-1854
산업	-1855
▁앉아	-1856
▁그만	-1857
▁수행	-1858
▁것에	-1859
▁인터넷	-1860
말로	-1861
▁뭔가	-1862
▁예상	-1863
사와	-1864
▁길을	-1865
더라고	-1866
▁다가	-1867
같은	-1868
제는	-1869
▁뿌	-1870
▁보인다	-1871
▁앞에서	-1872
지로	-1873
▁약속	-1874
아버	-1875
▁예정	-1876
▁혈	-1877
▁측면	-1878
▁반면	-1879
하라	-1880
▁등장	-1881
▁그리스	-1882
▁받았	-1883
▁넓	-1884
▁아닐	-1885
(19	-1886
간의	-1887
▁섬	-1888
▁핵심	-1889
▁방문	-1890
▁197	-1891
▁제일	-1892
▁지지	-1893
▁0	-1894
▁차지	-1895
▁실제	-1896
▁워	-1897
스러운	-1898
관을	-1899
▁고민	-1900
ation	-1901
▁늦	-1902
▁관심을	-1903
정책	-1904
▁왔다	-1905
▁이전	-1906
▁반응	-1907
십니까	-1908
▁찍	-1909
▁것인가	-1910
▁원래	-1911
▁정상	-1912
▁시대	-1913
▁W	-1914
▁입장	-1915
▁놈	-1916
등학교	-1917
▁이십	-1918
▁쌓	-1919
▁통일	-1920
▁의한	-1921
▁불안	-1922
▁이때	-1923
▁확대	-1924
▁이날	-1925
단을	-1926
▁만드는	-1927
▁희망	-1928
▁아내	-1929
▁확보	-1930
▁the	-1931
해요	-1932
간에	-1933
▁건설	-1934
▁탐	-1935
▁맥	-1936
▁각각	-1937
▁만한	-1938
▁있겠	-1939
▁따른	-1940
▁가능성이	-1941
▁괜찮	-1942
▁그건	-1943
▁이익	-1944
▁러	-1945
▁그니까	-1946
기고	-1947
일까	-1948
▁영국	-1949
인들이	-1950
▁있다면	-1951
▁설치	-1952
시장	-1953
이에	-1954
렀다	-1955
회는	-1956
▁묘	-1957
▁실패	-1958
▁눈에	-1959
▁향해	-1960
한다면	-1961
했다고	-1962
신을	-1963
하는데	-1964
하신	-1965
▁대체	-1966
▁나타나	-1967
▁독립	-1968
화의	-1969
▁실시	-1970
▁굳	-1971
▁[	-1972
▁받는	-1973
▁많다	-1974
▁재미	-1975
▁사무	-1976
▁그렇지	-1977
▁없습니다	-1978
as	-1979
▁보였다	-1980
▁해외	-1981
▁앞서	-1982
▁의사	-1983
▁돌아가	-1984
위에	-1985
학생	-1986
▁그다	-1987
▁철학	-1988
나요	-1989
▁아는	-1990
▁대중	-1991
▁푸	-1992
▁다만	-1993
내고	-1994
그런데	-1995
▁d	-1996
▁이천	-1997
▁그동안	-1998
10	-1999
▁아니었다	-2000
▁씨가	-2001
▁불과	-2002
했다는	-2003
▁휘	-2004
▁저녁	-2005
▁아빠	-2006
▁인해	-2007
치가	-2008
한국	-2009
시설	-2010
▁검찰	-2011
▁없었	-2012
씨는	-2013
▁의식	-2014
▁그곳	-2015
▁되는데	-2016
약을	-2017
▁경우는	-2018
▁뒷	-2019
▁캐	-2020
감이	-2021
▁25	-2022
상은	-2023
▁중심으로	-2024
시킨	-2025
▁정리	-2026
▁일어	-2027
님은	-2028
▁말해	-2029
▁집단	-2030
▁결코	-2031
▁같아요	-2032
질을	-2033
▁사례	-2034
▁과정에서	-2035
▁거래	-2036
▁벽	-2037
▁과연	-2038
▁논의	-2039
▁제기	-2040
▁습	-2041
이의	-2042
을까	-2043
▁열심히	-2044
▁주로	-2045
▁자동차	-2046
▁수익	-2047
어버	-2048
하셨	-2049
와의	-2050
했는데	-2051
▁기초	-2052
▁이유는	-2053
▁이끌	-2054
▁엘	-2055
▁」	-2056
▁둘러	-2057
▁같애	-2058
기술	-2059
구가	-2060
요일	-2061
게요	-2062
▁출신	-2063
▁느껴	-2064
▁변호	-2065
이런	-2066
이에요	-2067
법을	-2068
▁근거	-2069
섰다	-2070
▁뇌	-2071
▁창조	-2072
▁누군	-2073
개월	-2074
▁그들이	-2075
당이	-2076
le	-2077
▁놀라	-2078
▁1.	-2079
▁국회	-2080
▁사람들의	-2081
▁말은	-2082
▁작업	-2083
▁성격	-2084
▁비용	-2085
▁치료	-2086
▁여기에	-2087
▁해주	-2088
▁시스템	-2089
▁배우	-2090
그러니까	-2091
주를	-2092
▁알았	-2093
▁ᆞ	-2094
▁전달	-2095
▁원칙	-2096
▁음식	-2097
▁받을	-2098
▁어찌	-2099
▁들었다	-2100
(2	-2101
실을	-2102
였던	-2103
▁명의	-2104
▁주식	-2105
▁전망	-2106
르게	-2107
ent	-2108
▁특징	-2109
그럼	-2110
▁오후	-2111
▁뒤에	-2112
도시	-2113
▁안녕	-2114
▁스타	-2115
▁접근	-2116
▁충분히	-2117
▁대단	-2118
▁물었다	-2119
▁지금은	-2120
▁이동	-2121
▁텐	-2122
▁능력	-2123
지게	-2124
들어	-2125
어를	-2126
▁대하여	-2127
▁좋다	-2128
▁갈등	-2129
▁든	-2130
▁솔	-2131
▁군사	-2132
▁기자	-2133
구의	-2134
겠어요	-2135
▁히	-2136
▁and	-2137
▁삶의	-2138
▁컴	-2139
▁물건	-2140
▁말이다	-2141
하려는	-2142
행을	-2143
십시오	-2144
▁그래요	-2145
▁직원	-2146
▁이것이	-2147
▁살고	-2148
개발	-2149
▁지키	-2150
▁때까지	-2151
하세요	-2152
▁내용을	-2153
▁아파트	-2154
▁위하여	-2155
▁얼굴을	-2156
▁점을	-2157
▁그렇다면	-2158
과를	-2159
이게	-2160
만의	-2161
▁두려	-2162
▁네네	-2163
▁곡	-2164
▁통합	-2165
▁영역	-2166
▁공개	-2167
소가	-2168
▁왜냐하면	-2169
▁J	-2170
▁40	-2171
un	-2172
▁규정	-2173
▁후에	-2174
▁자체가	-2175
▁s	-2176
▁바꾸	-2177
라이	-2178
▁위치	-2179
수한	-2180
▁정치적	-2181
원으로	-2182
관리	-2183
▁관련된	-2184
부에	-2185
▁혜	-2186
일이	-2187
▁개선	-2188
▁꼬	-2189
고를	-2190
▁자료	-2191
▁어쩌	-2192
겼다	-2193
▁했지만	-2194
▁상승	-2195
▁가정	-2196
▁되게	-2197
켰다	-2198
▁모르는	-2199
▁소유	-2200
누리	-2201
많은	-2202
해주	-2203
이지만	-2204
론을	-2205
▁말에	-2206
▁걷	-2207
▁작용	-2208
▁식으로	-2209
',	-2210
▁굴	-2211
일한	-2212
▁제작	-2213
다니	-2214
▁와서	-2215
▁이들	-2216
▁행정	-2217
▁어떠	-2218
▁거는	-2219
▁소리를	-2220
▁가득	-2221
▁낳	-2222
▁점점	-2223
▁정의	-2224
▁생각하는	-2225
▁미국의	-2226
▁안에서	-2227
종의	-2228
사로	-2229
계의	-2230
,000	-2231
문이	-2232
▁삶을	-2233
▁비해	-2234
은행	-2235
2)	-2236
▁최초	-2237
았던	-2238
▁신경	-2239
근혜	-2240
▁짧	-2241
▁물어	-2242
▁갔다	-2243
▁196	-2244
▁같았다	-2245
▁2.	-2246
▁촉	-2247
▁없다고	-2248
민주	-2249
위가	-2250
▁그러므로	-2251
분을	-2252
▁주목	-2253
▁개혁	-2254
▁말할	-2255
하시	-2256
준다	-2257
▁21	-2258
쨌든	-2259
▁시각	-2260
것도	-2261
▁대통령이	-2262
▁부동	-2263
▁가능한	-2264
30	-2265
▁맺	-2266
정으로	-2267
자에게	-2268
▁관광	-2269
리기	-2270
▁깊은	-2271
디오	-2272
▁납	-2273
▁심각	-2274
▁청년	-2275
』,	-2276
가에	-2277
▁도움이	-2278
대학	-2279
▁평균	-2280
▁《	-2281
▁보험	-2282
위원회	-2283
지기	-2284
▁단지	-2285
▁이름을	-2286
소한	-2287
▁공연	-2288
적을	-2289
▁마침	-2290
▁각종	-2291
장님	-2292
▁c	-2293
▁공급	-2294
▁점에서	-2295
▁처리	-2296
▁싶어	-2297
ro	-2298
▁바다	-2299
퓨터	-2300
▁개의	-2301
▁별로	-2302
기와	-2303
일을	-2304
▁택	-2305
▁끝나	-2306
▁이건	-2307
▁되었	-2308
▁상호	-2309
네네	-2310
하나	-2311
▁언급	-2312
▁입을	-2313
▁상상	-2314
신이	-2315
▁척	-2316
보다도	-2317
▁있었고	-2318
▁긍	-2319
비가	-2320
▁뭘	-2321
▁도입	-2322
▁은행	-2323
▁징	-2324
▁실천	-2325
▁하셨	-2326
▁장기	-2327
해도	-2328
▁관계를	-2329
▁대상으로	-2330
▁시험	-2331
▁도착	-2332
물의	-2333
▁강력	-2334
▁때마다	-2335
어져	-2336
▁의미를	-2337
▁이들은	-2338
▁담당	-2339
▁부산	-2340
▁만족	-2341
▁잡아	-2342
면서도	-2343
▁시행	-2344
▁훈련	-2345
▁경기도	-2346
50	-2347
▁안정	-2348
▁셈	-2349
독교	-2350
▁작가	-2351
▁쏟	-2352
▁프랑스	-2353
▁것이고	-2354
▁반영	-2355
사람	-2356
▁멈	-2357
▁훌	-2358
▁블	-2359
지어	-2360
▁포기	-2361
▁추가	-2362
이터	-2363
시를	-2364
스터	-2365
▁생명	-2366
▁아들	-2367
▁혹시	-2368
▁않습니까	-2369
.'	-2370
장과	-2371
차를	-2372
▁출발	-2373
▁상징	-2374
▁그녀가	-2375
이자	-2376
▁됐다	-2377
되었	-2378
이제	-2379
▁만에	-2380
▁바뀌	-2381
보자	-2382
단체	-2383
두고	-2384
▁그렇습니다	-2385
▁멋	-2386
▁상황이	-2387
▁제한	-2388
▁부르	-2389
▁차례	-2390
▁분명히	-2391
거운	-2392
락을	-2393
대표	-2394
▁들어서	-2395
점에서	-2396
▁받아들	-2397
▁궁금	-2398
정치	-2399
력의	-2400
▁전해	-2401
▁에너	-2402
▁쓰는	-2403
▁종합	-2404
▁자녀	-2405
겠죠	-2406
시킬	-2407
▁돼요	-2408
▁알게	-2409
고는	-2410
▁청소	-2411
▁저도	-2412
▁이상의	-2413
시가	-2414
ac	-2415
▁옥	-2416
▁나중에	-2417
▁아프	-2418
▁다섯	-2419
▁관계자는	-2420
1)	-2421
겠습니까	-2422
장으로	-2423
▁뽑	-2424
시다	-2425
▁중에서	-2426
▁할머니	-2427
아이	-2428
▁명이	-2429
▁보기	-2430
▁위로	-2431
▁장애	-2432
▁썼	-2433
▁받았다	-2434
드리	-2435
▁벗어나	-2436
드를	-2437
▁대응	-2438
▁등으로	-2439
포츠	-2440
▁전환	-2441
리적	-2442
▁재판	-2443
▁다음에	-2444
▁간단	-2445
▁삼성	-2446
▁내게	-2447
▁수용	-2448
▁행사	-2449
▁학습	-2450
인과	-2451
▁유리	-2452
▁들여	-2453
▁짜	-2454
▁때도	-2455
▁필요하다	-2456
▁둔	-2457
▁옛날	-2458
씨가	-2459
▁이른	-2460
▁도와	-2461
▁가고	-2462
심이	-2463
방을	-2464
▁며	-2465
조건	-2466
▁남북	-2467
▁24	-2468
▁모른다	-2469
▁언제나	-2470
▁벌어	-2471
▁나이	-2472
쪽으로	-2473
▁전문가	-2474
▁제도	-2475
▁오른	-2476
▁주택	-2477
▁매일	-2478
지면	-2479
리와	-2480
▁자리를	-2481
▁수많은	-2482
▁기관	-2483
▁뿐만	-2484
▁컴퓨터	-2485
▁교회	-2486
▁같은데	-2487
해를	-2488
▁보이지	-2489
▁정보를	-2490
▁객	-2491
계가	-2492
주가	-2493
하고자	-2494
▁방법을	-2495
까지는	-2496
▁체험	-2497
▁대비	-2498
▁○	-2499
▁일이다	-2500
당한	-2501
▁우려	-2502
▁듯한	-2503
▁아직도	-2504
▁당신이	-2505
▁공공	-2506
▁기울	-2507
이었던	-2508
▁떠올	-2509
화된	-2510
▁하자	-2511
▁봄	-2512
▁범죄	-2513
권의	-2514
시키고	-2515
▁오늘날	-2516
▁러시아	-2517
.1	-2518
개의	-2519
▁소리가	-2520
▁맞는	-2521
▁자기가	-2522
불어	-2523
▁경우에	-2524
가고	-2525
환경	-2526
▁in	-2527
▁이처럼	-2528
▁나머	-2529
▁당연히	-2530
되어야	-2531
▁오랜	-2532
▁여름	-2533
면을	-2534
▁콘	-2535
▁끌어	-2536
▁씨는	-2537
▁나타난	-2538
▁해요	-2539
▁신뢰	-2540
▁불가능	-2541
되기	-2542
▁반복	-2543
▁홈	-2544
▁너무나	-2545
▁회의	-2546
____	-2547
만으로	-2548
되면	-2549
▁하더라도	-2550
이어	-2551
만은	-2552
만원	-2553
▁세월	-2554
레스	-2555
▁흘러	-2556
▁강한	-2557
▁부탁	-2558
▁제외	-2559
▁서비스	-2560
자들	-2561
▁그날	-2562
▁있었는데	-2563
▁새누리	-2564
▁수출	-2565
▁벌써	-2566
▁인도	-2567
▁있는지	-2568
▁걸어	-2569
이기도	-2570
▁맨	-2571
▁미리	-2572
▁않을까	-2573
▁된다는	-2574
군의	-2575
하려고	-2576
ur	-2577
▁수입	-2578
▁끄	-2579
소에	-2580
▁둘째	-2581
▁수사	-2582
▁있었습니다	-2583
든가	-2584
리며	-2585
▁들려	-2586
더라	-2587
▁흔들	-2588
▁이제는	-2589
학적	-2590
세가	-2591
▁참석	-2592
▁이유가	-2593
▁대한민	-2594
▁박근혜	-2595
활동	-2596
▁쓰고	-2597
▁거기에	-2598
▁신청	-2599
리라	-2600
간다	-2601
류의	-2602
▁문을	-2603
▁겨울	-2604
▁조성	-2605
▁계약	-2606
당의	-2607
뿐만	-2608
▁상처	-2609
▁법률	-2610
▁예산	-2611
래도	-2612
▁교통	-2613
▁곤	-2614
▁통한	-2615
▁게임	-2616
계획	-2617
하기로	-2618
술을	-2619
인들은	-2620
us	-2621
▁더불어	-2622
▁분이	-2623
량을	-2624
▁바탕	-2625
▁원하는	-2626
▁거부	-2627
▁영어	-2628
해진	-2629
▁흑	-2630
▁머리를	-2631
▁상황에서	-2632
▁홀	-2633
▁대화	-2634
▁뛰어	-2635
▁쪽으로	-2636
▁않게	-2637
다른	-2638
구조	-2639
▁어쨌든	-2640
형을	-2641
▁먹는	-2642
선이	-2643
년이	-2644
가요	-2645
▁뿐이다	-2646
▁그저	-2647
▁기독교	-2648
▁선정	-2649
▁높아	-2650
▁사람들을	-2651
▁못할	-2652
▁부동산	-2653
▁실현	-2654
▁비슷한	-2655
▁밝혀	-2656
▁리더	-2657
었어요	-2658
▁시설	-2659
▁칭	-2660
▁헌법	-2661
▁힘이	-2662
▁스트	-2663
재인	-2664
세계	-2665
▁건데	-2666
치지	-2667
▁정부가	-2668
이라며	-2669
일에	-2670
▁일에	-2671
무를	-2672
▁논란	-2673
▁어제	-2674
▁증거	-2675
▁새로	-2676
▁상황을	-2677
▁하나님	-2678
▁하나는	-2679
▁혐	-2680
▁O	-2681
▁구분	-2682
품을	-2683
▁냄	-2684
자리	-2685
적으로는	-2686
▁부여	-2687
▁곳에	-2688
▁3.	-2689
▁설립	-2690
▁보자	-2691
▁아름다운	-2692
▁도덕	-2693
▁조용	-2694
관은	-2695
▁셋	-2696
▁아무런	-2697
바로	-2698
▁구축	-2699
▁그에게	-2700
▁생각하고	-2701
생을	-2702
▁텐데	-2703
▁집을	-2704
▁철저	-2705
지와	-2706
년부터	-2707
량이	-2708
▁시청	-2709
▁달러	-2710
▁청와	-2711
▁시도	-2712
율이	-2713
▁거짓	-2714
▁차이가	-2715
절한	-2716
▁올려	-2717
▁도로	-2718
라마	-2719
▁돌려	-2720
▁검토	-2721
▁평화	-2722
▁브랜드	-2723
▁컨	-2724
전의	-2725
▁생긴	-2726
선거	-2727
▁임금	-2728
▁부분이	-2729
되면서	-2730
▁결과를	-2731
▁엉	-2732
▁비록	-2733
력은	-2734
마트	-2735
▁보도	-2736
책을	-2737
▁있죠	-2738
국이	-2739
▁어깨	-2740
id	-2741
상으로	-2742
▁본격	-2743
▁요청	-2744
대체	-2745
▁없어요	-2746
▁아이가	-2747
▁엔	-2748
▁자꾸	-2749
▁균	-2750
▁글을	-2751
녀석	-2752
겠지	-2753
▁n	-2754
▁U	-2755
다란	-2756
하겠다	-2757
위는	-2758
▁과정을	-2759
▁잠깐	-2760
▁직업	-2761
▁것들이	-2762
▁때가	-2763
▁쫓	-2764
▁쥐	-2765
▁회복	-2766
▁건물	-2767
▁경향	-2768
▁근본	-2769
▁긍정	-2770
▁복잡	-2771
▁무시	-2772
과학	-2773
▁b	-2774
▁경우도	-2775
위의	-2776
▁동물	-2777
단이	-2778
리게	-2779
▁그것도	-2780
▁정도의	-2781
▁거쳐	-2782
▁있을까	-2783
시죠	-2784
▁으	-2785
텔레	-2786
▁낭	-2787
▁합의	-2788
▁기분	-2789
▁보았다	-2790
목을	-2791
▁사망	-2792
군이	-2793
▁묵	-2794
시의	-2795
정보	-2796
년의	-2797
▁다루	-2798
▁주인공	-2799
제에	-2800
당은	-2801
▁첫째	-2802
와는	-2803
▁지급	-2804
▁기반	-2805
▁무엇을	-2806
들로	-2807
▁실험	-2808
길을	-2809
안이	-2810
3)	-2811
▁모여	-2812
▁있음을	-2813
▁널	-2814
이렇게	-2815
▁대부분의	-2816
▁모델	-2817
마디	-2818
▁세상을	-2819
▁맹	-2820
서가	-2821
재를	-2822
▁사상	-2823
▁훌륭	-2824
▁저희가	-2825
지원	-2826
▁멀리	-2827
▁눈이	-2828
▁죽음	-2829
▁녀석	-2830
트는	-2831
em	-2832
전이	-2833
더라고요	-2834
히는	-2835
▁특별한	-2836
▁22	-2837
▁마음에	-2838
▁f	-2839
▁요소	-2840
▁비밀	-2841
▁쇼	-2842
▁근대	-2843
▁형식	-2844
년간	-2845
사실	-2846
▁참가	-2847
▁●	-2848
하니	-2849
했으며	-2850
▁맞아	-2851
▁지구	-2852
▁이걸	-2853
.2	-2854
▁활동을	-2855
스크	-2856
규모	-2857
▁덜	-2858
▁최대	-2859
권이	-2860
▁극복	-2861
인들의	-2862
인으로	-2863
▁쳐다	-2864
▁게다가	-2865
▁탁	-2866
▁몰라	-2867
▁열린	-2868
▁사람들에게	-2869
▁내부	-2870
업체	-2871
▁나아가	-2872
▁상담	-2873
▁기회를	-2874
▁추구	-2875
▁완전	-2876
▁자네	-2877
만한	-2878
▁싶다	-2879
케팅	-2880
▁털	-2881
▁주도	-2882
▁거지	-2883
증을	-2884
----	-2885
▁보수	-2886
놓은	-2887
0%	-2888
▁밖에	-2889
▁자식	-2890
이스	-2891
▁m	-2892
▁오빠	-2893
▁하나가	-2894
▁몽	-2895
▁그에	-2896
▁속으로	-2897
▁졸업	-2898
▁아닙니다	-2899
▁건축	-2900
▁본다	-2901
번에	-2902
인데요	-2903
▁최고의	-2904
▁떼	-2905
▁챙	-2906
였습니다	-2907
▁쏟아	-2908
▁개최	-2909
학을	-2910
화는	-2911
▁된다고	-2912
▁지하	-2913
▁한국의	-2914
치게	-2915
하려	-2916
호를	-2917
▁나올	-2918
리카	-2919
▁일상	-2920
▁가야	-2921
▁했고	-2922
▁슈	-2923
회에	-2924
▁영업	-2925
▁전개	-2926
냐면	-2927
문의	-2928
▁모습이	-2929
▁삼십	-2930
펀드	-2931
▁나오고	-2932
▁것이라는	-2933
적이다	-2934
로서의	-2935
▁죽은	-2936
어주	-2937
▁퍼센트	-2938
▁a	-2939
▁공식	-2940
나가	-2941
▁내일	-2942
리면	-2943
▁물을	-2944
았습니다	-2945
▁탓	-2946
으므로	-2947
조선	-2948
르크	-2949
▁가입	-2950
▁엄청난	-2951
▁언니	-2952
▁젖	-2953
키는	-2954
▁조심	-2955
에만	-2956
▁이뤄	-2957
이죠	-2958
▁거라고	-2959
▁국민의	-2960
기까지	-2961
▁바닥	-2962
▁광주	-2963
마저	-2964
▁단체	-2965
▁생각한다	-2966
▁상관	-2967
▁나왔다	-2968
▁23	-2969
력과	-2970
▁보장	-2971
다시	-2972
▁케이	-2973
신의	-2974
▁늘어	-2975
▁의료	-2976
▁아무도	-2977
조의	-2978
▁마찬가지로	-2979
▁흐름	-2980
▁당신은	-2981
▁가게	-2982
▁주었다	-2983
가락	-2984
▁옆에	-2985
ess	-2986
18	-2987
▁국회의	-2988
▁운전	-2989
▁말씀을	-2990
▁매출	-2991
야말로	-2992
▁가까운	-2993
▁물질	-2994
▁많아	-2995
인에	-2996
▁발언	-2997
학의	-2998
▁정부의	-2999
▁명령	-3000
▁말도	-3001
▁완성	-3002
▁말이야	-3003
▁먹을	-3004
▁계산	-3005
▁특정	-3006
별로	-3007
ter	-3008
▁무엇인가	-3009
▁공무	-3010
▁사람도	-3011
▁자리에	-3012
▁이번에	-3013
▁그러자	-3014
▁힘든	-3015
▁기사	-3016
▁갖추	-3017
▁서서	-3018
저는	-3019
▁사태	-3020
했기	-3021
▁깔	-3022
▁흡	-3023
▁좋을	-3024
15	-3025
▁고용	-3026
구는	-3027
▁냄새	-3028
▁나머지	-3029
▁불편	-3030
▁스포츠	-3031
▁문재인	-3032
▁예예	-3033
▁사항	-3034
▁기획	-3035
▁소득	-3036
어진다	-3037
▁좋아하는	-3038
▁w	-3039
▁않습니다	-3040
까지도	-3041
▁건너	-3042
단의	-3043
함이	-3044
▁나타났다	-3045
▁깜	-3046
▁생각했다	-3047
▁활성	-3048
▁당장	-3049
었지만	-3050
스타	-3051
이로	-3052
ra	-3053
▁TV	-3054
▁어떠한	-3055
▁국정	-3056
▁봐야	-3057
▁발달	-3058
▁아니에요	-3059
▁이하	-3060
▁집안	-3061
보험	-3062
기만	-3063
▁이래	-3064
▁어른	-3065
▁다행	-3066
▁심지어	-3067
▁도움을	-3068
▁아무것도	-3069
지면서	-3070
▁아니냐	-3071
▁어린이	-3072
▁말았다	-3073
▁민간	-3074
그니까	-3075
화에	-3076
▁의해서	-3077
▁커다란	-3078
ec	-3079
▁입장을	-3080
▁V	-3081
▁분들이	-3082
▁생기	-3083
▁이사	-3084
▁그만큼	-3085
▁체계	-3086
▁그다음에	-3087
▁외교	-3088
▁유치	-3089
▁펼쳐	-3090
▁26	-3091
▁선물	-3092
▁돈이	-3093
끄러	-3094
▁나쁜	-3095
군은	-3096
옵니다	-3097
낸다	-3098
▁붉	-3099
봅니다	-3100
▁세상에	-3101
▁하나님의	-3102
▁들어오	-3103
▁전부	-3104
▁가까이	-3105
▁대전	-3106
▁몸이	-3107
속에	-3108
▁중소	-3109
▁선언	-3110
▁고향	-3111
이었습니다	-3112
▁손에	-3113
트가	-3114
숨을	-3115
▁남성	-3116
▁곁	-3117
▁잡고	-3118
▁의심	-3119
스에	-3120
▁일찍	-3121
분에	-3122
▁근무	-3123
▁그렇다고	-3124
▁위협	-3125
명은	-3126
▁있는가	-3127
▁전투	-3128
▁시작한	-3129
▁불법	-3130
로를	-3131
▁부인	-3132
트의	-3133
▁숲	-3134
입니까	-3135
워서	-3136
국을	-3137
▁사회의	-3138
학과	-3139
▁낮은	-3140
▁기업의	-3141
▁27	-3142
▁한다면	-3143
▁생겨	-3144
▁그렇지만	-3145
▁화장	-3146
▁가면	-3147
억원	-3148
▁가리	-3149
▁관심이	-3150
서에	-3151
▁한마디	-3152
▁28	-3153
▁대형	-3154
▁문제에	-3155
▁따뜻	-3156
▁메시	-3157
▁이유로	-3158
▁당신의	-3159
▁일본의	-3160
겠어	-3161
.5	-3162
의식	-3163
▁교과	-3164
▁집에서	-3165
▁따로	-3166
미터	-3167
방송	-3168
▁그룹	-3169
▁덧	-3170
▁2000	-3171
▁처음으로	-3172
ig	-3173
▁전반	-3174
▁물러	-3175
▁뒤로	-3176
▁이것을	-3177
▁제안	-3178
▁밖으로	-3179
▁사람에게	-3180
▁겸	-3181
▁감정	-3182
▁아예	-3183
중한	-3184
▁빚	-3185
학년	-3186
▁만일	-3187
당을	-3188
▁만난	-3189
▁어울	-3190
▁지니	-3191
▁같아	-3192
▁나름	-3193
▁동생	-3194
▁재산	-3195
▁가끔	-3196
▁대선	-3197
▁지닌	-3198
하시는	-3199
히고	-3200
▁흔히	-3201
▁여론	-3202
▁로마	-3203
▁맞추	-3204
ers	-3205
12	-3206
방의	-3207
▁인간이	-3208
▁누구나	-3209
▁떨어져	-3210
▁옳	-3211
일보	-3212
▁주의	-3213
▁전자	-3214
▁쪼	-3215
▁194	-3216
▁유명한	-3217
▁무너	-3218
▁전화를	-3219
금이	-3220
▁능력을	-3221
▁사이의	-3222
▁느꼈	-3223
▁최종	-3224
▁뜻을	-3225
주의의	-3226
▁사랑을	-3227
▁글로	-3228
▁영원	-3229
쪽에	-3230
▁무서	-3231
그게	-3232
」,	-3233
력에	-3234
▁자랑	-3235
▁걸쳐	-3236
받는	-3237
▁길이	-3238
▁진실	-3239
▁본질	-3240
▁토론	-3241
했어요	-3242
'(	-3243
▁그려	-3244
▁아이를	-3245
▁끊임	-3246
▁도전	-3247
%)	-3248
받은	-3249
▁값	-3250
▁것인지	-3251
▁모두가	-3252
▁호텔	-3253
▁하시	-3254
▁네가	-3255
▁진정한	-3256
란다	-3257
▁자극	-3258
비에	-3259
바닥	-3260
▁통과	-3261
ce	-3262
님을	-3263
▁전시	-3264
점은	-3265
▁차별	-3266
▁새벽	-3267
회에서	-3268
▁간의	-3269
▁배경	-3270
▁△	-3271
▁신앙	-3272
▁찌	-3273
▁캠	-3274
▁아이들이	-3275
조사	-3276
▁덮	-3277
▁끝에	-3278
▁비난	-3279
▁마침내	-3280
▁곳이	-3281
▁사업을	-3282
▁60	-3283
점에	-3284
▁적은	-3285
▁태양	-3286
▁무엇이	-3287
▁들면	-3288
였고	-3289
▁나에게	-3290
▁했을	-3291
▁도망	-3292
▁받아들이	-3293
▁얼굴이	-3294
▁의미가	-3295
▁행동을	-3296
▁주체	-3297
▁않으	-3298
월에	-3299
▁예수	-3300
주택	-3301
미를	-3302
조를	-3303
거리는	-3304
배를	-3305
뮤니	-3306
▁며칠	-3307
서의	-3308
▁조정	-3309
표를	-3310
▁되기	-3311
류를	-3312
비는	-3313
▁저기	-3314
거래	-3315
오늘	-3316
▁섞	-3317
▁보지	-3318
▁듯이	-3319
대학교	-3320
회사	-3321
▁마케팅	-3322
당에	-3323
▁거기서	-3324
줘야	-3325
국가	-3326
▁아닙니까	-3327
▁했어요	-3328
보며	-3329
▁가로	-3330
▁때에는	-3331
▁관찰	-3332
▁꿈을	-3333
▁보면은	-3334
▁작성	-3335
▁깊이	-3336
▁결합	-3337
▁시기	-3338
▁욕망	-3339
▁쿠	-3340
분의	-3341
▁미안	-3342
▁사실상	-3343
▁보이고	-3344
▁설득	-3345
▁마주	-3346
관의	-3347
▁변화를	-3348
▁유형	-3349
시대	-3350
▁옷을	-3351
▁수요	-3352
▁아시아	-3353
▁이른바	-3354
▁파괴	-3355
▁액	-3356
▁가난	-3357
위로	-3358
▁세워	-3359
▁커피	-3360
▁것이며	-3361
무리	-3362
▁말로	-3363
▁그녀를	-3364
▁흉	-3365
▁섭	-3366
▁숫	-3367
▁드라마	-3368
▁발휘	-3369
ul	-3370
▁마이	-3371
▁획	-3372
▁지금도	-3373
▁받지	-3374
라인	-3375
▁재정	-3376
셔야	-3377
▁의원은	-3378
▁의무	-3379
도와	-3380
▁관계가	-3381
▁중요하다	-3382
▁준다	-3383
사한	-3384
▁심리	-3385
▁책임을	-3386
▁인한	-3387
용을	-3388
▁입고	-3389
▁영혼	-3390
▁그들	-3391
민의	-3392
▁소속	-3393
▁방법이	-3394
▁어쩔	-3395
▁참고	-3396
▁효율	-3397
봐야	-3398
▁깨달	-3399
▁진출	-3400
▁집으로	-3401
▁의혹	-3402
면에	-3403
▁틈	-3404
▁부분에	-3405
▁유명	-3406
년을	-3407
▁맛있	-3408
▁찾는	-3409
▁만들고	-3410
▁있잖아요	-3411
▁갖는	-3412
▁공포	-3413
▁의하여	-3414
▁말씀드	-3415
16	-3416
부모	-3417
▁홍보	-3418
▁끓	-3419
▁등은	-3420
연합	-3421
연히	-3422
▁안타	-3423
▁생활을	-3424
나게	-3425
▁자리에서	-3426
▁솔직	-3427
▁감소	-3428
실에	-3429
▁떠오	-3430
수로	-3431
th	-3432
▁예측	-3433
▁보면서	-3434
▁남은	-3435
▁전형	-3436
기간	-3437
▁우리에게	-3438
▁방식으로	-3439
▁생각할	-3440
▁그와	-3441
▁띄	-3442
os	-3443
차가	-3444
투자	-3445
4)	-3446
▁가치를	-3447
년에는	-3448
▁효과를	-3449
▁주지	-3450
▁꺼내	-3451
그렇게	-3452
▁분노	-3453
자들을	-3454
▁여자가	-3455
▁싫어	-3456
▁우주	-3457
▁보아	-3458
▁제거	-3459
▁비행	-3460
▁비롯한	-3461
계에	-3462
▁오늘은	-3463
▁꽤	-3464
.3	-3465
▁의견을	-3466
▁가만	-3467
▁잇	-3468
▁왼	-3469
▁근로	-3470
▁할아버	-3471
단은	-3472
부로	-3473
니아	-3474
▁도대체	-3475
▁검은	-3476
▁첨	-3477
▁낯	-3478
▁들이	-3479
▁부분을	-3480
▁실질	-3481
드가	-3482
▁팬	-3483
▁대한민국	-3484
▁제조	-3485
▁아무래도	-3486
▁가을	-3487
▁수상	-3488
17	-3489
▁엄마가	-3490
▁화가	-3491
▁현상	-3492
▁변호사	-3493
▁보유	-3494
▁일정	-3495
▁벤	-3496
케이션	-3497
방이	-3498
▁말한	-3499
또는	-3500
률이	-3501
▁동네	-3502
해서는	-3503
▁묶	-3504
져야	-3505
▁내용이	-3506
▁제출	-3507
▁없었던	-3508
▁같애요	-3509
▁하겠습니다	-3510
구려	-3511
▁열어	-3512
구에	-3513
▁처벌	-3514
▁간에	-3515
▁오전	-3516
자들에게	-3517
▁부드	-3518
화와	-3519
▁케	-3520
려야	-3521
▁뉴스	-3522
▁시간에	-3523
▁여유	-3524
▁못한다	-3525
만에	-3526
▁텔레	-3527
▁강력한	-3528
ag	-3529
▁콜	-3530
▁보여주	-3531
▁사실이	-3532
▁것들을	-3533
천히	-3534
▁하니까	-3535
▁얘기가	-3536
▁전기	-3537
이거	-3538
주의적	-3539
▁있으니까	-3540
▁일도	-3541
랫동안	-3542
▁옮겨	-3543
▁싱	-3544
말을	-3545
▁라고	-3546
▁점이	-3547
시켰다	-3548
▁이외	-3549
인에게	-3550
▁적극적으로	-3551
▁그러니	-3552
▁구속	-3553
▁때부터	-3554
▁맞춰	-3555
▁장면	-3556
▁동료	-3557
▁동의	-3558
워크	-3559
마자	-3560
▁아저	-3561
▁신고	-3562
원과	-3563
평가	-3564
거렸다	-3565
▁혁명	-3566
▁일반적으로	-3567
▁무렵	-3568
▁업체	-3569
▁겨우	-3570
진이	-3571
▁완벽	-3572
신은	-3573
발을	-3574
▁맞아요	-3575
▁구체적인	-3576
▁좁	-3577
역을	-3578
▁희생	-3579
▁고양	-3580
▁오십	-3581
▁폴	-3582
▁경제적	-3583
유의	-3584
▁추천	-3585
▁올라가	-3586
▁머물	-3587
▁안녕하세요	-3588
▁중국의	-3589
ri	-3590
▁개인의	-3591
▁데리고	-3592
지에서	-3593
▁다녀	-3594
▁감각	-3595
▁현장	-3596
▁출판	-3597
셔서	-3598
▁초기	-3599
▁적어도	-3600
▁아마도	-3601
▁등록	-3602
▁거리	-3603
▁대표적인	-3604
▁아버지가	-3605
▁말하고	-3606
▁저항	-3607
▁좀더	-3608
증이	-3609
▁바탕으로	-3610
프로	-3611
▁쌍	-3612
▁달성	-3613
니스	-3614
문에	-3615
▁통하여	-3616
▁오랫동안	-3617
▁단순히	-3618
소득	-3619
km	-3620
과정	-3621
▁협력	-3622
일부터	-3623
▁혼란	-3624
소리	-3625
▁천천히	-3626
▁점이다	-3627
진을	-3628
ity	-3629
겠는가	-3630
▁똑같은	-3631
▁예정이다	-3632
▁수업	-3633
산이	-3634
▁직장	-3635
▁구입	-3636
▁햇	-3637
질이	-3638
▁진보	-3639
▁위에서	-3640
우스	-3641
대에서	-3642
라며	-3643
려서	-3644
▁기타	-3645
▁통제	-3646
14	-3647
으로서의	-3648
노동	-3649
립니다	-3650
보니	-3651
관에	-3652
▁아닐까	-3653
선의	-3654
▁소통	-3655
▁공통	-3656
▁중간	-3657
▁날아	-3658
▁내는	-3659
▁한참	-3660
▁깨끗	-3661
▁이웃	-3662
▁틀림	-3663
림픽	-3664
▁장소	-3665
ew	-3666
일까지	-3667
▁◆	-3668
▁뚜	-3669
이오	-3670
▁기념	-3671
▁감사합니다	-3672
▁차를	-3673
▁쉽지	-3674
▁그들을	-3675
산의	-3676
▁외부	-3677
▁사용하는	-3678
▁상황에	-3679
▁생각합니다	-3680
▁우리를	-3681
실에서	-3682
권에	-3683
▁평생	-3684
▁≪	-3685
▁고맙	-3686
▁훌륭한	-3687
?”	-3688
▁이내	-3689
▁쌀	-3690
받고	-3691
이니	-3692
▁몸에	-3693
셨어요	-3694
%,	-3695
▁풀어	-3696
해가	-3697
았고	-3698
▁오르	-3699
성으로	-3700
▁이탈	-3701
달러	-3702
국은	-3703
▁뻔	-3704
▁일어난	-3705
예예	-3706
세의	-3707
▁청소년	-3708
하자면	-3709
▁느낌이	-3710
▁효과가	-3711
▁The	-3712
▁Y	-3713
▁구매	-3714
▁명확	-3715
여서	-3716
▁지혜	-3717
▁참조	-3718
▁노력을	-3719
▁모르고	-3720
마를	-3721
▁원을	-3722
전쟁	-3723
컨대	-3724
▁뭐가	-3725
▁다소	-3726
▁어쩌면	-3727
▁객관	-3728
▁인터뷰	-3729
▁권력	-3730
um	-3731
그룹	-3732
▁좋지	-3733
▁있었지만	-3734
▁정부는	-3735
od	-3736
ad	-3737
▁대출	-3738
드의	-3739
공사	-3740
25	-3741
▁못해	-3742
▁커뮤니	-3743
▁흰	-3744
▁방법은	-3745
집을	-3746
▁낼	-3747
로소	-3748
▁났	-3749
▁의하면	-3750
율을	-3751
▁어디서	-3752
셨다	-3753
▁판결	-3754
▁춤	-3755
▁얻어	-3756
▁29	-3757
▁오직	-3758
▁새누리당	-3759
oc	-3760
그러면	-3761
하다가	-3762
제도	-3763
▁연속	-3764
▁사랑하는	-3765
용이	-3766
▁생각은	-3767
▁대립	-3768
▁성적	-3769
▁유통	-3770
▁있는데요	-3771
져서	-3772
▁수원	-3773
▁하던	-3774
연을	-3775
(3	-3776
▁곳에서	-3777
▁안으로	-3778
법이	-3779
▁결론	-3780
▁꼽	-3781
▁모아	-3782
▁할지	-3783
와서	-3784
▁나눠	-3785
▁역사적	-3786
▁있거든요	-3787
하면서도	-3788
동이	-3789
▁점차	-3790
▁매달	-3791
마는	-3792
▁계속해서	-3793
▁투쟁	-3794
▁닫	-3795
▁서양	-3796
복지	-3797
▁선배	-3798
▁튀	-3799
13	-3800
▁하겠다	-3801
스런	-3802
▁설정	-3803
▁아니야	-3804
▁내년	-3805
▁기능을	-3806
▁일종의	-3807
.,	-3808
▁기여	-3809
▁한반	-3810
▁분류	-3811
▁낸	-3812
주로	-3813
▁내지	-3814
▁만약에	-3815
▁강조했다	-3816
▁덧붙	-3817
▁이야기가	-3818
군을	-3819
▁단순한	-3820
나마	-3821
문은	-3822
▁술을	-3823
▁/	-3824
조가	-3825
▁느낄	-3826
기지	-3827
조는	-3828
▁이번에는	-3829
▁병원	-3830
▁얻을	-3831
▁들은	-3832
▁수학	-3833
국에	-3834
▁창출	-3835
물에	-3836
▁걸로	-3837
▁기분이	-3838
▁떨어진	-3839
마을	-3840
▁바꿔	-3841
▁계획이다	-3842
리한	-3843
▁닦	-3844
▁돌아오	-3845
아주	-3846
▁표시	-3847
▁당선	-3848
▁공유	-3849
경이	-3850
▁거대한	-3851
방에	-3852
가로	-3853
번째	-3854
에게서	-3855
▁않도록	-3856
▁쇠	-3857
▁끊임없이	-3858
▁개정	-3859
들이다	-3860
▁설명했다	-3861
▁샤	-3862
하십니까	-3863
▁자아	-3864
▁국가의	-3865
▁쫌	-3866
▁성과	-3867
▁심각한	-3868
▁그러고	-3869
▁입장에서	-3870
▁정체	-3871
어로	-3872
▁어렵다	-3873
▁손으로	-3874
▁이해할	-3875
▁기운	-3876
법에	-3877
▁제주	-3878
이었고	-3879
하여야	-3880
▁이상한	-3881
었어	-3882
▁무릎	-3883
▁검사	-3884
▁혁신	-3885
▁인간은	-3886
직한	-3887
▁연락	-3888
.4	-3889
호가	-3890
▁늙	-3891
▁벼	-3892
▁차이	-3893
▁목소리가	-3894
▁하느	-3895
▁대통령의	-3896
▁넣어	-3897
▁발행	-3898
예술	-3899
▁쓰러	-3900
▁이후에	-3901
▁나라의	-3902
▁평소	-3903
▁의존	-3904
안에	-3905
해졌다	-3906
▁믿고	-3907
▁허용	-3908
▁만들었다	-3909
점으로	-3910
▁금지	-3911
끼리	-3912
▁짧은	-3913
▁동일	-3914
정말	-3915
▁키워	-3916
하의	-3917
▁봅니다	-3918
▁차가	-3919
▁이름이	-3920
▁연습	-3921
▁이혼	-3922
▁그러면서	-3923
▁민주당	-3924
▁■	-3925
▁이천십	-3926
▁엘리	-3927
▁내세	-3928
▁갖게	-3929
▁선진	-3930
▁생존	-3931
▁자는	-3932
▁즐거	-3933
▁때문이었다	-3934
▁모른	-3935
▁기회	-3936
▁것만	-3937
소설	-3938
실로	-3939
▁거듭	-3940
▁제목	-3941
▁번역	-3942
▁안내	-3943
▁드리	-3944
▁멈추	-3945
▁질문을	-3946
토록	-3947
▁하락	-3948
▁기쁨	-3949
▁소녀	-3950
▁중의	-3951
▁비중	-3952
▁불교	-3953
op	-3954
▁사내	-3955
식은	-3956
▁상태에서	-3957
▁사건이	-3958
동의	-3959
▁금액	-3960
법은	-3961
▁내고	-3962
사에서	-3963
▁차원에서	-3964
께서는	-3965
iv	-3966
미가	-3967
류가	-3968
▁이념	-3969
▁일이었다	-3970
▁지정	-3971
▁대변	-3972
▁프로젝	-3973
▁부분은	-3974
▁방법으로	-3975
▁글로벌	-3976
ir	-3977
인들	-3978
og	-3979
▁보편	-3980
▁유대	-3981
▁무언	-3982
▁어둠	-3983
단계	-3984
사랑	-3985
▁계획을	-3986
▁몰아	-3987
▁하여금	-3988
▁시즌	-3989
▁라이	-3990
▁속의	-3991
▁소재	-3992
자치	-3993
셨습니다	-3994
▁미디어	-3995
▁너희	-3996
▁내리	-3997
▁인상	-3998
▁개별	-3999
석을	-4000
▁잘못된	-4001
▁자기의	-4002
복을	-4003
▁의원이	-4004
▁기계	-4005
▁여자는	-4006
판을	-4007
▁긴장	-4008
im	-4009
▁말하면	-4010
▁새롭게	-4011
▁인구	-4012
랍니다	-4013
▁편안	-4014
▁자금	-4015
▁돕	-4016
트워크	-4017
▁어서	-4018
에선	-4019
▁뚫	-4020
▁박사	-4021
▁공산	-4022
▁무조건	-4023
▁고정	-4024
원들이	-4025
▁합리	-4026
▁지역의	-4027
▁끈	-4028
의가	-4029
▁물리	-4030
▁자격	-4031
전자	-4032
▁시대의	-4033
그냥	-4034
▁창업	-4035
▁경험을	-4036
▁셈이다	-4037
▁세계를	-4038
▁위반	-4039
▁195	-4040
▁근처	-4041
▁마지막으로	-4042
함에	-4043
▁수립	-4044
▁없지만	-4045
▁복지	-4046
▁텔레비	-4047
▁나갈	-4048
▁대책	-4049
▁위의	-4050
지털	-4051
▁넘는	-4052
(4	-4053
보를	-4054
▁끝까지	-4055
▁빠른	-4056
▁여섯	-4057
어는	-4058
▁에이	-4059
11	-4060
사고	-4061
개혁	-4062
▁데려	-4063
▁없게	-4064
▁몰랐	-4065
경영	-4066
▁깨닫	-4067
▁않아도	-4068
▁조금씩	-4069
▁교육을	-4070
시민	-4071
임이	-4072
▁분리	-4073
▁북한의	-4074
▁내놓	-4075
▁수단	-4076
사건	-4077
▁목표를	-4078
담을	-4079
▁동원	-4080
식으로	-4081
▁4.	-4082
▁집행	-4083
▁개입	-4084
▁점은	-4085
▁해방	-4086
▁탄생	-4087
연한	-4088
▁명예	-4089
이한	-4090
▁1,	-4091
▁중소기업	-4092
▁투표	-4093
▁배치	-4094
▁기존의	-4095
발전	-4096
?'	-4097
▁l	-4098
세대	-4099
ame	-4100
았을	-4101
▁통신	-4102
▁열고	-4103
▁아들이	-4104
▁충격	-4105
그거	-4106
하지는	-4107
▁것일까	-4108
이요	-4109
▁펀드	-4110
▁신용	-4111
호는	-4112
▁맞습니다	-4113
▁어두	-4114
▁대통령은	-4115
▁헬	-4116
▁나면	-4117
▁등급	-4118
▁늘어나	-4119
리오	-4120
▁없기	-4121
▁대해서도	-4122
▁꾸준	-4123
▁사장	-4124
▁In	-4125
▁세종	-4126
▁미술	-4127
조합	-4128
이익	-4129
▁해보	-4130
름이	-4131
▁준비를	-4132
▁않았던	-4133
▁교사	-4134
▁동아	-4135
▁권한	-4136
▁실행	-4137
▁이들이	-4138
▁공부를	-4139
▁만났	-4140
▁중단	-4141
▁형태로	-4142
▁매년	-4143
제와	-4144
▁결국은	-4145
권은	-4146
▁아버지는	-4147
▁정확히	-4148
▁조각	-4149
▁비로소	-4150
▁수술	-4151
▁이거는	-4152
들었다	-4153
▁규칙	-4154
▁높이	-4155
▁후반	-4156
석이	-4157
▁예방	-4158
▁유일한	-4159
▁셋째	-4160
▁닿	-4161
▁선발	-4162
▁예비	-4163
▁때에	-4164
▁융	-4165
▁님	-4166
▁장관	-4167
▁h	-4168
▁자신에게	-4169
냐고	-4170
▁연합	-4171
▁거고	-4172
▁날이	-4173
▁처음에는	-4174
▁나타나는	-4175
▁민주주의	-4176
성도	-4177
▁있으니	-4178
▁잠재	-4179
니까요	-4180
▁사과	-4181
경기	-4182
▁있으나	-4183
▁찾을	-4184
▁마시	-4185
▁없어서	-4186
▁익숙	-4187
▁투입	-4188
▁울산	-4189
▁이슈	-4190
▁낫	-4191
▁대상이	-4192
지자	-4193
▁분양	-4194
▁그럼에도	-4195
부와	-4196
▁끄덕	-4197
경찰	-4198
▁구별	-4199
▁차량	-4200
▁아이디어	-4201
▁신체	-4202
▁자가	-4203
▁빼앗	-4204
▁밟	-4205
▁조합	-4206
▁보낸	-4207
1.	-4208
오고	-4209
▁항공	-4210
▁뛰어난	-4211
▁지향	-4212
▁장난	-4213
▁태어나	-4214
▁남자가	-4215
▁싸움	-4216
▁정신을	-4217
▁나가는	-4218
▁의미한다	-4219
-2	-4220
거리며	-4221
조직	-4222
▁들여다	-4223
전략	-4224
▁지휘	-4225
▁나아	-4226
▁눈으로	-4227
▁쏘	-4228
▁이익을	-4229
부장	-4230
▁사유	-4231
▁뒤를	-4232
렸을	-4233
▁알지	-4234
▁|	-4235
▁*	-4236
ow	-4237
로의	-4238
▁스마트	-4239
너무	-4240
음은	-4241
▁맑	-4242
▁취업	-4243
▁그리하여	-4244
▁역사를	-4245
▁부딪	-4246
5)	-4247
▁1)	-4248
에서부터	-4249
▁방향으로	-4250
스와	-4251
▁무척	-4252
▁뭐라고	-4253
년까지	-4254
살을	-4255
여야	-4256
수에	-4257
하죠	-4258
대전	-4259
라리	-4260
▁운동을	-4261
▁저렇게	-4262
▁본인이	-4263
▁이기	-4264
▁이들의	-4265
▁붕	-4266
▁무엇보다	-4267
▁읽어	-4268
▁반대로	-4269
버린	-4270
▁굳이	-4271
▁이렇	-4272
▁구체적으로	-4273
▁하나로	-4274
▁부처	-4275
답니다	-4276
▁번도	-4277
라가	-4278
▁미친	-4279
▁쉬운	-4280
▁춘	-4281
▁하이	-4282
▁회사의	-4283
가족	-4284
소의	-4285
▁특수	-4286
촬영	-4287
▁펴	-4288
▁사실이다	-4289
▁청와대	-4290
▁어머	-4291
국민	-4292
▁결과가	-4293
▁소송	-4294
인트	-4295
▁어머니가	-4296
▁확실히	-4297
상과	-4298
▁등과	-4299
▁어머니는	-4300
▁논쟁	-4301
▁백성	-4302
▁않기	-4303
▁쾌	-4304
▁죽을	-4305
해지는	-4306
▁아우	-4307
▁학생들이	-4308
▁놓은	-4309
▁이리	-4310
▁생겼	-4311
▁정확하게	-4312
▁인근	-4313
▁확정	-4314
▁바람에	-4315
▁원내	-4316
해지고	-4317
모를	-4318
▁소위	-4319
형이	-4320
이션	-4321
▁되돌	-4322
▁살짝	-4323
▁깜짝	-4324
▁기준으로	-4325
▁처음부터	-4326
물은	-4327
였는데	-4328
▁절반	-4329
졌고	-4330
천만	-4331
음에도	-4332
▁마무리	-4333
단에	-4334
▁씻	-4335
상태	-4336
설을	-4337
▁임대	-4338
ot	-4339
"(	-4340
▁김정	-4341
▁대표는	-4342
▁걸려	-4343
명으로	-4344
▁아가	-4345
▁않아요	-4346
▁봉사	-4347
▁붉은	-4348
▁나온다	-4349
▁식민	-4350
▁물이	-4351
▁기도	-4352
▁이승	-4353
서비	-4354
하겠다는	-4355
되며	-4356
식의	-4357
▁금방	-4358
받을	-4359
▁보여주는	-4360
▁콩	-4361
▁음식을	-4362
▁민중	-4363
▁회장	-4364
▁남녀	-4365
민족	-4366
주에	-4367
▁수십	-4368
자고	-4369
▁거다	-4370
▁대답했다	-4371
영화	-4372
로가	-4373
▁보며	-4374
▁대화를	-4375
▁땀	-4376
▁보게	-4377
▁70	-4378
▁듣는	-4379
▁문자	-4380
▁꼼	-4381
▁넣고	-4382
60	-4383
▁그러다	-4384
력으로	-4385
▁능력이	-4386
법의	-4387
지방	-4388
▁워낙	-4389
르지	-4390
서울	-4391
▁아이는	-4392
공을	-4393
▁것보다	-4394
계는	-4395
▁1990	-4396
▁시원	-4397
▁기회가	-4398
실한	-4399
▁아이들은	-4400
름을	-4401
▁칭찬	-4402
▁성립	-4403
▁확산	-4404
.?	-4405
▁체결	-4406
▁몰려	-4407
스토	-4408
▁연기	-4409
▁공감	-4410
▁생각에	-4411
▁증명	-4412
▁지내	-4413
▁편집	-4414
▁경남	-4415
▁상당한	-4416
▁현재의	-4417
▁측면에서	-4418
▁내용은	-4419
▁일정한	-4420
▁멍	-4421
▁주장했다	-4422
▁자율	-4423
▁없지	-4424
짜리	-4425
▁고등학교	-4426
▁아니라는	-4427
▁독자	-4428
▁여겨	-4429
▁가능하다	-4430
▁에너지	-4431
▁한쪽	-4432
▁을	-4433
▁계급	-4434
▁받게	-4435
스라	-4436
▁드는	-4437
▁입은	-4438
▁정도가	-4439
▁내에서	-4440
서도	-4441
▁그렇다	-4442
▁같고	-4443
▁나름대로	-4444
▁기다리고	-4445
체는	-4446
▁이끌어	-4447
치의	-4448
▁넌	-4449
▁아르	-4450
▁느낀	-4451
▁요리	-4452
▁노인	-4453
▁멸	-4454
▁사전	-4455
▁중인	-4456
▁화려	-4457
▁만날	-4458
비의	-4459
사항	-4460
▁설계	-4461
▁가만히	-4462
마가	-4463
통신	-4464
하고는	-4465
▁외국인	-4466
▁최소한	-4467
▁있었기	-4468
▁웅	-4469
▁김영	-4470
연이	-4471
스코	-4472
▁무역	-4473
▁라디오	-4474
▁겉	-4475
▁세대	-4476
라서	-4477
▁주장을	-4478
▁최대한	-4479
▁텍	-4480
어의	-4481
금융	-4482
▁온갖	-4483
텐츠	-4484
▁2002	-4485
▁집어	-4486
▁(1)	-4487
▁이유를	-4488
▁고대	-4489
▁분들	-4490
▁그린	-4491
▁가질	-4492
일의	-4493
▁웬	-4494
▁둥	-4495
▁필수	-4496
▁친구가	-4497
▁뼈	-4498
▁농민	-4499
▁풍부	-4500
▁불행	-4501
▁예전	-4502
▁자신들의	-4503
ut	-4504
▁최초의	-4505
▁빗	-4506
▁이로	-4507
▁정도는	-4508
▁지니고	-4509
▁때의	-4510
러운	-4511
▁다르다	-4512
▁의도	-4513
▁마라	-4514
▁좌우	-4515
▁넓은	-4516
▁아버지의	-4517
▁거를	-4518
▁열었다	-4519
명에	-4520
드로	-4521
▁어리	-4522
▁방침	-4523
▁국방	-4524
▁아이의	-4525
▁우승	-4526
▁것이라	-4527
▁회원	-4528
▁디지털	-4529
▁북한이	-4530
절을	-4531
▁적합	-4532
▁남의	-4533
▁때문입니다	-4534
▁이성	-4535
소는	-4536
▁버리고	-4537
▁자세히	-4538
▁싶지	-4539
어떻게	-4540
▁고구려	-4541
▁언젠	-4542
▁봐요	-4543
▁짐작	-4544
▁대기업	-4545
▁80	-4546
▁목소리로	-4547
▁St	-4548
▁커뮤니케이션	-4549
▁당사	-4550
라의	-4551
▁위기	-4552
▁닮	-4553
▁끝난	-4554
▁계시	-4555
해보	-4556
ve	-4557
▁손님	-4558
▁읽고	-4559
어지는	-4560
▁수정	-4561
▁않는다는	-4562
▁시대에	-4563
▁2)	-4564
▁숨을	-4565
전거	-4566
온다	-4567
▁사십	-4568
▁사건을	-4569
▁했다고	-4570
자도	-4571
▁공천	-4572
.7	-4573
▁들어가는	-4574
▁띠	-4575
6)	-4576
주민	-4577
▁에스	-4578
▁초등학교	-4579
그때	-4580
씨의	-4581
▁만남	-4582
▁대개	-4583
▁대표가	-4584
하기를	-4585
어떤	-4586
▁영양	-4587
▁지속적으로	-4588
▁혐의	-4589
▁모르게	-4590
ay	-4591
▁지시	-4592
▁정확한	-4593
▁까닭	-4594
물로	-4595
▁저지	-4596
▁지난달	-4597
▁부부	-4598
이상	-4599
200	-4600
▁일주	-4601
▁사람과	-4602
▁동일한	-4603
집니다	-4604
▁곳은	-4605
▁내에	-4606
프트	-4607
▁자연스럽게	-4608
▁재밌	-4609
▁빙	-4610
▁레이	-4611
저히	-4612
▁마음으로	-4613
▁느끼는	-4614
▁위대한	-4615
▁경북	-4616
색을	-4617
▁들어갔다	-4618
▁노래를	-4619
▁하나를	-4620
렸던	-4621
병을	-4622
의회	-4623
▁있다가	-4624
▁짚	-4625
▁흥미	-4626
▁먹어	-4627
▁(2)	-4628
▁생태	-4629
▁타이	-4630
▁전부터	-4631
▁확장	-4632
학자	-4633
재가	-4634
▁네트워크	-4635
▁싶었다	-4636
ap	-4637
▁작품을	-4638
▁변화가	-4639
▁프리	-4640
▁칸	-4641
▁달아	-4642
렸습니다	-4643
▁불을	-4644
▁프로그램을	-4645
▁참으로	-4646
▁일치	-4647
했으나	-4648
▁꼴	-4649
에게도	-4650
▁계신	-4651
이와	-4652
▁후보는	-4653
란히	-4654
▁뭐야	-4655
하였고	-4656
느라	-4657
▁시는	-4658
▁많고	-4659
▁나섰다	-4660
들고	-4661
선에	-4662
론의	-4663
▁알려져	-4664
▁이중	-4665
▁곳으로	-4666
▁말인가	-4667
▁데는	-4668
▁정책을	-4669
▁말라	-4670
▁v	-4671
▁세계의	-4672
해져	-4673
되었고	-4674
진은	-4675
▁독특	-4676
▁없애	-4677
▁눈앞	-4678
▁최근에	-4679
▁평가를	-4680
▁쟁	-4681
xx	-4682
▁바이	-4683
건설	-4684
전문	-4685
▁나이가	-4686
(5	-4687
▁도서	-4688
▁침묵	-4689
았는데	-4690
세에	-4691
▁관점에서	-4692
▁의지	-4693
경에	-4694
▁창의	-4695
시기	-4696
▁관객	-4697
▁비교적	-4698
이번	-4699
▁농업	-4700
무슨	-4701
인도	-4702
격한	-4703
▁하다가	-4704
.8	-4705
▁적응	-4706
▁경계	-4707
▁보일	-4708
▁가르쳐	-4709
사들이	-4710
▁정권	-4711
▁내면	-4712
ist	-4713
금은	-4714
철수	-4715
▁법칙	-4716
.6	-4717
▁김정은	-4718
▁일제	-4719
망을	-4720
▁테이	-4721
▁알겠습니다	-4722
했어	-4723
▁당시에	-4724
▁주관	-4725
▁인사를	-4726
▁뒤집	-4727
▁학문	-4728
상에서	-4729
▁가능성을	-4730
석은	-4731
▁우수	-4732
▁뉴욕	-4733
▁선교	-4734
자유	-4735
▁모를	-4736
▁공정	-4737
율은	-4738
호의	-4739
▁당황	-4740
▁흙	-4741
▁여성의	-4742
▁누군가	-4743
▁나선	-4744
수도	-4745
▁조사를	-4746
었다고	-4747
▁후보가	-4748
▁때로는	-4749
능을	-4750
▁배가	-4751
",	-4752
▁연극	-4753
▁아쉬	-4754
▁족	-4755
▁공사	-4756
▁시켜	-4757
▁부르는	-4758
▁적절한	-4759
▁무관	-4760
▁하나도	-4761
▁to	-4762
▁많았다	-4763
대회	-4764
하실	-4765
▁출연	-4766
▁기업이	-4767
▁아이들	-4768
▁너는	-4769
▁자산	-4770
40	-4771
화하는	-4772
▁류	-4773
▁감정을	-4774
▁끌고	-4775
안은	-4776
▁사회주의	-4777
대요	-4778
▁앞두고	-4779
▁거주	-4780
▁덩	-4781
▁겁니까	-4782
▁193	-4783
아의	-4784
이었는데	-4785
▁주문	-4786
목이	-4787
▁고마	-4788
본다	-4789
리그	-4790
직을	-4791
▁가슴이	-4792
리라고	-4793
▁점검	-4794
▁옹	-4795
▁상대적으로	-4796
▁물고	-4797
▁혜택	-4798
시키기	-4799
▁pp	-4800
건을	-4801
▁지어	-4802
해질	-4803
▁대처	-4804
하니까	-4805
▁연계	-4806
바람	-4807
▁향후	-4808
▁무기	-4809
▁규제	-4810
▁하니	-4811
▁자원	-4812
▁아니지만	-4813
선생	-4814
▁없는데	-4815
▁서구	-4816
▁닭	-4817
▁조용히	-4818
▁크리스	-4819
▁2003	-4820
▁손가락	-4821
▁연주	-4822
실이	-4823
▁다름	-4824
▁만들기	-4825
▁줄어들	-4826
▁정말로	-4827
▁곳을	-4828
▁그리스도	-4829
▁교수는	-4830
80	-4831
▁소년	-4832
▁남편이	-4833
.)	-4834
▁했다는	-4835
▁강제	-4836
▁존재하는	-4837
▁남겨	-4838
▁처음에	-4839
▁절대로	-4840
▁논리	-4841
▁지역에	-4842
주었다	-4843
▁못하게	-4844
▁목소리	-4845
▁말하자면	-4846
▁촬영	-4847
▁대규모	-4848
▁빠르게	-4849
▁나라를	-4850
▁무료	-4851
▁밀어	-4852
▁소련	-4853
▁저런	-4854
상품	-4855
▁덕분에	-4856
선은	-4857
▁특별히	-4858
▁대리	-4859
▁사이에서	-4860
▁층	-4861
▁응답	-4862
살이	-4863
▁마디	-4864
퍼센트	-4865
▁대단히	-4866
▁두려워	-4867
통을	-4868
림을	-4869
▁변경	-4870
▁한데	-4871
▁마리	-4872
▁탑	-4873
▁높다	-4874
식에	-4875
▁아니라고	-4876
관계를	-4877
▁간다	-4878
▁고생	-4879
』(	-4880
▁설명을	-4881
▁뻗	-4882
▁새끼	-4883
▁할까	-4884
▁거두	-4885
▁바깥	-4886
통합	-4887
▁올바	-4888
▁가라	-4889
▁측정	-4890
▁곳곳	-4891
심한	-4892
▁인용	-4893
▁마음의	-4894
되게	-4895
▁편지를	-4896
▁넘어서	-4897
량의	-4898
▁진지	-4899
▁들어보	-4900
7)	-4901
▁내내	-4902
▁데이터	-4903
어머니	-4904
▁지금의	-4905
▁말입니다	-4906
트로	-4907
률을	-4908
▁목숨을	-4909
트남	-4910
▁자료를	-4911
세는	-4912
령을	-4913
▁스페	-4914
▁맘	-4915
▁알려진	-4916
▁종종	-4917
▁머릿	-4918
자본	-4919
문제	-4920
럼프	-4921
일은	-4922
▁버렸다	-4923
▁고통을	-4924
▁지원을	-4925
▁않지만	-4926
▁기술을	-4927
▁활성화	-4928
▁물건을	-4929
▁생각하면	-4930
BS	-4931
▁끝내	-4932
로서는	-4933
▁눈물을	-4934
▁솟	-4935
저기	-4936
▁강하게	-4937
롯데	-4938
십니다	-4939
▁리더십	-4940
▁신기	-4941
부터는	-4942
▁영상	-4943
하기는	-4944
자마자	-4945
▁무한	-4946
▁공장	-4947
시켰	-4948
tic	-4949
례를	-4950
▁모순	-4951
하려면	-4952
▁주말	-4953
▁활발	-4954
안전	-4955
▁진정	-4956
▁그야말로	-4957
색이	-4958
된다는	-4959
▁몇몇	-4960
▁공무원	-4961
▁줘	-4962
▁본래	-4963
미는	-4964
한데	-4965
수와	-4966
▁성과를	-4967
▁단일	-4968
▁분위기	-4969
▁땅을	-4970
▁명을	-4971
▁지나치게	-4972
▁삭	-4973
▁일곱	-4974
이든	-4975
▁색깔	-4976
▁어떻	-4977
▁대법	-4978
▁즉시	-4979
빨리	-4980
▁1980	-4981
우리가	-4982
▁이탈리아	-4983
ev	-4984
▁미치는	-4985
▁재미있	-4986
▁편의	-4987
▁비롯해	-4988
차피	-4989
▁모르겠	-4990
▁시선을	-4991
▁근육	-4992
▁유도	-4993
생산	-4994
▁아울	-4995
▁웨	-4996
▁크고	-4997
▁그릇	-4998
하에	-4999
▁토지	-5000
▁채택	-5001
▁죽음을	-5002
▁표정을	-5003
▁서비스를	-5004
▁강의	-5005
▁지나지	-5006
관광	-5007
▁나한테	-5008
함과	-5009
▁이루어진	-5010
▁상대로	-5011
▁골프	-5012
8)	-5013
하라고	-5014
각을	-5015
▁입장에서는	-5016
▁도달	-5017
ia	-5018
▁얻은	-5019
▁500	-5020
▁해소	-5021
▁말씀하신	-5022
았지만	-5023
범한	-5024
▁그렇기	-5025
▁횡	-5026
▁그들에게	-5027
▁두드	-5028
.9	-5029
▁권리	-5030
▁이럴	-5031
하기가	-5032
▁특성	-5033
▁아냐	-5034
▁라는	-5035
였지만	-5036
▁주세요	-5037
▁청구	-5038
▁일로	-5039
아는	-5040
▁없으면	-5041
▁자본주의	-5042
▁빵	-5043
▁목적으로	-5044
▁통치	-5045
형의	-5046
개가	-5047
▁벨	-5048
▁아나	-5049
▁짝	-5050
▁베이	-5051
졌습니다	-5052
▁연관	-5053
▁팽	-5054
고가	-5055
▁사로	-5056
▁놓여	-5057
▁남한	-5058
해지	-5059
▁성격을	-5060
▁서술	-5061
▁치열	-5062
▁▲	-5063
▁연장	-5064
▁배려	-5065
▁작년	-5066
▁부족한	-5067
▁생각하지	-5068
▁들어간	-5069
▁목소리를	-5070
단다	-5071
▁얼굴로	-5072
▁성향	-5073
제품	-5074
▁이명	-5075
▁버린	-5076
▁이전에	-5077
▁최소	-5078
대중	-5079
▁자전거	-5080
난다	-5081
▁기원	-5082
▁있었을	-5083
▁강요	-5084
▁미소를	-5085
▁찰	-5086
▁주차	-5087
▁의미에서	-5088
트에	-5089
경은	-5090
▁비서	-5091
전은	-5092
크를	-5093
▁발을	-5094
▁사진을	-5095
령이	-5096
▁눈빛	-5097
▁승리	-5098
▁추정	-5099
동에	-5100
▁있습니까	-5101
기준	-5102
달라고	-5103
듭니다	-5104
▁존중	-5105
▁호흡	-5106
▁빠져나	-5107
▁몹	-5108
▁들을	-5109
▁행복한	-5110
ff	-5111
보기	-5112
▁아침에	-5113
▁생각도	-5114
▁평양	-5115
▁정기	-5116
▁다니는	-5117
졌던	-5118
씨를	-5119
▁그렇고	-5120
▁신의	-5121
▁사용할	-5122
▁들어와	-5123
▁대회	-5124
▁동양	-5125
▁인수	-5126
▁당시의	-5127
▁취급	-5128
▁허리	-5129
▁가치가	-5130
(199	-5131
▁내밀	-5132
▁폭발	-5133
▁일반적인	-5134
▁쓰지	-5135
▁사랑의	-5136
그림	-5137
▁있고요	-5138
▁드디어	-5139
▁느낌을	-5140
그다	-5141
▁플라	-5142
정과	-5143
▁아름답	-5144
▁알아야	-5145
이드	-5146
체육	-5147
활동을	-5148
원도	-5149
감은	-5150
체에	-5151
▁뿌리	-5152
▁피해를	-5153
이었지만	-5154
▁이르는	-5155
▁채권	-5156
▁안보	-5157
▁가볍	-5158
▁책은	-5159
▁그림을	-5160
▁맛이	-5161
ion	-5162
기보다는	-5163
▁적절	-5164
심으로	-5165
▁문제로	-5166
▁잠을	-5167
▁시골	-5168
▁마시고	-5169
▁들었	-5170
▁표준	-5171
▁잉	-5172
시스템	-5173
▁거절	-5174
▁남자는	-5175
지구	-5176
▁추억	-5177
▁크다	-5178
▁선보	-5179
▁축구	-5180
▁붙어	-5181
들한테	-5182
▁차라리	-5183
▁개방	-5184
▁따뜻한	-5185
▁향상	-5186
▁이재	-5187
▁배제	-5188
▁기억이	-5189
▁널리	-5190
▁데서	-5191
▁성취	-5192
▁붙잡	-5193
▁읽는	-5194
▁전제	-5195
일본	-5196
하겠습니다	-5197
▁관념	-5198
▁센	-5199
었다는	-5200
고자	-5201
영은	-5202
▁이상이	-5203
▁안고	-5204
▁당연한	-5205
심의	-5206
▁브라	-5207
▁Ch	-5208
▁입학	-5209
▁카메	-5210
▁진입	-5211
으려고	-5212
▁바른	-5213
▁뜨거운	-5214
ie	-5215
▁배를	-5216
▁표정으로	-5217
──	-5218
가루	-5219
▁인기	-5220
▁2004	-5221
▁식품	-5222
▁있었어요	-5223
시킨다	-5224
▁밀려	-5225
▁결정을	-5226
▁귀족	-5227
고한	-5228
교의	-5229
모가	-5230
▁접촉	-5231
▁면에서	-5232
▁이스라	-5233
올로	-5234
▁태도를	-5235
▁꾸준히	-5236
▁있느냐	-5237
▁니가	-5238
▁대기	-5239
▁이스라엘	-5240
▁전공	-5241
▁다를	-5242
보지	-5243
▁담배	-5244
언을	-5245
▁논란이	-5246
▁헛	-5247
주시	-5248
▁포함한	-5249
계약	-5250
희는	-5251
▁임명	-5252
▁교수님	-5253
▁자라	-5254
▁바란다	-5255
▁바라보았다	-5256
▁씨의	-5257
▁들어갔	-5258
▁모자	-5259
▁줬	-5260
나고	-5261
▁둘이	-5262
▁올림픽	-5263
전에서	-5264
성한	-5265
▁무려	-5266
▁텍스트	-5267
▁1999	-5268
▁턱	-5269
▁돼서	-5270
▁눈치	-5271
▁강남	-5272
ber	-5273
▁상업	-5274
▁답변	-5275
▁초대	-5276
▁선호	-5277
▁디자인	-5278
▁교환	-5279
▁누워	-5280
▁뚜렷	-5281
길이	-5282
박한	-5283
분은	-5284
▁살아가는	-5285
▁싶습니다	-5286
▁일하는	-5287
▁죄송	-5288
▁웃었다	-5289
여기	-5290
야만	-5291
▁되었고	-5292
▁사회에	-5293
▁갖춘	-5294
▁나누어	-5295
▁수백	-5296
▁비상	-5297
월부터	-5298
▁영화를	-5299
▁35	-5300
치에	-5301
▁사로잡	-5302
▁살인	-5303
▁노출	-5304
▁농촌	-5305
ard	-5306
▁모습은	-5307
▁뭐냐	-5308
서로	-5309
▁1997	-5310
▁시사	-5311
▁미래를	-5312
▁그까	-5313
▁다스	-5314
그건	-5315
▁이데	-5316
▁시기에	-5317
▁인권	-5318
생활을	-5319
▁눌	-5320
▁답답	-5321
협회	-5322
▁그렇군요	-5323
▁비즈	-5324
화로	-5325
▁건지	-5326
포를	-5327
▁주거	-5328
에다	-5329
▁바람이	-5330
▁무리	-5331
▁주제	-5332
상황	-5333
▁찾아가	-5334
▁굽	-5335
티브	-5336
▁경향이	-5337
▁아울러	-5338
▁정착	-5339
후의	-5340
매를	-5341
▁시의	-5342
겁게	-5343
________	-5344
금의	-5345
론은	-5346
▁유기	-5347
침을	-5348
▁원인	-5349
▁곧바로	-5350
작을	-5351
▁일어나는	-5352
▁이해가	-5353
▁이야기는	-5354
▁학부모	-5355
▁뮤	-5356
▁또다시	-5357
▁웃음	-5358
▁더구나	-5359
▁어머니의	-5360
신문	-5361
▁스승	-5362
▁나타난다	-5363
▁절차	-5364
▁재료	-5365
▁나갔다	-5366
▁좋고	-5367
릅니다	-5368
년도	-5369
▁용서	-5370
▁거울	-5371
▁방어	-5372
▁말이에요	-5373
▁빌려	-5374
▁자체를	-5375
자리를	-5376
▁현실을	-5377
▁31	-5378
▁것인데	-5379
▁종류의	-5380
럽게	-5381
▁벗어	-5382
둘러	-5383
▁다리	-5384
▁발생한	-5385
견을	-5386
내기	-5387
▁앨	-5388
밀한	-5389
▁식사	-5390
▁곰	-5391
액을	-5392
ill	-5393
라를	-5394
▁부하	-5395
▁우울	-5396
시로	-5397
▁얼굴에	-5398
▁방향을	-5399
▁질병	-5400
유를	-5401
▁최초로	-5402
▁잊지	-5403
▁슬픔	-5404
▁대체로	-5405
장애	-5406
공간	-5407
▁돋	-5408
▁노무	-5409
작용	-5410
▁최선을	-5411
▁만나는	-5412
▁아동	-5413
▁버스	-5414
러스	-5415
집에	-5416
▁갚	-5417
▁충돌	-5418
▁넘어가	-5419
70	-5420
▁간주	-5421
▁심한	-5422
▁한두	-5423
▁봤을	-5424
▁스토	-5425
▁300	-5426
▁영웅	-5427
▁앞의	-5428
▁감안	-5429
▁가지는	-5430
공동	-5431
▁박정	-5432
론이	-5433
리면서	-5434
▁태어	-5435
분석	-5436
▁여자의	-5437
▁앙	-5438
행이	-5439
▁적지	-5440
▁하얀	-5441
학은	-5442
▁어디에	-5443
▁작업을	-5444
▁여야	-5445
▁확신	-5446
▁충족	-5447
▁오고	-5448
▁조절	-5449
▁수능	-5450
▁생물	-5451
▁일자리	-5452
▁야당	-5453
단지	-5454
우가	-5455
▁도저히	-5456
▁푸른	-5457
버렸다	-5458
▁컸	-5459
▁잃어버	-5460
▁시간은	-5461
▁아픈	-5462
▁일관	-5463
▁다르게	-5464
▁호소	-5465
▁득	-5466
▁인공	-5467
▁증권	-5468
▁초반	-5469
▁최저	-5470
▁1998	-5471
▁요구하는	-5472
▁치고	-5473
ge	-5474
▁불리는	-5475
▁쭉	-5476
▁만들어진	-5477
▁방해	-5478
▁경험이	-5479
▁인생을	-5480
로지	-5481
▁인류	-5482
▁세력	-5483
란드	-5484
▁수수	-5485
▁국토	-5486
▁노예	-5487
▁이슬	-5488
▁태어난	-5489
▁하거나	-5490
▁딴	-5491
▁채용	-5492
▁정신이	-5493
▁몹시	-5494
▁되니까	-5495
▁유사	-5496
▁그거는	-5497
▁주시	-5498
▁초래	-5499
박을	-5500
연의	-5501
운드	-5502
전한	-5503
▁바랍니다	-5504
▁하시는	-5505
▁고급	-5506
▁e	-5507
산에	-5508
진의	-5509
▁들어갈	-5510
기에는	-5511
▁핸	-5512
대와	-5513
▁좋겠다	-5514
▁과거의	-5515
▁이틀	-5516
▁맞이	-5517
쁘게	-5518
▁땐	-5519
해진다	-5520
만으로도	-5521
▁솔직히	-5522
▁무엇보다도	-5523
마의	-5524
▁예외	-5525
▁외에	-5526
▁이용해	-5527
▁2010	-5528
론적	-5529
▁적극적인	-5530
아무	-5531
리어	-5532
관에서	-5533
▁있어도	-5534
▁현지	-5535
약한	-5536
▁베트남	-5537
하기에	-5538
▁가시	-5539
▁멋진	-5540
▁묘사	-5541
▁되겠	-5542
▁반발	-5543
보호	-5544
도에서	-5545
▁보조	-5546
▁방안	-5547
▁살펴보	-5548
▁훔	-5549
▁롯데	-5550
음의	-5551
▁않았지만	-5552
▁협의	-5553
▁여행을	-5554
비용	-5555
과도	-5556
▁취득	-5557
구역	-5558
▁제품을	-5559
▁구멍	-5560
▁허락	-5561
▁숭	-5562
▁모임	-5563
▁월드	-5564
▁화를	-5565
▁런	-5566
▁오지	-5567
▁기본적인	-5568
▁주저	-5569
중앙	-5570
▁평등	-5571
금으로	-5572
▁길게	-5573
▁제정	-5574
▁견해	-5575
▁있으므로	-5576
▁공동체	-5577
▁카페	-5578
▁폭력	-5579
았어요	-5580
소리가	-5581
▁홈페	-5582
▁믿을	-5583
▁예컨대	-5584
▁봐도	-5585
▁내렸다	-5586
▁있나	-5587
교통	-5588
리즘	-5589
▁인민	-5590
▁트럼프	-5591
어지고	-5592
▁빠진	-5593
▁이젠	-5594
▁긍정적인	-5595
▁협상	-5596
보가	-5597
▁연출	-5598
파의	-5599
▁직후	-5600
영의	-5601
▁필요로	-5602
산은	-5603
▁않았고	-5604
ht	-5605
▁복합	-5606
시하는	-5607
▁제공하는	-5608
▁보완	-5609
▁뭉	-5610
▁국무	-5611
▁달라고	-5612
▁소식을	-5613
▁.	-5614
층의	-5615
▁땅에	-5616
▁생기는	-5617
▁경우에도	-5618
▁국회의원	-5619
▁사람들도	-5620
▁192	-5621
▁아내가	-5622
▁엄마는	-5623
▁취재	-5624
▁불어	-5625
속을	-5626
왔던	-5627
▁보상	-5628
▁죽어	-5629
하러	-5630
▁배출	-5631
▁걸음	-5632
▁손해	-5633
▁공항	-5634
▁얼른	-5635
▁비가	-5636
▁안철수	-5637
양을	-5638
▁통화	-5639
▁쓰레	-5640
▁name	-5641
--------	-5642
▁신비	-5643
▁소식	-5644
▁머리가	-5645
uc	-5646
▁독특한	-5647
받아	-5648
▁온몸	-5649
▁마르크	-5650
우를	-5651
▁충분한	-5652
▁해가	-5653
▁기본적으로	-5654
▁계열	-5655
그것	-5656
▁90	-5657
친다	-5658
▁사람들과	-5659
▁개념을	-5660
▁종류	-5661
▁느끼고	-5662
▁보존	-5663
적ᆞ	-5664
나의	-5665
영이	-5666
크는	-5667
▁어차피	-5668
▁&	-5669
사회의	-5670
▁거짓말	-5671
경의	-5672
▁앤	-5673
▁일으키	-5674
▁어려워	-5675
▁다이	-5676
▁여기에서	-5677
▁넷	-5678
▁반응을	-5679
▁떡	-5680
▁들어온	-5681
왕의	-5682
▁것인	-5683
▁Pr	-5684
▁있어서는	-5685
▁맞지	-5686
▁것이죠	-5687
▁자살	-5688
▁이름으로	-5689
국제	-5690
▁않았을	-5691
생이	-5692
▁테니까	-5693
▁형제	-5694
▁빅	-5695
▁절망	-5696
▁상태로	-5697
▁발생하는	-5698
▁법을	-5699
▁물에	-5700
▁말이죠	-5701
▁억압	-5702
▁밥을	-5703
▁다들	-5704
▁내린	-5705
▁웃음을	-5706
▁깃	-5707
자동	-5708
▁획득	-5709
구로	-5710
▁궁극	-5711
▁국립	-5712
▁움직이는	-5713
▁복잡한	-5714
▁갖다	-5715
▁LG	-5716
▁사법	-5717
사무	-5718
▁혀	-5719
주의를	-5720
웠던	-5721
되었던	-5722
▁하였	-5723
▁썼다	-5724
▁시작된	-5725
석에	-5726
▁것이기	-5727
량은	-5728
▁꺾	-5729
▁자신도	-5730
▁문득	-5731
▁붙여	-5732
있다	-5733
▁장악	-5734
▁무게	-5735
▁중에는	-5736
장한	-5737
치기	-5738
▁어떨	-5739
▁하면은	-5740
▁시키	-5741
▁스트레	-5742
▁발전을	-5743
▁누구도	-5744
▁상실	-5745
▁한때	-5746
종을	-5747
하를	-5748
▁발굴	-5749
▁모습으로	-5750
▁거리를	-5751
▁흩	-5752
▁신규	-5753
병원	-5754
▁느꼈다	-5755
▁사회가	-5756
▁부지	-5757
TV	-5758
▁나라가	-5759
▁고백	-5760
>,	-5761
▁않았습니다	-5762
▁선생님이	-5763
▁향한	-5764
▁살해	-5765
쪽에서	-5766
▁엠	-5767
▁주기	-5768
▁초월	-5769
▁구경	-5770
▁마땅	-5771
결을	-5772
▁단기	-5773
▁파견	-5774
-3	-5775
▁찢	-5776
▁일방	-5777
▁창작	-5778
▁카드	-5779
진짜	-5780
▁똑같이	-5781
속도로	-5782
500	-5783
▁2012	-5784
BC	-5785
▁신분	-5786
▁해당하는	-5787
쟁이	-5788
▁총선	-5789
렬한	-5790
▁질문에	-5791
풀이	-5792
들에게는	-5793
▁유전	-5794
▁지자	-5795
▁썩	-5796
▁먹으면	-5797
가능	-5798
서야	-5799
교를	-5800
터를	-5801
해주는	-5802
all	-5803
▁확인할	-5804
르트	-5805
▁보관	-5806
▁이데올로	-5807
재판	-5808
▁이행	-5809
▁윌	-5810
▁매매	-5811
▁주먹	-5812
▁한정	-5813
▁부모님	-5814
▁비극	-5815
시와	-5816
est	-5817
종이	-5818
지며	-5819
▁사회를	-5820
▁당신을	-5821
▁인생의	-5822
▁윤리	-5823
▁나갔	-5824
▁안타까	-5825
▁이상을	-5826
▁190	-5827
▁행위를	-5828
▁놀라운	-5829
▁챙겨	-5830
▁하죠	-5831
비아	-5832
9)	-5833
▁책이	-5834
▁어우	-5835
▁―	-5836
▁출입	-5837
가격	-5838
▁뿐이었다	-5839
▁방안을	-5840
▁미국이	-5841
qu	-5842
▁2008	-5843
▁자존	-5844
인간	-5845
드릴	-5846
▁마음은	-5847
▁환자	-5848
▁무서운	-5849
▁닥	-5850
▁점심	-5851
▁되어야	-5852
▁곱	-5853
욕을	-5854
▁지불	-5855
관과	-5856
▁입증	-5857
▁지식을	-5858
랑이	-5859
▁감추	-5860
▁태도	-5861
▁형사	-5862
▁인재	-5863
▁면접	-5864
▁소비자	-5865
▁전면	-5866
감한	-5867
▁명백	-5868
▁보냈	-5869
▁밑에	-5870
스티	-5871
▁2005	-5872
▁형편	-5873
▁체제	-5874
▁부정적인	-5875
▁시달	-5876
▁등에서	-5877
▁목적을	-5878
▁임시	-5879
▁비정	-5880
▁오늘의	-5881
▁국민들이	-5882
주지	-5883
▁고전	-5884
▁주장하는	-5885
▁원인이	-5886
▁유혹	-5887
▁바라보는	-5888
▁돌아온	-5889
고도	-5890
▁차이를	-5891
▁주신	-5892
▁미사	-5893
▁좋게	-5894
희가	-5895
▁주어	-5896
▁나오지	-5897
ell	-5898
▁하신	-5899
▁불평	-5900
▁하늘을	-5901
▁보세요	-5902
▁유행	-5903
▁사회에서	-5904
▁세상이	-5905
▁털어	-5906
으려	-5907
▁분위기를	-5908
▁조치	-5909
▁시내	-5910
▁2001	-5911
더군요	-5912
▁목표로	-5913
▁한가	-5914
리라는	-5915
부에서	-5916
▁대단한	-5917
된다고	-5918
▁소화	-5919
차는	-5920
▁쇼핑	-5921
▁체육	-5922
겠느냐	-5923
성장	-5924
렸고	-5925
▁담아	-5926
형은	-5927
▁감동	-5928
규직	-5929
내지	-5930
▁대륙	-5931
▁것일	-5932
▁부러	-5933
▁시장의	-5934
청은	-5935
▁못했던	-5936
▁부서	-5937
선으로	-5938
▁재무	-5939
▁붕괴	-5940
▁힐	-5941
▁세포	-5942
▁중학교	-5943
▁보내는	-5944
건이	-5945
▁지은	-5946
▁팔을	-5947
▁회사가	-5948
적이며	-5949
▁다음날	-5950
북한	-5951
▁성공을	-5952
▁결과는	-5953
▁고유	-5954
ab	-5955
▁학생이	-5956
▁운용	-5957
는데네	-5958
사이	-5959
▁냈	-5960
▁순수	-5961
고의	-5962
▁충남	-5963
인들을	-5964
▁시가	-5965
▁마는	-5966
▁맞은	-5967
~3	-5968
▁만든다	-5969
▁이미지	-5970
▁나와서	-5971
▁지적했다	-5972
▁현상이	-5973
▁안녕하십니까	-5974
▁신속	-5975
ork	-5976
▁사기	-5977
네가	-5978
~2	-5979
▁말씀이	-5980
▁결혼을	-5981
▁연예	-5982
▁규모의	-5983
▁담겨	-5984
▁세상의	-5985
▁되었습니다	-5986
정신	-5987
하느냐	-5988
▁아이들을	-5989
▁형태의	-5990
으신	-5991
▁육십	-5992
▁5.	-5993
▁연애	-5994
▁단단	-5995
▁알았다	-5996
▁숨어	-5997
킬로	-5998
▁온라인	-5999
▁편지	-6000
▁말해서	-6001
엄마	-6002
▁부활	-6003
▁뜻이	-6004
!'	-6005
졌을	-6006
▁진술	-6007
▁회담	-6008
▁거거든요	-6009
▁상처를	-6010
▁표현을	-6011
주세요	-6012
▁하는지	-6013
스키	-6014
님께서	-6015
▁되자	-6016
▁있었다는	-6017
나도	-6018
▁보냈다	-6019
▁세계에	-6020
▁날카	-6021
▁방식을	-6022
▁방지	-6023
▁이미지를	-6024
물론	-6025
▁빛을	-6026
르의	-6027
▁가격이	-6028
속에서	-6029
없다	-6030
▁말씀하셨	-6031
▁제국	-6032
바이	-6033
▁보여준다	-6034
소에서	-6035
었기	-6036
▁모래	-6037
면으로	-6038
▁번씩	-6039
공항	-6040
▁전쟁을	-6041
▁존경	-6042
▁곤란	-6043
▁피곤	-6044
▁한나라	-6045
당에서	-6046
▁g	-6047
▁것들	-6048
▁살아남	-6049
훼손	-6050
▁출근	-6051
▁역사의	-6052
하라는	-6053
▁이름은	-6054
▁인지	-6055
▁특성을	-6056
▁세우	-6057
리다	-6058
위와	-6059
속으로	-6060
생의	-6061
▁예전에	-6062
▁...	-6063
세한	-6064
▁받아야	-6065
▁바라는	-6066
학이	-6067
▁어려움을	-6068
▁단어	-6069
하겠다고	-6070
그만	-6071
our	-6072
▁문화적	-6073
리즈	-6074
▁영광	-6075
▁아시	-6076
▁실망	-6077
▁종목	-6078
▁수집	-6079
회담	-6080
▁출마	-6081
▁보건	-6082
▁일어났	-6083
▁양반	-6084
감에	-6085
으로도	-6086
▁합격	-6087
니가	-6088
게도	-6089
▁전체를	-6090
▁이르기까지	-6091
명과	-6092
▁떠난	-6093
▁통계	-6094
▁연구를	-6095
▁중얼	-6096
▁영원히	-6097
▁가벼	-6098
▁학교에	-6099
▁체포	-6100
스레	-6101
▁전략을	-6102
일로	-6103
질의	-6104
▁세운	-6105
구백	-6106
▁걸린	-6107
▁담고	-6108
테크	-6109
▁눈물이	-6110
▁연간	-6111
ep	-6112
▁생명을	-6113
▁유일	-6114
▁과거에	-6115
▁휴대	-6116
시험	-6117
▁그중	-6118
▁진단	-6119
▁눈물	-6120
하게도	-6121
▁자유를	-6122
▁36	-6123
▁김종	-6124
▁관련해서	-6125
하고도	-6126
▁센터	-6127
▁덧붙였다	-6128
▁어떡	-6129
▁젊은이	-6130
▁바라보	-6131
▁소중한	-6132
▁모집	-6133
실의	-6134
▁아프리카	-6135
▁던져	-6136
▁났다	-6137
ran	-6138
▁어깨를	-6139
경쟁	-6140
▁한국에	-6141
▁수도권	-6142
▁유엔	-6143
▁3)	-6144
겠소	-6145
수준	-6146
▁병사	-6147
▁올바른	-6148
▁여자를	-6149
▁상태를	-6150
▁어릴	-6151
▁관계에	-6152
▁선고	-6153
▁1970	-6154
▁폐지	-6155
▁살려	-6156
▁개월	-6157
▁미국은	-6158
치며	-6159
▁33	-6160
▁검색	-6161
▁배운	-6162
▁오면	-6163
▁모르지만	-6164
▁몫	-6165
▁깎	-6166
▁동기	-6167
▁그나마	-6168
▁보인	-6169
▁지상	-6170
▁섹	-6171
무는	-6172
▁하려고	-6173
▁독서	-6174
세로	-6175
지사	-6176
장도	-6177
▁콘텐츠	-6178
기능	-6179
자료	-6180
▁중이다	-6181
▁아닌데	-6182
▁종이	-6183
▁투자를	-6184
소로	-6185
▁일부러	-6186
▁전후	-6187
▁1995	-6188
영을	-6189
▁귀를	-6190
▁보여주고	-6191
▁가볍게	-6192
▁험	-6193
안의	-6194
▁극단	-6195
▁과정이	-6196
그다음에	-6197
▁반면에	-6198
공업	-6199
▁주어진	-6200
▁겹	-6201
▁맥락	-6202
▁간호	-6203
The	-6204
▁매수	-6205
▁건립	-6206
▁매입	-6207
▁서서히	-6208
ment	-6209
▁놔	-6210
률은	-6211
롭고	-6212
▁프레	-6213
국에서	-6214
▁2014	-6215
스러워	-6216
▁문제의	-6217
▁받아들여	-6218
▁조작	-6219
수익	-6220
▁본격적으로	-6221
이건	-6222
▁바보	-6223
▁되면서	-6224
▁휩	-6225
▁문화를	-6226
르며	-6227
▁하라	-6228
▁믿는	-6229
하듯	-6230
▁이명박	-6231
프를	-6232
▁자치	-6233
▁오로지	-6234
▁싸우	-6235
비로	-6236
▁나간	-6237
▁시장을	-6238
’,	-6239
▁좋습니다	-6240
▁싹	-6241
▁한동안	-6242
▁◇	-6243
▁삶에	-6244
르기	-6245
▁노무현	-6246
▁않다는	-6247
차례	-6248
▁맞게	-6249
▁관광객	-6250
후보	-6251
▁가슴에	-6252
▁목을	-6253
▁다리를	-6254
▁모색	-6255
▁무사	-6256
▁법적	-6257
▁자기를	-6258
▁드릴	-6259
▁가슴을	-6260
▁인간을	-6261
▁중심의	-6262
▁테러	-6263
▁됐습니다	-6264
▁되도록	-6265
▁무섭	-6266
▁끔	-6267
▁호기	-6268
▁─	-6269
▁르	-6270
▁채워	-6271
▁철저히	-6272
▁신념	-6273
▁아저씨	-6274
청이	-6275
지난	-6276
........	-6277
▁꿈꾸	-6278
그렇습니다	-6279
▁신경을	-6280
▁마치고	-6281
▁과도	-6282
▁축하	-6283
▁같아서	-6284
▁전망이다	-6285
▁SK	-6286
긴다	-6287
▁동반	-6288
▁정비	-6289
▁고위	-6290
▁켜	-6291
▁>	-6292
▁저를	-6293
▁부채	-6294
았다고	-6295
▁억울	-6296
▁질환	-6297
▁영국의	-6298
▁흠	-6299
▁피부	-6300
하지도	-6301
▁집이	-6302
▁갈수록	-6303
▁서울시	-6304
▁지역에서	-6305
▁인격	-6306
판에	-6307
▁소외	-6308
ip	-6309
감과	-6310
대책	-6311
▁대사	-6312
▁그러면은	-6313
▁일단은	-6314
두에	-6315
▁왜곡	-6316
▁시를	-6317
머리	-6318
▁심사	-6319
-1	-6320
▁흥분	-6321
▁많지	-6322
야지	-6323
▁남을	-6324
결과	-6325
▁주변에	-6326
▁사냥	-6327
▁유권	-6328
이므로	-6329
▁떨어지는	-6330
ate	-6331
▁위험한	-6332
행정	-6333
▁내려가	-6334
▁시장이	-6335
(6	-6336
더라구요	-6337
▁분열	-6338
▁아무튼	-6339
▁어디로	-6340
가와	-6341
▁가난한	-6342
▁그거를	-6343
▁언덕	-6344
2.	-6345
▁했어	-6346
▁얘기는	-6347
백만	-6348
▁부끄러	-6349
▁분들은	-6350
이라든지	-6351
▁간접	-6352
art	-6353
▁여성이	-6354
▁도움	-6355
▁성공한	-6356
연은	-6357
▁xx	-6358
▁상반	-6359
적의	-6360
▁공화	-6361
90	-6362
▁2,	-6363
▁받는다	-6364
▁지출	-6365
▁김성	-6366
▁북한에	-6367
▁얽	-6368
▁공직	-6369
▁중반	-6370
▁불렀다	-6371
▁이용한	-6372
▁서둘러	-6373
▁분야에서	-6374
련의	-6375
▁다행히	-6376
▁시대를	-6377
었죠	-6378
▁듭니다	-6379
▁입주	-6380
▁기름	-6381
▁45	-6382
관으로	-6383
방에서	-6384
▁일어날	-6385
▁입에	-6386
▁38	-6387
선수	-6388
▁조금만	-6389
▁흐르는	-6390
▁주제로	-6391
▁사람으로	-6392
▁약속을	-6393
▁개를	-6394
▁검증	-6395
▁특정한	-6396
▁유발	-6397
재의	-6398
▁샘	-6399
▁방금	-6400
분야	-6401
▁표정	-6402
▁균형	-6403
▁잎	-6404
▁모으	-6405
▁반갑	-6406
나다	-6407
▁다녔	-6408
했는지	-6409
자나	-6410
카드	-6411
▁분위기가	-6412
▁썰	-6413
▁가깝	-6414
ud	-6415
▁무엇인지	-6416
▁엿	-6417
▁보급	-6418
▁파리	-6419
▁한계	-6420
시한	-6421
▁아이들의	-6422
▁감옥	-6423
▁앓	-6424
▁이벤	-6425
▁올리	-6426
▁무덤	-6427
▁권리를	-6428
이니까	-6429
▁짓을	-6430
▁비유	-6431
▁담긴	-6432
위에서	-6433
▁데이	-6434
▁웹	-6435
ich	-6436
▁가지가	-6437
봉사	-6438
▁공중	-6439
6.	-6440
▁화학	-6441
다운	-6442
할까	-6443
▁시인	-6444
▁가수	-6445
▁육체	-6446
▁늦게	-6447
▁낡	-6448
크로	-6449
▁자의	-6450
▁정작	-6451
▁회장은	-6452
았다는	-6453
▁확실한	-6454
▁어딘	-6455
▁적도	-6456
따라	-6457
▁시장은	-6458
▁율	-6459
대상	-6460
▁2007	-6461
▁스마트폰	-6462
▁사고가	-6463
▁세계에서	-6464
▁(3)	-6465
▁2011	-6466
자금	-6467
▁신라	-6468
▁공격을	-6469
조정	-6470
▁텔레비전	-6471
▁어려울	-6472
히지	-6473
▁살펴보면	-6474
▁더욱이	-6475
▁아픔	-6476
▁괴롭	-6477
▁부를	-6478
▁전통적인	-6479
타민	-6480
▁시장에	-6481
이라든가	-6482
▁둘러싸	-6483
▁낯선	-6484
▁전용	-6485
▁런던	-6486
치로	-6487
▁황금	-6488
▁여덟	-6489
▁촉진	-6490
▁칠십	-6491
자연	-6492
▁김일	-6493
사상	-6494
▁평범한	-6495
주와	-6496
▁움직임	-6497
문에서	-6498
▁교회의	-6499
▁전에는	-6500
▁드러나	-6501
고에	-6502
▁이곳에	-6503
▁관람	-6504
▁메이	-6505
불을	-6506
▁막을	-6507
놓았다	-6508
▁디자	-6509
파가	-6510
▁매력	-6511
▁바닷	-6512
▁아끼	-6513
혁명	-6514
▁전했다	-6515
▁죄를	-6516
▁추구하는	-6517
▁이정	-6518
조에	-6519
▁대장	-6520
▁바람직	-6521
해야만	-6522
▁기뻐	-6523
▁살피	-6524
▁확립	-6525
품이	-6526
▁아줌	-6527
▁된다면	-6528
지않	-6529
▁혼자서	-6530
ub	-6531
▁감히	-6532
▁생길	-6533
▁가려	-6534
▁호남	-6535
▁그때는	-6536
▁밤에	-6537
왕이	-6538
았어	-6539
▁지었다	-6540
▁냈다	-6541
파를	-6542
▁홀로	-6543
교회	-6544
▁모르겠다	-6545
▁올랐다	-6546
▁길은	-6547
▁해양	-6548
자리에	-6549
▁자고	-6550
보세요	-6551
▁그녀에게	-6552
▁쫓아	-6553
▁개가	-6554
▁열리는	-6555
▁필요는	-6556
▁내다	-6557
▁갈아	-6558
봤다	-6559
개로	-6560
소리를	-6561
▁정서	-6562
▁갇	-6563
▁요렇게	-6564
▁노릇	-6565
▁거잖아요	-6566
식과	-6567
숙한	-6568
▁갈라	-6569
▁끝나고	-6570
▁가자	-6571
▁파는	-6572
▁알려졌다	-6573
조로	-6574
▁32	-6575
▁잃고	-6576
▁포도	-6577
▁이룬	-6578
해온	-6579
▁붓	-6580
▁이해를	-6581
망이	-6582
▁밝은	-6583
▁마법	-6584
▁대학교	-6585
▁고등	-6586
자로서	-6587
▁신이	-6588
▁되었을	-6589
▁들어왔다	-6590
▁계기로	-6591
감독	-6592
▁원내대표	-6593
▁중에서도	-6594
,"	-6595
▁신선	-6596
▁남자의	-6597
▁희망을	-6598
습을	-6599
▁할인	-6600
▁걱정이	-6601
▁시에	-6602
실은	-6603
▁미국에	-6604
▁때문에네	-6605
▁바라보고	-6606
▁골목	-6607
▁굶	-6608
하므로	-6609
리스트	-6610
향을	-6611
▁=	-6612
▁거론	-6613
▁되죠	-6614
행위	-6615
▁유용	-6616
▁있을까요	-6617
▁끔찍	-6618
액이	-6619
▁웃으며	-6620
▁여기는	-6621
▁이케	-6622
▁경우를	-6623
▁비평	-6624
▁어지	-6625
태를	-6626
▁일시	-6627
▁앉아서	-6628
▁점에	-6629
▁바와	-6630
▁업무를	-6631
▁바닥에	-6632
▁선출	-6633
▁스피	-6634
▁여기까지	-6635
▁우린	-6636
▁2015	-6637
거기	-6638
▁정신적	-6639
▁채널	-6640
▁둘러싼	-6641
▁섭취	-6642
치면	-6643
댔다	-6644
▁종사	-6645
▁부상	-6646
▁구조를	-6647
▁씨를	-6648
▁없으며	-6649
겠지요	-6650
▁이해하고	-6651
나라는	-6652
▁충실	-6653
▁나타났	-6654
▁헤어	-6655
▁의지를	-6656
▁시작한다	-6657
▁우리나라의	-6658
▁듯했다	-6659
▁과제	-6660
▁요새	-6661
▁자신은	-6662
▁그러다가	-6663
▁없었고	-6664
▁II	-6665
▁좋아요	-6666
▁서민	-6667
▁회사에	-6668
▁미국에서	-6669
▁제발	-6670
▁연대	-6671
상적인	-6672
제한	-6673
▁육성	-6674
▁엎	-6675
▁이슬람	-6676
▁개인적인	-6677
작은	-6678
구와	-6679
▁대안	-6680
▁하나씩	-6681
4.	-6682
▁배달	-6683
화되고	-6684
방법	-6685
▁이들을	-6686
▁세계적인	-6687
(200	-6688
문으로	-6689
▁관련해	-6690
▁마르	-6691
▁말아야	-6692
▁인상을	-6693
▁의미하는	-6694
▁왠	-6695
무역	-6696
▁공약	-6697
ine	-6698
▁죽는	-6699
▁회사를	-6700
▁초점을	-6701
그래도	-6702
▁권력을	-6703
▁분명한	-6704
▁사나	-6705
▁상황은	-6706
비와	-6707
로워	-6708
▁......	-6709
▁부각	-6710
▁손이	-6711
▁두려움	-6712
▁같은데요	-6713
▁사람이다	-6714
화점	-6715
▁멘	-6716
▁어느새	-6717
▁결심	-6718
이던	-6719
령의	-6720
cm	-6721
▁이겨	-6722
▁원의	-6723
▁무대	-6724
▁간단한	-6725
▁쪽에	-6726
운동을	-6727
▁이루고	-6728
이것	-6729
▁공을	-6730
▁않아서	-6731
▁있었다고	-6732
▁찾고	-6733
▁외에도	-6734
으시	-6735
▁삽	-6736
까지만	-6737
▁상태가	-6738
▁대가	-6739
▁사람에	-6740
▁우리도	-6741
▁기다려	-6742
▁건강한	-6743
▁계기가	-6744
왔습니다	-6745
위원장	-6746
▁자유롭게	-6747
▁얻는	-6748
추어	-6749
졌다는	-6750
▁부과	-6751
▁외면	-6752
훈련	-6753
▁당한	-6754
▁바가	-6755
▁국가가	-6756
▁해가지고	-6757
화하고	-6758
▁줄어	-6759
▁자연의	-6760
▁묻는	-6761
▁건가요	-6762
▁노동자	-6763
셔도	-6764
▁시집	-6765
▁세상에서	-6766
▁구성된	-6767
▁아들을	-6768
▁않는다면	-6769
하이	-6770
▁헐	-6771
▁장군	-6772
▁가지를	-6773
맞아요	-6774
당히	-6775
▁없었습니다	-6776
▁신학	-6777
▁든다	-6778
▁신중	-6779
아직	-6780
▁한반도	-6781
▁대항	-6782
▁얼마든지	-6783
체로	-6784
이도	-6785
▁어렵게	-6786
▁작가의	-6787
▁대답을	-6788
▁식의	-6789
▁담은	-6790
물과	-6791
▁보내고	-6792
▁세금	-6793
▁있을지	-6794
▁그분	-6795
▁그다지	-6796
▁생각한	-6797
▁뜯	-6798
으러	-6799
▁꽂	-6800
▁원자	-6801
▁어때	-6802
▁이것도	-6803
인들에게	-6804
▁아기	-6805
▁밝힌	-6806
▁이주	-6807
언이	-6808
▁타당	-6809
▁침해	-6810
ore	-6811
▁은혜	-6812
▁빨간	-6813
▁넘겨	-6814
▁학교에서	-6815
▁월급	-6816
▁잃은	-6817
책임	-6818
▁2013	-6819
▁측은	-6820
▁어두운	-6821
▁명칭	-6822
▁되며	-6823
악한	-6824
▁핑	-6825
▁th	-6826
▁불가피	-6827
톨릭	-6828
▁뜻이다	-6829
▁관료	-6830
▁취임	-6831
▁수석	-6832
병이	-6833
ure	-6834
▁몰랐다	-6835
면이	-6836
▁건네	-6837
▁하루에	-6838
.!	-6839
간을	-6840
▁Un	-6841
▁초청	-6842
▁공간을	-6843
현대	-6844
▁홈페이지	-6845
공원	-6846
▁늙은	-6847
수수	-6848
▁그곳에	-6849
▁없다면	-6850
▁삼아	-6851
▁후원	-6852
▁현금	-6853
▁탄핵	-6854
이지요	-6855
▁1960	-6856
적은	-6857
자원	-6858
▁문화의	-6859
나를	-6860
▁오래된	-6861
되기도	-6862
▁돌아와	-6863
▁처녀	-6864
▁심장	-6865
▁입술	-6866
예를	-6867
▁이끌고	-6868
방은	-6869
유럽	-6870
▁〈	-6871
~19	-6872
▁셀	-6873
▁책의	-6874
▁비즈니스	-6875
▁느끼게	-6876
▁축소	-6877
종은	-6878
▁한마디로	-6879
▁오염	-6880
본부	-6881
▁껍	-6882
▁2006	-6883
▁보입니다	-6884
▁여부를	-6885
▁삶이	-6886
서비스	-6887
▁재능	-6888
연구소	-6889
▁들지	-6890
▁읽을	-6891
▁완전한	-6892
▁구원	-6893
▁압박	-6894
ov	-6895
▁장식	-6896
▁판단을	-6897
▁아내는	-6898
▁몰래	-6899
▁번째는	-6900
▁하나하나	-6901
아시아	-6902
▁서류	-6903
이사	-6904
▁집착	-6905
▁분은	-6906
이너	-6907
졌다고	-6908
▁긴급	-6909
▁전체의	-6910
▁상품을	-6911
▁왼쪽	-6912
▁잔뜩	-6913
함은	-6914
▁지방자치	-6915
▁아하	-6916
▁눈길을	-6917
▁꿀	-6918
▁후회	-6919
▁실업	-6920
의원	-6921
▁발표한	-6922
▁배워	-6923
▁아니었	-6924
▁흡수	-6925
▁이분	-6926
3.	-6927
▁목사	-6928
▁수준의	-6929
우리는	-6930
▁냄새가	-6931
▁줄을	-6932
▁의식을	-6933
우의	-6934
음으로	-6935
▁찾기	-6936
▁공기	-6937
▁나쁘	-6938
▁이자	-6939
체계	-6940
쳐서	-6941
▁화려한	-6942
▁찔	-6943
▁정답	-6944
▁오늘도	-6945
▁미군	-6946
회장	-6947
▁사랑이	-6948
▁그럼요	-6949
▁부모가	-6950
▁인물이	-6951
▁편이	-6952
▁관련이	-6953
▁병원에	-6954
건축	-6955
요한	-6956
▁대접	-6957
▁가라앉	-6958
▁심판	-6959
▁전남	-6960
▁뽑아	-6961
▁핀	-6962
▁이어서	-6963
▁나타내는	-6964
▁인기를	-6965
▁식민지	-6966
▁감독은	-6967
▁식사를	-6968
▁캐릭	-6969
▁천구백	-6970
▁관하여	-6971
olog	-6972
▁이어지는	-6973
▁거리가	-6974
▁출현	-6975
▁말하지	-6976
라든가	-6977
▁보증	-6978
▁일어났다	-6979
▁잡은	-6980
▁고맙습니다	-6981
등을	-6982
절로	-6983
하였으며	-6984
▁현상을	-6985
▁부대	-6986
▁테니	-6987
론에	-6988
▁자리잡	-6989
▁존재를	-6990
▁취소	-6991
▁보라	-6992
%),	-6993
국으로	-6994
▁고집	-6995
▁한미	-6996
주의는	-6997
▁조치를	-6998
▁단독	-6999
▁이용하여	-7000
▁사고를	-7001
▁되돌아	-7002
는데도	-7003
▁방에	-7004
▁기가	-7005
▁정도를	-7006
▁경찰이	-7007
▁그러는	-7008
▁코스	-7009
▁구현	-7010
▁학생들의	-7011
▁청취	-7012
하더라도	-7013
로도	-7014
설이	-7015
화되어	-7016
▁한숨을	-7017
▁월드컵	-7018
여행	-7019
▁사장은	-7020
일으	-7021
▁이해하는	-7022
여성	-7023
▁담배를	-7024
▁가져다	-7025
▁음악을	-7026
심에	-7027
라든지	-7028
▁입법	-7029
▁법정	-7030
민이	-7031
꺼번에	-7032
왕은	-7033
방으로	-7034
▁아홉	-7035
▁경비	-7036
▁대학생	-7037
▁숨겨	-7038
▁세우고	-7039
▁비타민	-7040
▁정도였다	-7041
프라	-7042
▁똑같	-7043
▁소리로	-7044
▁치료를	-7045
▁인하여	-7046
▁요약	-7047
▁소프트	-7048
▁이루어지는	-7049
▁뒤에서	-7050
화한	-7051
▁많습니다	-7052
미의	-7053
▁지역을	-7054
▁짙	-7055
▁각각의	-7056
피아	-7057
▁기자회	-7058
래요	-7059
▁사라져	-7060
▁않는다고	-7061
▁양성	-7062
▁낚	-7063
man	-7064
▁기사를	-7065
▁글쎄	-7066
이면서	-7067
평균	-7068
▁(19	-7069
▁적어	-7070
▁내리는	-7071
▁현장에서	-7072
▁대목	-7073
▁계층	-7074
이랑	-7075
EO	-7076
▁밭	-7077
승을	-7078
받침	-7079
▁해체	-7080
▁억제	-7081
▁끌려	-7082
▁거친	-7083
?!	-7084
처리	-7085
음악	-7086
▁펜	-7087
▁테이블	-7088
▁교체	-7089
어디	-7090
▁스위	-7091
증권	-7092
▁노후	-7093
▁그래야	-7094
크가	-7095
▁재벌	-7096
니즘	-7097
들로부터	-7098
▁아래로	-7099
▁촉구	-7100
였어요	-7101
으셨	-7102
▁성격이	-7103
터가	-7104
▁이집	-7105
▁소중	-7106
외로	-7107
▁기호	-7108
▁막아	-7109
▁후배	-7110
▁보겠습니다	-7111
▁불리	-7112
▁생생	-7113
▁for	-7114
▁생각하	-7115
▁대외	-7116
▁세월호	-7117
▁차단	-7118
▁뛰어나	-7119
▁끝났	-7120
비에스	-7121
▁직무	-7122
▁무의식	-7123
▁자발	-7124
▁실무	-7125
발이	-7126
▁스물	-7127
절이	-7128
▁본격적인	-7129
▁메시지를	-7130
▁주머니	-7131
란을	-7132
▁왠지	-7133
▁있구요	-7134
▁내려다	-7135
▁역사가	-7136
▁놀란	-7137
▁얘길	-7138
▁불러일으	-7139
▁한꺼번에	-7140
▁격려	-7141
▁맛을	-7142
▁볶	-7143
색의	-7144
▁지하철	-7145
▁저축	-7146
항공	-7147
▁싶어요	-7148
▁이르러	-7149
▁아빠가	-7150
▁작동	-7151
se	-7152
▁선수가	-7153
▁나은	-7154
▁부패	-7155
▁개성	-7156
▁지극	-7157
▁언젠가	-7158
▁교류	-7159
▁학생들은	-7160
▁황제	-7161
▁도둑	-7162
▁소수	-7163
탄을	-7164
환을	-7165
▁밖에서	-7166
▁삐	-7167
▁규범	-7168
▁경매	-7169
▁교육의	-7170
약에	-7171
▁오해	-7172
▁민족의	-7173
▁들어가서	-7174
▁옆에서	-7175
▁감정이	-7176
▁즐길	-7177
달라	-7178
차게	-7179
▁되어서	-7180
▁돌아가는	-7181
인가요	-7182
▁유사한	-7183
▁변화에	-7184
▁키우	-7185
▁들어오는	-7186
▁곁에	-7187
▁싶어서	-7188
▁소방	-7189
▁해주는	-7190
▁살이	-7191
▁스스로를	-7192
av	-7193
▁견디	-7194
사업을	-7195
▁알아서	-7196
▁한편으로는	-7197
▁양도	-7198
2,	-7199
산물	-7200
▁제도를	-7201
▁시작하는	-7202
▁도덕적	-7203
▁구십	-7204
▁본다면	-7205
▁운영하는	-7206
▁신화	-7207
com	-7208
▁꽉	-7209
들과의	-7210
▁미래의	-7211
▁반짝	-7212
▁위치한	-7213
▁곽	-7214
▁집권	-7215
▁가지로	-7216
?)	-7217
사도	-7218
▁갖추고	-7219
▁이거를	-7220
▁기재	-7221
▁사건의	-7222
▁탈출	-7223
▁패러	-7224
...."	-7225
▁근본적인	-7226
▁직접적인	-7227
▁이용하는	-7228
▁가구	-7229
▁X	-7230
두는	-7231
아아	-7232
▁드러내	-7233
▁못하면	-7234
▁될까	-7235
두를	-7236
▁외환	-7237
림이	-7238
▁요구를	-7239
▁비용을	-7240
크의	-7241
▁아버지를	-7242
▁차지하는	-7243
▁멜	-7244
)’	-7245
▁대북	-7246
중국	-7247
점과	-7248
▁원천	-7249
▁만나고	-7250
버스	-7251
▁일본에	-7252
▁즐거운	-7253
und	-7254
역사	-7255
플레이	-7256
▁의견이	-7257
▁과정에	-7258
▁이용할	-7259
▁너무도	-7260
▁오른쪽	-7261
▁다짐	-7262
▁군대	-7263
▁연령	-7264
▁수치	-7265
▁그곳에서	-7266
▁교훈	-7267
▁잠이	-7268
▁신호	-7269
미술	-7270
▁관해	-7271
전으로	-7272
▁프로젝트	-7273
▁맡은	-7274
점의	-7275
▁야구	-7276
▁염려	-7277
▁그토록	-7278
▁2009	-7279
▁안의	-7280
▁한창	-7281
시하고	-7282
▁앞장	-7283
프는	-7284
▁글쓰	-7285
▁34	-7286
▁버려	-7287
등급	-7288
스턴	-7289
▁일주일	-7290
어머	-7291
▁결정적인	-7292
기구	-7293
▁시장에서	-7294
오를	-7295
ism	-7296
▁대고	-7297
어졌다	-7298
▁수익을	-7299
▁도는	-7300
▁않나	-7301
중의	-7302
▁되찾	-7303
▁성인	-7304
재로	-7305
르르	-7306
24	-7307
서와	-7308
▁감당	-7309
학습	-7310
스탄	-7311
▁우연히	-7312
▁기부	-7313
▁추측	-7314
범위	-7315
▁끝이	-7316
▁밝혔	-7317
양이	-7318
▁걸고	-7319
▁불가능한	-7320
받지	-7321
▁마음대로	-7322
」(	-7323
▁관련하여	-7324
▁동맹	-7325
니는	-7326
운영	-7327
하긴	-7328
▁장수	-7329
▁주식을	-7330
▁교황	-7331
▁지각	-7332
▁써서	-7333
▁관계는	-7334
까지의	-7335
▁존재하지	-7336
등록	-7337
▁가족이	-7338
▁않으며	-7339
▁나고	-7340
ak	-7341
▁누군가가	-7342
▁제외한	-7343
▁사정	-7344
▁있겠지만	-7345
▁사실에	-7346
21	-7347
▁상태에	-7348
▁피가	-7349
결정	-7350
▁내보	-7351
▁포괄	-7352
민은	-7353
▁핸드	-7354
▁나지	-7355
▁남편은	-7356
심은	-7357
▁즉각	-7358
아마	-7359
▁점령	-7360
▁내용의	-7361
▁등도	-7362
▁피를	-7363
던가	-7364
▁잡지	-7365
약이	-7366
능력	-7367
▁국어	-7368
▁죽고	-7369
무가	-7370
▁성남	-7371
▁뱃	-7372
▁초과	-7373
▁씌	-7374
▁한결	-7375
▁알렉	-7376
파는	-7377
▁먹은	-7378
for	-7379
▁걔	-7380
▁차지하고	-7381
▁왕이	-7382
▁즐기	-7383
▁딸이	-7384
▁영토	-7385
▁얘기하는	-7386
군에	-7387
▁이루는	-7388
▁마구	-7389
관련	-7390
▁기다리	-7391
▁삶은	-7392
에이	-7393
당과	-7394
▁소요	-7395
9.	-7396
▁분야의	-7397
▁매체	-7398
▁시스템을	-7399
▁맛있는	-7400
▁사건에	-7401
▁지속적인	-7402
▁재미있는	-7403
▁빛이	-7404
▁노력이	-7405
였을	-7406
▁길에	-7407
▁솜	-7408
▁일본은	-7409
▁정해	-7410
▁팔십	-7411
▁채로	-7412
거리고	-7413
▁앞으로도	-7414
▁미루	-7415
▁파고	-7416
▁원리	-7417
▁불이	-7418
▁전쟁이	-7419
ial	-7420
▁살아가	-7421
무지	-7422
▁촛	-7423
▁입장이	-7424
▁가능성	-7425
▁10%	-7426
▁잡는	-7427
▁개편	-7428
▁습관	-7429
▁상위	-7430
▁파트	-7431
▁주력	-7432
▁친구들이	-7433
▁때면	-7434
▁미칠	-7435
하루	-7436
스테	-7437
그걸	-7438
▁경고	-7439
양의	-7440
▁과장	-7441
▁실수	-7442
식품	-7443
론가	-7444
빛이	-7445
▁여기저기	-7446
▁국민이	-7447
▁정치를	-7448
▁돌파	-7449
▁어르	-7450
이야말로	-7451
중을	-7452
속의	-7453
겠네	-7454
▁마찬가지다	-7455
체제	-7456
▁위치를	-7457
▁re	-7458
▁가령	-7459
▁잊어버	-7460
▁하는가	-7461
▁아니겠습니까	-7462
드라	-7463
▁감싸	-7464
▁비싸	-7465
▁뮤지	-7466
▁약간의	-7467
이었어요	-7468
▁샀	-7469
▁얹	-7470
▁엑	-7471
▁잘라	-7472
▁김대중	-7473
▁37	-7474
▁비싼	-7475
돈을	-7476
재는	-7477
▁새겨	-7478
▁한계를	-7479
▁지키는	-7480
▁전날	-7481
▁이전의	-7482
▁부른다	-7483
▁북한은	-7484
▁수사를	-7485
동은	-7486
되자	-7487
▁뭐라	-7488
▁넘게	-7489
▁것들은	-7490
▁개척	-7491
▁어디까지	-7492
▁비례	-7493
▁하는데요	-7494
▁자신과	-7495
▁애를	-7496
▁블랙	-7497
▁자신에	-7498
▁좁은	-7499
▁것이냐	-7500
▁맡고	-7501
판이	-7502
▁쌓아	-7503
거를	-7504
단과	-7505
▁듯하다	-7506
인한	-7507
진흥	-7508
▁건가	-7509
▁시간과	-7510
주인	-7511
▁가요	-7512
▁훈련을	-7513
세포	-7514
▁궤	-7515
달을	-7516
▁겪고	-7517
▁축제	-7518
(18	-7519
▁장사	-7520
▁소멸	-7521
모델	-7522
청을	-7523
쾌한	-7524
▁사건은	-7525
▁써야	-7526
▁_	-7527
▁남편의	-7528
▁시대가	-7529
▁터뜨	-7530
ond	-7531
▁달에	-7532
▁패턴	-7533
이냐	-7534
▁고기	-7535
▁수천	-7536
▁즐겨	-7537
일단	-7538
▁방으로	-7539
▁거냐	-7540
▁어렸을	-7541
▁패배	-7542
▁훼손	-7543
▁고발	-7544
▁전세	-7545
주의와	-7546
▁+	-7547
▁결론을	-7548
더라면	-7549
특히	-7550
통이	-7551
▁소금	-7552
▁너머	-7553
다리	-7554
적이었다	-7555
▁할아버지	-7556
▁너도	-7557
▁우수한	-7558
중심	-7559
▁피고	-7560
▁환경을	-7561
▁불렀	-7562
▁지고	-7563
▁돌렸다	-7564
▁기다리는	-7565
아리	-7566
ence	-7567
마한	-7568
미한	-7569
ung	-7570
▁있잖아	-7571
마스	-7572
▁무거운	-7573
버려	-7574
▁독점	-7575
강을	-7576
효과	-7577
▁밀접	-7578
▁열쇠	-7579
▁규정하고	-7580
▁벌어진	-7581
▁윗	-7582
고기	-7583
일자	-7584
▁중독	-7585
▁미국과	-7586
▁들어올	-7587
문과	-7588
▁존재가	-7589
시장의	-7590
▁권위	-7591
▁거니까	-7592
거리를	-7593
▁위기를	-7594
▁며느	-7595
▁뒷받침	-7596
▁동안에	-7597
▁토대로	-7598
늦게	-7599
▁얼굴은	-7600
▁튼	-7601
ort	-7602
▁짓고	-7603
▁괜찮은	-7604
▁사퇴	-7605
▁함부로	-7606
소서	-7607
▁용인	-7608
▁주장한다	-7609
원들은	-7610
▁덤	-7611
▁인력	-7612
▁임신	-7613
▁스트레스	-7614
▁폐쇄	-7615
▁마세요	-7616
▁너를	-7617
▁안심	-7618
▁압도	-7619
조차도	-7620
▁회사는	-7621
계급	-7622
료가	-7623
▁운송	-7624
독한	-7625
▁했기	-7626
▁필연	-7627
▁것이지	-7628
▁마련이다	-7629
▁과목	-7630
가에서	-7631
▁올랐	-7632
▁댓	-7633
▁공모	-7634
줍니다	-7635
▁길로	-7636
▁나타나고	-7637
▁만화	-7638
종합	-7639
▁밴	-7640
▁재산을	-7641
▁부모의	-7642
체험	-7643
▁감수	-7644
▁거라	-7645
▁저렴	-7646
▁관여	-7647
▁나란히	-7648
▁기업은	-7649
쪽의	-7650
MF	-7651
▁원이	-7652
▁것이니	-7653
하가	-7654
▁시나	-7655
급한	-7656
▁따져	-7657
▁그리고는	-7658
▁조건을	-7659
▁조국	-7660
▁속이	-7661
▁1996	-7662
해의	-7663
▁다시는	-7664
▁잡았다	-7665
구성	-7666
▁좋다고	-7667
▁뱀	-7668
억원을	-7669
end	-7670
▁풍부한	-7671
린이	-7672
환이	-7673
▁고객의	-7674
막을	-7675
▁몽골	-7676
▁회계	-7677
▁갓	-7678
각이	-7679
되거나	-7680
▁얘기도	-7681
▁정도에	-7682
▁칼을	-7683
eg	-7684
집이	-7685
▁후에는	-7686
식간에	-7687
▁결과에	-7688
▁속을	-7689
음과	-7690
▁올린	-7691
▁나가서	-7692
님께	-7693
밀하게	-7694
▁해결할	-7695
▁많은데	-7696
▁흐름을	-7697
▁직면	-7698
▁그로	-7699
▁클럽	-7700
▁조선의	-7701
▁되면은	-7702
▁쑥	-7703
▁천안	-7704
▁양념	-7705
주의에	-7706
▁주인이	-7707
하네	-7708
▁차이는	-7709
▁군데	-7710
▁이상으로	-7711
▁보았	-7712
TA	-7713
거라	-7714
찰을	-7715
▁대결	-7716
▁박정희	-7717
▁터져	-7718
▁그제	-7719
▁꾀	-7720
▁사업에	-7721
▁작품은	-7722
▁학교를	-7723
▁사전에	-7724
▁낮아	-7725
7.	-7726
▁대충	-7727
채를	-7728
▁식당	-7729
▁본능	-7730
▁탁월	-7731
▁대다	-7732
▁계약을	-7733
▁어째	-7734
▁꼼꼼	-7735
▁뭐냐면	-7736
으세요	-7737
▁힘으로	-7738
고맙	-7739
5%	-7740
▁갈등을	-7741
▁역설	-7742
자들과	-7743
션을	-7744
▁지나가	-7745
차에	-7746
▁본인	-7747
▁신설	-7748
▁맞서	-7749
▁보안	-7750
▁주면	-7751
▁약한	-7752
▁전체가	-7753
▁보낼	-7754
▁비율	-7755
▁맞고	-7756
▁하기도	-7757
모든	-7758
▁걸까	-7759
▁구름	-7760
협력	-7761
▁망설	-7762
▁문장	-7763
▁부담을	-7764
▁뛰어들	-7765
▁일본이	-7766
▁없으니까	-7767
▁주장이	-7768
▁철저하게	-7769
▁바라보며	-7770
▁푹	-7771
▁대량	-7772
▁인쇄	-7773
▁주가	-7774
▁서로를	-7775
▁찾아볼	-7776
▁환영	-7777
▁목적이	-7778
공이	-7779
연구원	-7780
어질	-7781
▁번이나	-7782
묘한	-7783
23	-7784
kg	-7785
기록	-7786
▁어려움	-7787
▁보시	-7788
▁관측	-7789
였다고	-7790
되었을	-7791
특별	-7792
관계가	-7793
말이	-7794
▁버리	-7795
워요	-7796
▁하실	-7797
물관	-7798
현이	-7799
▁작곡	-7800
▁침략	-7801
▁사랑은	-7802
▁품질	-7803
▁바퀴	-7804
▁리가	-7805
▁은퇴	-7806
▁출범	-7807
▁들었습니다	-7808
8.	-7809
소년	-7810
▁기술이	-7811
▁않은가	-7812
▁몰라도	-7813
▁떨어뜨	-7814
▁조직의	-7815
▁사이로	-7816
▁슈퍼	-7817
▁혜택을	-7818
▁내어	-7819
▁피할	-7820
▁방법이다	-7821
▁실내	-7822
▁관련한	-7823
멤버	-7824
▁충격을	-7825
▁부엌	-7826
면에서	-7827
▁가기	-7828
▁거요	-7829
▁굵	-7830
▁연설	-7831
▁아이들에게	-7832
역에	-7833
▁원인을	-7834
▁눈앞에	-7835
▁확실하게	-7836
▁드물	-7837
▁미세	-7838
▁조기	-7839
출판	-7840
▁기록을	-7841
주의가	-7842
▁연방	-7843
▁정지	-7844
▁올렸다	-7845
▁온통	-7846
▁무릎을	-7847
▁저장	-7848
▁복귀	-7849
▁생애	-7850
▁잘하는	-7851
돌이	-7852
▁체크	-7853
▁189	-7854
▁이민	-7855
▁놈이	-7856
법으로	-7857
▁난다	-7858
▁곳이다	-7859
▁기준을	-7860
상한	-7861
▁r	-7862
▁석유	-7863
할지	-7864
▁그런데도	-7865
대고	-7866
▁정복	-7867
▁폐기	-7868
▁예쁜	-7869
▁전의	-7870
니를	-7871
▁등장하는	-7872
러진	-7873
1,	-7874
학에	-7875
르몬	-7876
▁6.	-7877
▁왔습니다	-7878
oh	-7879
▁심하게	-7880
▁피로	-7881
▁자유한국	-7882
▁살아야	-7883
▁승리를	-7884
▁무력	-7885
▁말했	-7886
권과	-7887
▁분야에	-7888
▁개설	-7889
▁오리	-7890
투를	-7891
▁지붕	-7892
▁아나운	-7893
▁각자	-7894
▁식물	-7895
소와	-7896
프가	-7897
▁식구	-7898
리트	-7899
▁똑똑	-7900
▁쓰레기	-7901
▁갑작	-7902
▁대부분이	-7903
▁매도	-7904
▁부인이	-7905
▁An	-7906
바일	-7907
▁반도	-7908
▁배당	-7909
▁말했습니다	-7910
킨다	-7911
▁출생	-7912
▁Q	-7913
▁다이어	-7914
하자는	-7915
▁고쳐	-7916
전과	-7917
▁규모가	-7918
▁장르	-7919
▁반성	-7920
▁함으로써	-7921
▁버티	-7922
▁비틀	-7923
▁돌이	-7924
너는	-7925
위기	-7926
▁종업	-7927
▁촌	-7928
▁완벽한	-7929
▁기대를	-7930
▁자세를	-7931
▁갖는다	-7932
래의	-7933
▁목숨	-7934
▁만나서	-7935
▁앉았다	-7936
▁혐의로	-7937
▁몸은	-7938
▁쪽에서	-7939
되었다는	-7940
▁따르는	-7941
▁많을	-7942
▁물론이고	-7943
이십	-7944
▁순수한	-7945
▁같지	-7946
▁되풀이	-7947
▁당초	-7948
▁공작	-7949
▁남긴	-7950
▁아내의	-7951
▁▶	-7952
▁형태를	-7953
이었을	-7954
▁건강을	-7955
▁보십니까	-7956
ob	-7957
▁50%	-7958
피스	-7959
▁서울대	-7960
차로	-7961
▁물려	-7962
▁개인적으로	-7963
폭력	-7964
겠네요	-7965
모는	-7966
▁경상	-7967
▁애초	-7968
▁완료	-7969
패를	-7970
▁샌	-7971
▁연금	-7972
▁구석	-7973
▁데가	-7974
▁나이에	-7975
▁재빨리	-7976
심과	-7977
▁자세한	-7978
▁영원한	-7979
▁150	-7980
▁쪼끔	-7981
▁Com	-7982
▁내의	-7983
▁세부	-7984
▁총리	-7985
▁씹	-7986
마에	-7987
래를	-7988
▁논문	-7989
▁역대	-7990
▁보아야	-7991
▁1000	-7992
26	-7993
여러	-7994
액의	-7995
라스	-7996
▁마친	-7997
▁이따	-7998
▁불쌍	-7999
는지도	-8000
▁대학에	-8001
즈는	-8002
▁행복을	-8003
▁일행	-8004
▁기어	-8005
▁거나	-8006
▁서로의	-8007
▁정부에	-8008
▁데에	-8009
▁순식간에	-8010
교육을	-8011
▁그것에	-8012
▁쏠	-8013
▁실정	-8014
▁피아	-8015
▁주가가	-8016
천여	-8017
▁다루는	-8018
▁그쵸	-8019
▁등이다	-8020
범죄	-8021
▁화성	-8022
하시고	-8023
린은	-8024
당신	-8025
되는데	-8026
▁범위	-8027
▁한국에서	-8028
▁만다	-8029
악의	-8030
▁못했	-8031
▁청문	-8032
웨어	-8033
▁Press	-8034
▁그러지	-8035
숙이	-8036
▁집은	-8037
▁지표	-8038
~4	-8039
강의	-8040
▁거칠	-8041
▁장애인	-8042
로그	-8043
▁머리에	-8044
중이	-8045
▁도모	-8046
▁돈으로	-8047
▁일요일	-8048
▁들어왔	-8049
▁안타깝	-8050
▁휴대폰	-8051
나와	-8052
었으며	-8053
▁참여하는	-8054
아라	-8055
▁법이	-8056
▁필요할	-8057
년대에	-8058
▁광역	-8059
드립니다	-8060
▁영향력을	-8061
▁일으켜	-8062
▁달린	-8063
▁유의	-8064
▁생명의	-8065
▁각기	-8066
황을	-8067
게임	-8068
▁운명	-8069
▁철저한	-8070
▁결의	-8071
ok	-8072
▁사용한	-8073
▁의뢰	-8074
▁사령	-8075
▁바위	-8076
저도	-8077
▁골라	-8078
▁채무	-8079
▁1994	-8080
당하게	-8081
던데	-8082
▁학년	-8083
▁동북	-8084
if	-8085
풍이	-8086
▁될지	-8087
▁그죠	-8088
▁돌아왔다	-8089
▁엄청나게	-8090
▁즐기는	-8091
니와	-8092
▁주변의	-8093
▁걸었다	-8094
▁몸의	-8095
▁내리고	-8096
▁잡을	-8097
▁자유로운	-8098
일에는	-8099
▁행사를	-8100
렸다는	-8101
▁교수가	-8102
▁의사를	-8103
▁포장	-8104
그래요	-8105
▁경기를	-8106
▁찬성	-8107
우와	-8108
▁낡은	-8109
▁일일	-8110
▁일들이	-8111
▁준비가	-8112
▁막상	-8113
▁지지를	-8114
▁있겠는가	-8115
▁싶은데	-8116
▁출시	-8117
▁퇴직	-8118
구만	-8119
▁특허	-8120
▁머리카	-8121
진한	-8122
▁최근에는	-8123
시켜야	-8124
▁브리	-8125
▁전설	-8126
▁발생할	-8127
현의	-8128
▁시간의	-8129
월까지	-8130
교가	-8131
-4	-8132
▁앉은	-8133
▁있거나	-8134
tive	-8135
▁방을	-8136
▁좌절	-8137
▁고수	-8138
▁앵	-8139
미디어	-8140
선과	-8141
▁스크	-8142
▁건데요	-8143
▁예로	-8144
▁결과적으로	-8145
그러나	-8146
▁결정하는	-8147
iz	-8148
▁위험을	-8149
주기	-8150
▁항목	-8151
받았다	-8152
▁시절에	-8153
▁독재	-8154
▁실질적인	-8155
▁차려	-8156
형으로	-8157
▁사용하고	-8158
▁이종	-8159
▁요인	-8160
ory	-8161
치면서	-8162
▁독일의	-8163
치료	-8164
▁선전	-8165
▁주위를	-8166
▁갖지	-8167
너지	-8168
이라서	-8169
▁생성	-8170
하곤	-8171
▁했지	-8172
▁철도	-8173
▁전파	-8174
▁예언	-8175
▁애들	-8176
▁우려가	-8177
▁지금부터	-8178
▁모른다는	-8179
대통령	-8180
▁끄덕였다	-8181
▁다수	-8182
▁형님	-8183
▁중간에	-8184
▁홍콩	-8185
▁가짜	-8186
▁상속	-8187
연하게	-8188
들여	-8189
▁노조	-8190
▁적합한	-8191
그라	-8192
▁고추	-8193
▁아직은	-8194
하늘	-8195
더러	-8196
청에	-8197
ant	-8198
▁접수	-8199
▁번에	-8200
▁현행	-8201
▁사물	-8202
▁만나게	-8203
에서만	-8204
▁연상	-8205
▁나오면	-8206
▁기소	-8207
▁모시고	-8208
▁듣지	-8209
▁부드러운	-8210
▁십이	-8211
▁경찰은	-8212
▁됐어요	-8213
▁지키고	-8214
아하	-8215
▁비판을	-8216
▁설명할	-8217
▁출산	-8218
▁맞춤	-8219
▁발자	-8220
▁on	-8221
▁날씨	-8222
메리카	-8223
▁지리	-8224
아지	-8225
▁탐구	-8226
사인	-8227
▁여지가	-8228
▁의미는	-8229
족의	-8230
▁간부	-8231
▁되겠다	-8232
▁옛날에	-8233
아를	-8234
▁급히	-8235
▁약을	-8236
셨는데	-8237
28	-8238
인제	-8239
▁떠올랐다	-8240
▁얻고	-8241
▁서른	-8242
▁자칫	-8243
▁수를	-8244
▁걸친	-8245
▁사업이	-8246
▁패션	-8247
▁버리는	-8248
일과	-8249
▁자부	-8250
▁일대	-8251
▁택시	-8252
▁다음은	-8253
▁요즘은	-8254
봤습니다	-8255
▁동작	-8256
돼야	-8257
▁이순	-8258
자동차	-8259
▁미래에	-8260
반을	-8261
▁있듯이	-8262
▁쉴	-8263
ass	-8264
다니는	-8265
▁통상	-8266
▁대통령을	-8267
▁이백	-8268
했다면	-8269
▁전력	-8270
▁시작할	-8271
▁댄	-8272
만큼은	-8273
▁IT	-8274
▁유학	-8275
▁그대	-8276
▁지옥	-8277
▁높여	-8278
글쎄	-8279
▁최우	-8280
▁가공	-8281
▁투명	-8282
▁보충	-8283
스카	-8284
▁정보가	-8285
▁수영	-8286
화될	-8287
▁등등	-8288
▁지났	-8289
▁모르겠지만	-8290
먹고	-8291
▁새삼	-8292
▁소용	-8293
분간	-8294
▁유럽의	-8295
저리	-8296
▁법무	-8297
▁그리스도의	-8298
▁바꿀	-8299
▁정통	-8300
▁앞을	-8301
▁수필	-8302
령은	-8303
▁의문	-8304
▁다가가	-8305
물질	-8306
▁초등	-8307
연금	-8308
▁년이	-8309
▁유리한	-8310
▁추적	-8311
아버지	-8312
5.	-8313
▁소장	-8314
▁→	-8315
▁돼야	-8316
간이	-8317
▁버릴	-8318
▁밝히	-8319
ational	-8320
▁스페인	-8321
렸지만	-8322
▁지방선거	-8323
▁진화	-8324
크라	-8325
▁왔던	-8326
▁저작	-8327
란한	-8328
조금	-8329
▁데도	-8330
▁개념이	-8331
ont	-8332
▁먹지	-8333
▁안을	-8334
▁좋겠습니다	-8335
감사	-8336
▁이달	-8337
어라	-8338
▁후보를	-8339
▁반가	-8340
▁감시	-8341
공단	-8342
베르	-8343
액은	-8344
▁다룬	-8345
▁돈은	-8346
트와	-8347
ww	-8348
러는	-8349
▁조금도	-8350
▁꿰	-8351
▁링	-8352
▁당뇨	-8353
나라의	-8354
▁김태	-8355
▁안다	-8356
▁짐승	-8357
▁특징을	-8358
▁발표했다	-8359
▁부자	-8360
▁있나요	-8361
▁이곳에서	-8362
▁부적	-8363
▁종일	-8364
▁야기	-8365
▁파티	-8366
▁나라에	-8367
▁의사가	-8368
▁괜히	-8369
▁두는	-8370
참여	-8371
▁알아보	-8372
▁불과하다	-8373
▁축적	-8374
▁행동이	-8375
▁춤을	-8376
현실	-8377
▁나눌	-8378
▁무지	-8379
▁CEO	-8380
▁아직까지	-8381
▁것이오	-8382
▁간단히	-8383
▁표정이	-8384
▁다음의	-8385
저런	-8386
▁동화	-8387
▁만만	-8388
www	-8389
산으로	-8390
▁가능성도	-8391
▁점포	-8392
▁형상	-8393
▁절차를	-8394
원들의	-8395
▁분석을	-8396
미국	-8397
▁의미로	-8398
▁의미의	-8399
27	-8400
기기	-8401
▁이윤	-8402
가구	-8403
▁상대가	-8404
다듬	-8405
▁여의	-8406
▁한글	-8407
▁전적으로	-8408
거는	-8409
기관의	-8410
▁이후의	-8411
▁법인	-8412
▁작품의	-8413
▁대표하는	-8414
▁했으나	-8415
감하게	-8416
▁별다른	-8417
▁대우	-8418
인지를	-8419
▁대략	-8420
▁문이	-8421
건의	-8422
힌다	-8423
었지	-8424
하였던	-8425
▁고무	-8426
(7	-8427
선에서	-8428
▁한층	-8429
▁웃고	-8430
▁가해	-8431
!”	-8432
▁시점	-8433
▁자신들이	-8434
드리겠습니다	-8435
▁정한	-8436
▁형이	-8437
▁냉장	-8438
▁대폭	-8439
▁말야	-8440
▁멤버	-8441
유가	-8442
▁담보	-8443
▁선택을	-8444
▁컨설	-8445
▁탓에	-8446
그럴	-8447
▁New	-8448
▁반대하는	-8449
현은	-8450
▁성실	-8451
출을	-8452
렸는데	-8453
▁대학의	-8454
가며	-8455
▁수련	-8456
▁성장을	-8457
▁협조	-8458
처를	-8459
▁엄격	-8460
▁계승	-8461
▁실은	-8462
▁번의	-8463
▁카메라	-8464
▁보여준	-8465
▁병을	-8466
▁뜬	-8467
석의	-8468
▁않았다는	-8469
스럽고	-8470
는지를	-8471
▁부담이	-8472
기자	-8473
▁모험	-8474
▁마늘	-8475
▁벼슬	-8476
▁장을	-8477
▁단위	-8478
▁내포	-8479
▁상대방	-8480
▁항의	-8481
▁작품이	-8482
둥이	-8483
▁넷째	-8484
▁기억을	-8485
▁충청	-8486
▁답을	-8487
▁배우는	-8488
▁기운이	-8489
수원	-8490
▁매각	-8491
▁넉	-8492
▁어머니를	-8493
▁명령을	-8494
리자	-8495
기업의	-8496
뿐이었다	-8497
▁김치	-8498
▁않다고	-8499
▁퇴근	-8500
▁십오	-8501
▁옆으로	-8502
주의자	-8503
▁귀국	-8504
▁높이는	-8505
▁찍어	-8506
▁왜냐면	-8507
정부의	-8508
▁들렸다	-8509
라우	-8510
▁짓는	-8511
브리	-8512
▁떠날	-8513
▁놀이	-8514
▁하도록	-8515
갑니다	-8516
▁현실에	-8517
▁높게	-8518
▁de	-8519
▁배우고	-8520
▁강조하는	-8521
▁고스	-8522
▁배울	-8523
되었으며	-8524
▁바뀐	-8525
▁유머	-8526
▁단호	-8527
▁염두에	-8528
▁첨단	-8529
▁아주머니	-8530
▁그보다	-8531
▁착각	-8532
▁남자를	-8533
▁보시면	-8534
등한	-8535
▁조항	-8536
로에	-8537
타는	-8538
화할	-8539
▁됐는데	-8540
▁위를	-8541
▁이만	-8542
▁대통령에	-8543
▁기준이	-8544
기획	-8545
▁당해	-8546
▁풍요	-8547
▁고령	-8548
프로그램	-8549
▁말과	-8550
거리가	-8551
▁방침이다	-8552
▁조심스럽게	-8553
희의	-8554
봐요	-8555
▁계곡	-8556
▁찾은	-8557
▁방식이	-8558
▁39	-8559
▁줘야	-8560
▁친박	-8561
▁유효	-8562
먹는	-8563
▁힘들어	-8564
▁년에	-8565
▁캐나다	-8566
▁순간에	-8567
▁예산을	-8568
▁알리는	-8569
▁중요성을	-8570
내야	-8571
▁엄마의	-8572
▁책상	-8573
▁이상은	-8574
▁고민을	-8575
란이	-8576
▁"......."	-8577
그까	-8578
느니	-8579
▁창원	-8580
▁십일	-8581
▁왕의	-8582
▁놓았다	-8583
셔츠	-8584
▁주부	-8585
좋은	-8586
▁수비	-8587
▁탕	-8588
▁주의를	-8589
▁다해	-8590
▁얻게	-8591
건강	-8592
층에	-8593
겠나	-8594
왜냐	-8595
끄는	-8596
▁화폐	-8597
▁했죠	-8598
▁종교적	-8599
▁풀이	-8600
▁비교해	-8601
▁순환	-8602
》,	-8603
▁이가	-8604
▁토요일	-8605
▁억지로	-8606
▁받기	-8607
싱턴	-8608
▁달래	-8609
▁싶다는	-8610
현재	-8611
동생	-8612
▁상대방의	-8613
▁살기	-8614
▁상황이다	-8615
▁믿지	-8616
▁가능성은	-8617
▁치는	-8618
▁위원장	-8619
▁거라는	-8620
차별	-8621
▁차원	-8622
▁몰고	-8623
▁벤처	-8624
▁뚝	-8625
▁알기	-8626
이네	-8627
▁앱	-8628
▁재배	-8629
▁제약	-8630
▁맑은	-8631
▁점도	-8632
▁모두들	-8633
▁사랑에	-8634
▁대대	-8635
▁여인	-8636
지나	-8637
▁달하는	-8638
▁바꾸어	-8639
터는	-8640
▁소리쳤다	-8641
뚱한	-8642
▁필요하다고	-8643
시대의	-8644
소송	-8645
▁기록했다	-8646
입을	-8647
▁원칙을	-8648
▁수리	-8649
즈음	-8650
▁발사	-8651
▁자를	-8652
▁맡아	-8653
▁받아들일	-8654
군과	-8655
▁회의를	-8656
▁열려	-8657
▁사라진	-8658
▁제법	-8659
▁캠페	-8660
▁유교	-8661
면의	-8662
▁풍경	-8663
▁꿇	-8664
▁효과적인	-8665
▁20%	-8666
▁중국에	-8667
▁인종	-8668
▁중국이	-8669
▁동남	-8670
▁경찰에	-8671
▁관리를	-8672
▁애가	-8673
▁이라	-8674
▁침대	-8675
▁늘어난	-8676
▁걸음을	-8677
▁가벼운	-8678
집에서	-8679
▁연말	-8680
감의	-8681
▁명에	-8682
초를	-8683
▁도내	-8684
민주당	-8685
해왔다	-8686
오지	-8687
재단	-8688
▁추세	-8689
▁불만	-8690
꾸로	-8691
▁급격	-8692
▁예상된다	-8693
▁도구	-8694
협의	-8695
▁이같은	-8696
▁상식	-8697
▁파이	-8698
▁상임	-8699
▁치열한	-8700
▁밖의	-8701
▁할지라도	-8702
29	-8703
▁천연	-8704
▁못하	-8705
▁컬	-8706
▁비디오	-8707
편에	-8708
▁동아시아	-8709
▁퍼져	-8710
▁눈은	-8711
▁나빠	-8712
▁자금을	-8713
▁다닐	-8714
▁엉덩	-8715
림의	-8716
▁이렇듯	-8717
시티	-8718
쪽을	-8719
▁하세요	-8720
▁인정하고	-8721
▁됩	-8722
했다가	-8723
▁광범위	-8724
▁유동	-8725
▁지나면	-8726
▁선생님은	-8727
▁나라는	-8728
▁책임이	-8729
▁지루	-8730
으면서도	-8731
oun	-8732
추는	-8733
▁교육과	-8734
▁미소	-8735
▁입시	-8736
▁분명하게	-8737
▁하느냐	-8738
프의	-8739
▁말라고	-8740
▁데다	-8741
길로	-8742
▁수준을	-8743
▁두루	-8744
▁나누는	-8745
▁사소한	-8746
▁최대의	-8747
▁댓글	-8748
▁완벽하게	-8749
▁남는	-8750
가락을	-8751
▁극히	-8752
▁계절	-8753
▁나타날	-8754
▁아이디어를	-8755
▁시리즈	-8756
▁400	-8757
▁내야	-8758
▁급속	-8759
정책을	-8760
움과	-8761
도서	-8762
월에는	-8763
▁적대	-8764
▁모범	-8765
일까요	-8766
▁메뉴	-8767
▁감상	-8768
▁김경	-8769
▁것이나	-8770
▁갈등이	-8771
격이	-8772
▁그늘	-8773
▁천재	-8774
▁없으니	-8775
용으로	-8776
▁케이블	-8777
로로	-8778
per	-8779
▁원에	-8780
길에	-8781
조리	-8782
▁고난	-8783
▁벽에	-8784
▁선포	-8785
▁품고	-8786
청의	-8787
▁부문	-8788
▁보살	-8789
▁토끼	-8790
▁작가는	-8791
▁속도로	-8792
▁사라지고	-8793
▁날짜	-8794
▁대상을	-8795
▁에너지를	-8796
▁올리고	-8797
▁유지하고	-8798
▁많아요	-8799
▁대부분은	-8800
ld	-8801
▁팩	-8802
▁전체적으로	-8803
▁적게	-8804
되었다고	-8805
업에	-8806
▁노려	-8807
▁방송을	-8808
▁노란	-8809
▁개헌	-8810
▁병이	-8811
▁분쟁	-8812
▁오페	-8813
였다는	-8814
▁죽음의	-8815
▁문제와	-8816
렸어요	-8817
▁한계가	-8818
▁목적은	-8819
▁뒤집어	-8820
용의	-8821
▁쉽다	-8822
▁되기도	-8823
으라고	-8824
▁떨어졌다	-8825
계에서	-8826
▁포착	-8827
▁저절로	-8828
▁편성	-8829
▁사서	-8830
아빠	-8831
테면	-8832
▁나중	-8833
▁위기에	-8834
▁받아서	-8835
▁어색	-8836
▁전까지	-8837
임금	-8838
▁용기를	-8839
▁오랜만에	-8840
▁거에	-8841
▁말의	-8842
▁손바닥	-8843
▁제시한	-8844
▁만들어서	-8845
질러	-8846
▁귀찮	-8847
즈를	-8848
▁티비	-8849
▁정치적인	-8850
▁뛰어넘	-8851
▁모바일	-8852
▁쫓겨	-8853
▁전하	-8854
▁나섰	-8855
▁주주	-8856
층이	-8857
▁신부	-8858
▁조언	-8859
▁짐을	-8860
▁낱	-8861
▁돌아갈	-8862
ary	-8863
▁쓰여	-8864
일수록	-8865
▁大	-8866
▁준비해	-8867
▁사례를	-8868
단으로	-8869
▁부장	-8870
▁찾지	-8871
주면	-8872
▁출간	-8873
세기에	-8874
▁친환경	-8875
▁분산	-8876
▁맡겨	-8877
▁인식을	-8878
▁속에는	-8879
▁기능이	-8880
▁분할	-8881
시코	-8882
열을	-8883
.5%	-8884
▁웃는	-8885
▁대신에	-8886
▁극대	-8887
▁특유의	-8888
▁튀어나	-8889
▁후보의	-8890
▁하늘이	-8891
▁참석한	-8892
친구	-8893
오십	-8894
리나	-8895
▁떼어	-8896
▁차가운	-8897
킬로미터	-8898
▁감염	-8899
▁어르신	-8900
▁정상적인	-8901
▁요소가	-8902
▁완화	-8903
▁수준에	-8904
▁해줄	-8905
▁새정치	-8906
▁일련의	-8907
▁지극히	-8908
▁없죠	-8909
▁솟아	-8910
▁용어	-8911
▁지자체	-8912
▁불확	-8913
▁대책을	-8914
자산	-8915
▁작가가	-8916
▁스님	-8917
▁상관없이	-8918
▁York	-8919
커녕	-8920
▁많았	-8921
▁뮤지컬	-8922
▁진실을	-8923
▁한국은	-8924
과정에서	-8925
▁언급한	-8926
▁위험이	-8927
내려	-8928
▁저의	-8929
▁효과적으로	-8930
▁그러니까요	-8931
▁김동	-8932
▁잡혀	-8933
▁잦	-8934
▁지나친	-8935
▁깊게	-8936
▁근본적으로	-8937
돌아	-8938
▁설탕	-8939
▁지연	-8940
▁현실적으로	-8941
▁않았습니까	-8942
▁세계가	-8943
▁태평	-8944
▁고객이	-8945
▁타는	-8946
▁아이에게	-8947
▁적당한	-8948
▁놀랍	-8949
▁당부	-8950
▁비율이	-8951
▁울고	-8952
▁도시의	-8953
변을	-8954
▁주위	-8955
임스	-8956
▁합병	-8957
▁스테	-8958
해줄	-8959
그렇다면	-8960
▁특검	-8961
방울	-8962
ith	-8963
▁건의	-8964
그렇지	-8965
▁기반을	-8966
▁가족의	-8967
▁존재한다	-8968
주도	-8969
법과	-8970
▁속하는	-8971
▁얻기	-8972
▁바람을	-8973
▁찾았다	-8974
타를	-8975
시장에서	-8976
▁원활	-8977
▁이끄는	-8978
▁즐겁게	-8979
▁내릴	-8980
▁장례	-8981
작가	-8982
▁쓰기	-8983
▁보기에는	-8984
▁치유	-8985
▁폭행	-8986
(198	-8987
▁전형적인	-8988
▁예의	-8989
▁너의	-8990
▁안겨	-8991
▁변동	-8992
▁애플	-8993
▁몬	-8994
▁도요	-8995
나가는	-8996
국과	-8997
▁이해하기	-8998
ne	-8999
▁출신의	-9000
▁st	-9001
━━	-9002
▁나누고	-9003
▁사연	-9004
스피	-9005
사적	-9006
▁융합	-9007
▁낭만	-9008
▁적을	-9009
▁동참	-9010
▁응원	-9011
▁사회는	-9012
지인	-9013
▁평소에	-9014
아파	-9015
▁구제	-9016
임에	-9017
▁싶을	-9018
뿐이다	-9019
▁성을	-9020
우지	-9021
▁내쉬	-9022
▁선행	-9023
지라도	-9024
▁더듬	-9025
들만	-9026
▁산을	-9027
▁영화는	-9028
▁선도	-9029
▁점유	-9030
▁모니	-9031
▁지는	-9032
▁프랑스의	-9033
▁아가씨	-9034
▁먹어야	-9035
▁나가고	-9036
▁활용할	-9037
▁면역	-9038
분기	-9039
▁친절	-9040
ust	-9041
였기	-9042
▁유지하는	-9043
▁나뭇	-9044
력도	-9045
▁조화	-9046
▁눌러	-9047
▁가격을	-9048
▁마른	-9049
▁중국은	-9050
▁차원의	-9051
방식	-9052
운동의	-9053
답게	-9054
▁운영하고	-9055
투쟁	-9056
▁인적	-9057
▁콧	-9058
▁4)	-9059
▁이의	-9060
▁거슬	-9061
▁단백	-9062
▁자리가	-9063
▁피해자	-9064
▁KT	-9065
▁쓴다	-9066
후에	-9067
▁저한테	-9068
하하	-9069
▁비용이	-9070
취를	-9071
▁남부	-9072
▁아랫	-9073
▁무상	-9074
▁엮	-9075
▁산책	-9076
▁때문이	-9077
▁인내	-9078
▁조그만	-9079
롭지	-9080
▁편하게	-9081
▁힘들다	-9082
▁문화가	-9083
▁간신	-9084
법인	-9085
인천	-9086
▁베르	-9087
▁혈액	-9088
▁농담	-9089
▁쌓여	-9090
▁직전	-9091
▁경주	-9092
▁플레이	-9093
ly	-9094
▁튼튼	-9095
▁최순	-9096
▁돌아오는	-9097
으론	-9098
31	-9099
▁본인의	-9100
속이	-9101
▁행동에	-9102
▁분의	-9103
▁해명	-9104
▁소개해	-9105
ens	-9106
▁뵙	-9107
▁쪽을	-9108
▁딸을	-9109
▁방치	-9110
▁표현하는	-9111
정하게	-9112
▁느껴졌다	-9113
▁공주	-9114
▁행운	-9115
▁장면을	-9116
에스	-9117
▁놓인	-9118
▁쪽이	-9119
▁북미	-9120
시키지	-9121
▁않느냐	-9122
▁다음으로	-9123
▁것의	-9124
▁동굴	-9125
▁포스트	-9126
▁는	-9127
차의	-9128
▁이윽	-9129
▁친구는	-9130
▁원망	-9131
▁정성	-9132
▁흘러나	-9133
▁가까워	-9134
▁호주	-9135
▁개인이	-9136
▁회장이	-9137
▁심리적	-9138
▁이로써	-9139
▁삶과	-9140
▁지경	-9141
▁틀어	-9142
▁선택한	-9143
▁수준으로	-9144
▁간섭	-9145
▁내재	-9146
▁일하고	-9147
▁소문이	-9148
▁보내주	-9149
▁번째로	-9150
age	-9151
ib	-9152
▁입원	-9153
▁소홀	-9154
▁부품	-9155
루를	-9156
▁아유	-9157
▁허가	-9158
▁린	-9159
▁정부와	-9160
▁따르	-9161
▁인정하는	-9162
▁일입니다	-9163
▁양보	-9164
▁갱	-9165
모의	-9166
역의	-9167
어리	-9168
▁세월이	-9169
▁친척	-9170
▁밝히고	-9171
▁싣	-9172
보게	-9173
▁주십시오	-9174
우며	-9175
론과	-9176
▁대학을	-9177
ain	-9178
직원	-9179
한이	-9180
▁입에서	-9181
니어	-9182
졌지만	-9183
▁건조	-9184
▁슬픈	-9185
당하고	-9186
▁비대	-9187
▁문학의	-9188
▁생겼다	-9189
▁피아노	-9190
된다면	-9191
▁위치에	-9192
▁공간이	-9193
ang	-9194
▁멕	-9195
▁페르	-9196
▁갖춰	-9197
▁애국	-9198
▁발명	-9199
▁갔을	-9200
▁꽃을	-9201
▁진심으로	-9202
▁검찰이	-9203
▁문제도	-9204
로스	-9205
▁다물	-9206
▁간절	-9207
▁됩니까	-9208
▁증언	-9209
▁포항	-9210
▁그것이다	-9211
▁열정	-9212
매가	-9213
▁정치권	-9214
▁변해	-9215
▁않았기	-9216
▁조카	-9217
▁연구가	-9218
▁한강	-9219
▁기업을	-9220
▁정치가	-9221
▁발언을	-9222
▁하고요	-9223
든다	-9224
▁거에요	-9225
▁밤을	-9226
▁긁	-9227
▁문명	-9228
락이	-9229
▁끼고	-9230
▁발견할	-9231
▁하긴	-9232
▁목격	-9233
감으로	-9234
▁시작으로	-9235
라니	-9236
▁뒤에는	-9237
▁친구를	-9238
서에서	-9239
▁조례	-9240
▁소설의	-9241
▁보러	-9242
▁믿어	-9243
▁지원하는	-9244
▁때를	-9245
▁인기가	-9246
산화	-9247
▁틀림없	-9248
▁쳐다보았다	-9249
▁막기	-9250
사들은	-9251
▁지방의	-9252
100	-9253
버리	-9254
▁바쁜	-9255
▁세웠다	-9256
▁대법원	-9257
▁개인적	-9258
▁의지가	-9259
▁세금을	-9260
녀가	-9261
▁삼고	-9262
▁번쩍	-9263
▁없던	-9264
공무	-9265
바다	-9266
▁불꽃	-9267
▁딱딱	-9268
▁마감	-9269
▁클래	-9270
▁서울에	-9271
▁이윽고	-9272
영업	-9273
▁친구들	-9274
적으로도	-9275
▁1993	-9276
▁넘치는	-9277
허가	-9278
▁바르	-9279
교도	-9280
▁위안	-9281
▁구해	-9282
(?)	-9283
▁영화가	-9284
분한	-9285
▁달이	-9286
▁예쁘	-9287
편의	-9288
▁아니요	-9289
▁세탁	-9290
▁알렉산	-9291
▁확인해	-9292
졌어요	-9293
▁떠나는	-9294
▁있었으며	-9295
▁녹색	-9296
▁양이	-9297
▁온다	-9298
▁소리에	-9299
는지는	-9300
었는지	-9301
▁k	-9302
방향	-9303
▁드리고	-9304
▁이룰	-9305
▁십자가	-9306
ph	-9307
▁귀에	-9308
▁장학	-9309
▁사무실	-9310
▁포인트	-9311
▁사귀	-9312
▁이후로	-9313
▁출전	-9314
▁때문에예	-9315
▁짧게	-9316
▁주된	-9317
인터	-9318
▁속에서도	-9319
연맹	-9320
▁편리	-9321
잔을	-9322
▁주최	-9323
오가	-9324
▁부실	-9325
▁논의를	-9326
신과	-9327
▁지위를	-9328
▁나라에서	-9329
▁IMF	-9330
아도	-9331
▁데뷔	-9332
▁참을	-9333
박이	-9334
조사를	-9335
▁끝으로	-9336
22	-9337
▁부인은	-9338
▁것이므로	-9339
무성	-9340
▁꿈이	-9341
▁에어	-9342
스포츠	-9343
▁法	-9344
▁실용	-9345
▁것임을	-9346
▁상기	-9347
▁활동에	-9348
▁올리는	-9349
▁하반	-9350
▁소설을	-9351
ivers	-9352
▁경쟁력을	-9353
▁핏	-9354
▁조지	-9355
▁가졌다	-9356
▁느끼지	-9357
백을	-9358
들인	-9359
▁딜	-9360
▁일일이	-9361
▁일과	-9362
이고요	-9363
▁학원	-9364
▁많아서	-9365
▁일부를	-9366
▁양의	-9367
ex	-9368
사령	-9369
▁나눈	-9370
▁속도	-9371
가서	-9372
그는	-9373
▁좋겠	-9374
▁가져야	-9375
지역의	-9376
▁스타일	-9377
▁똥	-9378
개념	-9379
▁묻고	-9380
▁조금이라도	-9381
고맙습니다	-9382
▁애들이	-9383
담한	-9384
▁있소	-9385
버리는	-9386
▁지나가는	-9387
▁뭔지	-9388
▁수의	-9389
▁푼	-9390
▁봤는데	-9391
평을	-9392
▁규정에	-9393
▁48	-9394
▁되거든요	-9395
▁고소	-9396
▁추가로	-9397
해라	-9398
▁의학	-9399
▁말투	-9400
▁어음	-9401
CC	-9402
▁끝날	-9403
▁부유	-9404
▁트럭	-9405
▁떴	-9406
▁고찰	-9407
▁열두	-9408
▁첩	-9409
▁예배	-9410
▁의원의	-9411
▁주장은	-9412
▁역할이	-9413
▁경제가	-9414
하기만	-9415
▁아니지	-9416
▁떠났	-9417
▁잘못을	-9418
▁있단	-9419
치와	-9420
▁나왔습니다	-9421
▁잊고	-9422
▁파란	-9423
▁빈곤	-9424
검사	-9425
▁마시는	-9426
목으로	-9427
▁작전	-9428
▁그러던	-9429
이거나	-9430
▁3,	-9431
▁고요	-9432
▁심의	-9433
▁재현	-9434
▁가톨릭	-9435
▁견딜	-9436
▁내용에	-9437
▁조직을	-9438
슨은	-9439
▁넥	-9440
▁쥐고	-9441
▁대통령과	-9442
▁키우는	-9443
▁감독이	-9444
▁제공한다	-9445
트리	-9446
▁강경	-9447
천의	-9448
로써	-9449
▁반응이	-9450
▁신은	-9451
▁운행	-9452
▁셰	-9453
▁무엇일까	-9454
▁발걸	-9455
▁목이	-9456
▁집어넣	-9457
▁일어서	-9458
▁게임을	-9459
▁파트너	-9460
▁됨	-9461
▁프로세	-9462
▁이대로	-9463
▁돼지	-9464
▁마사	-9465
▁도쿄	-9466
▁이르렀다	-9467
▁윌리	-9468
▁양쪽	-9469
하듯이	-9470
▁연구는	-9471
으로서는	-9472
▁모르겠습니다	-9473
원칙	-9474
▁국민들의	-9475
교는	-9476
▁당의	-9477
놓을	-9478
▁사정이	-9479
▁구상	-9480
소비	-9481
▁사례가	-9482
▁로봇	-9483
▁중대한	-9484
▁성숙	-9485
▁펀	-9486
스틱	-9487
▁사막	-9488
▁이어졌다	-9489
생각	-9490
▁드러난	-9491
▁당신에게	-9492
▁걷는	-9493
▁높고	-9494
▁식탁	-9495
▁쳤다	-9496
▁인류의	-9497
▁현장에	-9498
▁상대의	-9499
▁만났다	-9500
올림픽	-9501
부지	-9502
▁바꾸는	-9503
정도	-9504
▁실수를	-9505
▁유력	-9506
기에서	-9507
들이었다	-9508
누가	-9509
파이	-9510
▁비중이	-9511
▁감지	-9512
▁무언가	-9513
▁대조	-9514
월의	-9515
▁금강	-9516
▁설명해	-9517
여섯	-9518
▁타협	-9519
▁신뢰를	-9520
▁변화는	-9521
▁되지만	-9522
▁여러분의	-9523
kr	-9524
▁소극	-9525
▁인간과	-9526
역이	-9527
▁유아	-9528
으려는	-9529
▁재난	-9530
▁현실의	-9531
mer	-9532
▁거꾸로	-9533
▁음주	-9534
즈가	-9535
▁목표는	-9536
대장	-9537
▁고스란히	-9538
▁가상	-9539
▁승인	-9540
▁188	-9541
▁소문	-9542
▁사이버	-9543
▁정리해	-9544
▁모양이다	-9545
▁피의	-9546
▁얘기할	-9547
앞으로	-9548
▁선택할	-9549
▁왔는데	-9550
구에서	-9551
▁운명을	-9552
▁미처	-9553
▁과일	-9554
▁수만	-9555
▁접어들	-9556
▁일어나고	-9557
▁7.	-9558
적일	-9559
밀히	-9560
▁유니	-9561
▁아내를	-9562
▁거느	-9563
▁누나	-9564
▁배신	-9565
▁전제로	-9566
▁히틀	-9567
▁선임	-9568
▁의식이	-9569
▁진행되고	-9570
▁나서는	-9571
▁얇	-9572
▁헤아	-9573
▁국내외	-9574
▁떠났다	-9575
▁촛불	-9576
이었다고	-9577
▁참여한	-9578
▁不	-9579
▁주민들이	-9580
▁가속	-9581
▁부근	-9582
갖고	-9583
▁되었던	-9584
▁그런가	-9585
▁만들어야	-9586
공의	-9587
▁1950	-9588
▁설마	-9589
경북	-9590
▁윈	-9591
▁우유	-9592
웨이	-9593
철도	-9594
즈의	-9595
▁매니	-9596
▁개념은	-9597
▁합리적인	-9598
▁30%	-9599
▁일본에서	-9600
▁기후	-9601
▁사라졌다	-9602
▁죄송합니다	-9603
▁오르는	-9604
ts	-9605
▁알아차	-9606
▁43	-9607
▁바울	-9608
ry	-9609
▁환경에	-9610
▁기업들이	-9611
▁세력이	-9612
▁안에는	-9613
▁한국인	-9614
▁여유가	-9615
▁실제로는	-9616
▁사랑과	-9617
▁변형	-9618
▁네덜	-9619
했었다	-9620
▁입장에	-9621
나지	-9622
▁읍	-9623
결이	-9624
▁질서	-9625
▁경쟁을	-9626
▁과정은	-9627
▁향했다	-9628
레를	-9629
▁수면	-9630
▁후에도	-9631
▁취약	-9632
▁드러났다	-9633
▁뭔가를	-9634
▁수준이	-9635
▁크기	-9636
▁없도록	-9637
▁고문	-9638
▁했더니	-9639
줬다	-9640
▁절실	-9641
▁사장님	-9642
▁명은	-9643
▁때문이라고	-9644
▁이론을	-9645
▁표현이	-9646
▁안전한	-9647
▁말미	-9648
▁여학생	-9649
▁애써	-9650
▁필리	-9651
▁불만을	-9652
파에	-9653
▁스케	-9654
졌는데	-9655
▁툭	-9656
▁받으며	-9657
▁해설	-9658
▁없었을	-9659
▁의회	-9660
▁사장이	-9661
고등학교	-9662
▁당시에는	-9663
▁남편을	-9664
EC	-9665
락한	-9666
버리고	-9667
▁실질적으로	-9668
익을	-9669
▁주저앉	-9670
이미	-9671
▁와이	-9672
그랬	-9673
▁여부	-9674
돼서	-9675
정부가	-9676
▁뜻으로	-9677
놓는	-9678
통일	-9679
ern	-9680
▁마련해	-9681
르가	-9682
▁되잖아요	-9683
▁이를테면	-9684
▁외로	-9685
▁생각보다	-9686
내어	-9687
▁있었어	-9688
먹을	-9689
▁특수한	-9690
▁가스	-9691
▁인해서	-9692
▁실로	-9693
▁연락을	-9694
선생님	-9695
▁악화	-9696
▁선물을	-9697
에겐	-9698
▁심지어는	-9699
▁바람직한	-9700
▁리얼	-9701
이었기	-9702
시간이	-9703
침에	-9704
문제를	-9705
▁중도	-9706
▁문헌	-9707
▁될까요	-9708
▁신하	-9709
▁어긋	-9710
▁그런지	-9711
들보다	-9712
▁했는지	-9713
▁신입	-9714
▁차에	-9715
▁단편	-9716
▁법원	-9717
▁영화의	-9718
▁치명	-9719
▁제안을	-9720
▁찾아온	-9721
▁허리를	-9722
▁모양이었다	-9723
음음	-9724
▁탔	-9725
▁살던	-9726
▁엇	-9727
▁놀랐	-9728
스럽다	-9729
▁같기도	-9730
▁수술을	-9731
됐던	-9732
45	-9733
▁처분	-9734
▁생각했던	-9735
▁소식이	-9736
▁문의	-9737
▁합쳐	-9738
▁학술	-9739
▁제공하고	-9740
▁준비하고	-9741
일반	-9742
▁이외의	-9743
▁간신히	-9744
▁정해진	-9745
리도	-9746
▁진학	-9747
▁살면서	-9748
만원을	-9749
드려	-9750
▁논술	-9751
▁기사가	-9752
▁여러분이	-9753
▁제조업	-9754
▁날카로운	-9755
▁깨어	-9756
▁되나	-9757
▁틀림없이	-9758
▁년간	-9759
▁46	-9760
▁구두	-9761
▁노사	-9762
▁몸으로	-9763
▁막대한	-9764
▁외쳤다	-9765
▁각자의	-9766
▁생활에	-9767
)』	-9768
▁모양이	-9769
▁일찍이	-9770
▁삼촌	-9771
▁그랬다	-9772
▁현상은	-9773
▁아랍	-9774
▁있긴	-9775
이러	-9776
▁반해	-9777
▁근거로	-9778
▁스튜	-9779
▁예고	-9780
▁관습	-9781
▁조명	-9782
럽고	-9783
▁사이를	-9784
이하	-9785
표가	-9786
▁청산	-9787
시지	-9788
▁경기가	-9789
문화의	-9790
▁자체는	-9791
▁아쉽	-9792
▁앞세	-9793
▁남쪽	-9794
▁해볼	-9795
▁증대	-9796
▁회사에서	-9797
pp	-9798
▁입술을	-9799
▁하나님이	-9800
▁입각	-9801
▁자제	-9802
~5	-9803
▁성적이	-9804
▁야권	-9805
▁사업은	-9806
▁측면이	-9807
▁승진	-9808
▁지도자	-9809
판매	-9810
▁영역을	-9811
▁시야	-9812
시청	-9813
피를	-9814
▁강원도	-9815
▁사도	-9816
아까	-9817
렸다고	-9818
▁아니죠	-9819
......"	-9820
▁착한	-9821
니깐	-9822
만큼이나	-9823
지다	-9824
▁대의	-9825
▁밑에서	-9826
▁날은	-9827
하였는데	-9828
▁균형을	-9829
▁같으면	-9830
왜냐하면	-9831
클럽	-9832
▁구사	-9833
▁실려	-9834
▁발견한	-9835
▁이번엔	-9836
타운	-9837
▁명시	-9838
▁끝나는	-9839
▁부르고	-9840
▁경쟁력	-9841
▁치러	-9842
▁인식이	-9843
▁필요하다는	-9844
▁조상	-9845
드와	-9846
▁경제의	-9847
▁상대를	-9848
▁무의	-9849
▁실존	-9850
▁눈동	-9851
▁(4)	-9852
▁무용	-9853
▁선을	-9854
ss	-9855
▁두어	-9856
▁광고를	-9857
수지	-9858
▁낭비	-9859
▁동서	-9860
▁실적	-9861
▁부분도	-9862
▁안팎	-9863
▁자체의	-9864
다섯	-9865
▁바쁘	-9866
▁느낀다	-9867
▁했으면	-9868
▁입맛	-9869
▁그도	-9870
▁시민들이	-9871
쓰고	-9872
놀이	-9873
▁유출	-9874
▁멸망	-9875
▁늦은	-9876
신다	-9877
▁올해는	-9878
▁수시로	-9879
손을	-9880
대구	-9881
▁수업을	-9882
▁훗	-9883
소통	-9884
▁버릇	-9885
▁자네가	-9886
▁직접적으로	-9887
결에	-9888
형에	-9889
혹한	-9890
▁응급	-9891
75	-9892
▁중요하게	-9893
구니	-9894
▁□	-9895
▁학생의	-9896
▁파악하고	-9897
▁강원	-9898
작품	-9899
▁분들도	-9900
▁들어가면	-9901
▁설명하는	-9902
▁쏘아	-9903
있게	-9904
▁국가를	-9905
▁환자의	-9906
면서요	-9907
▁기반으로	-9908
▁여기에는	-9909
거의	-9910
▁환자가	-9911
▁오를	-9912
▁권한을	-9913
다나	-9914
▁역사는	-9915
▁느껴지는	-9916
▁기꺼	-9917
배가	-9918
터리	-9919
▁간단하게	-9920
▁업종	-9921
▁캔	-9922
▁내며	-9923
▁징역	-9924
▁멈춰	-9925
실험	-9926
▁모인	-9927
수사	-9928
▁적의	-9929
▁도무지	-9930
▁갤	-9931
케인	-9932
▁몰두	-9933
▁스무	-9934
▁천주	-9935
▁세상은	-9936
▁부추	-9937
▁공원	-9938
▁발로	-9939
▁지낸	-9940
▁과학적	-9941
▁가죽	-9942
이라니	-9943
괜찮	-9944
ach	-9945
▁조건이	-9946
▁지역사회	-9947
▁55	-9948
▁있는지를	-9949
▁근원	-9950
▁무소	-9951
▁가동	-9952
▁하늘의	-9953
으니까요	-9954
▁나설	-9955
호와	-9956
▁정규	-9957
▁헌신	-9958
-5	-9959
ical	-9960
▁울려	-9961
▁팔아	-9962
▁모의	-9963
▁빼고	-9964
▁활동이	-9965
▁책에	-9966
▁달랐다	-9967
시간에	-9968
▁이었다	-9969
▁군사를	-9970
달아	-9971
▁서울에서	-9972
▁워싱턴	-9973
▁사흘	-9974
▁시작해	-9975
▁궁금한	-9976
눈에	-9977
▁비단	-9978
▁사안	-9979
▁생각으로	-9980
요즘	-9981
태가	-9982
▁전술	-9983
▁별도로	-9984
▁싸움을	-9985
시장이	-9986
▁피어	-9987
▁국회에서	-9988
▁여기서는	-9989
▁혼합	-9990
호텔	-9991
시간을	-9992
▁강조하고	-9993
터의	-9994
▁언어를	-9995
▁움직일	-9996
▁하여튼	-9997
▁보람	-9998
▁걸어가	-9999
▁사이트	-10000
▁가능하게	-10001
진보	-10002
▁반박	-10003
▁오픈	-10004
▁이하의	-10005
▁구체적	-10006
▁기원전	-10007
해는	-10008
▁코너	-10009
▁필자는	-10010
ark	-10011
▁만드	-10012
▁대꾸	-10013
▁65	-10014
안녕	-10015
층을	-10016
▁문제점을	-10017
▁시작되었다	-10018
▁컵	-10019
▁일자리를	-10020
연대	-10021
▁할머니가	-10022
적한	-10023
▁왕은	-10024
▁유지할	-10025
가게	-10026
했지	-10027
회사의	-10028
▁하거든요	-10029
▁지냈	-10030
▁포르	-10031
▁때만	-10032
▁없이는	-10033
▁부분에서	-10034
▁모습에	-10035
▁미워	-10036
▁확충	-10037
▁2016	-10038
인데도	-10039
▁어려움이	-10040
▁애니	-10041
▁44	-10042
▁급증	-10043
▁100%	-10044
▁뚫고	-10045
사실은	-10046
▁이야기하는	-10047
▁방사	-10048
스에서	-10049
위원회의	-10050
▁아버지와	-10051
▁아니기	-10052
사진	-10053
▁가르치는	-10054
▁돕는	-10055
부인	-10056
▁씨앗	-10057
시장은	-10058
했으면	-10059
▁1992	-10060
▁때에도	-10061
▁건국	-10062
▁비정규직	-10063
혁신	-10064
▁강도	-10065
▁주셨	-10066
▁은근	-10067
▁뒤늦게	-10068
▁공존	-10069
▁제재	-10070
▁매장	-10071
▁▷	-10072
▁상을	-10073
뭡니까	-10074
▁꼼짝	-10075
자네	-10076
화학	-10077
▁이모	-10078
▁오토	-10079
▁둘은	-10080
▁진료	-10081
▁추진하고	-10082
▁마리아	-10083
▁한가운데	-10084
▁내뱉	-10085
▁시나리오	-10086
▁무장	-10087
▁부사	-10088
▁Th	-10089
▁세일	-10090
키로	-10091
▁한일	-10092
▁해라	-10093
▁필요도	-10094
공화	-10095
▁활짝	-10096
▁못지않	-10097
▁중시	-10098
▁속도를	-10099
▁영구	-10100
▁주장하고	-10101
▁곳곳에	-10102
▁뜨고	-10103
▁유일하게	-10104
▁변화의	-10105
▁스웨	-10106
▁민주화	-10107
▁직원이	-10108
▁복원	-10109
▁위축	-10110
▁주제를	-10111
▁조달	-10112
▁가면서	-10113
ast	-10114
▁현재는	-10115
▁어떨까	-10116
▁원인은	-10117
건으로	-10118
▁유입	-10119
나이	-10120
▁장치	-10121
▁보유하고	-10122
▁감독의	-10123
▁중국에서	-10124
▁주무	-10125
▁말대로	-10126
▁내외	-10127
▁책에서	-10128
▁퀴	-10129
시장을	-10130
베이터	-10131
▁기둥	-10132
▁알았어	-10133
으리라	-10134
▁확인하고	-10135
▁발전에	-10136
▁부정적	-10137
▁개막	-10138
▁때였다	-10139
▁아니며	-10140
▁행위는	-10141
▁고속도로	-10142
룩한	-10143
합을	-10144
▁밤새	-10145
맞은	-10146
▁다수의	-10147
코올	-10148
▁연구에	-10149
▁여성은	-10150
▁기간이	-10151
▁여당	-10152
▁세계는	-10153
됐습니다	-10154
▁뺨	-10155
보라	-10156
▁빛나는	-10157
tern	-10158
▁나무를	-10159
▁것이지만	-10160
가스	-10161
▁견해를	-10162
▁끌어올	-10163
▁메모	-10164
▁생긴다	-10165
▁복수	-10166
▁학생부	-10167
▁전략적	-10168
▁싼	-10169
우기	-10170
▁겪는	-10171
체와	-10172
▁미사일	-10173
▁의외로	-10174
▁맺고	-10175
▁지능	-10176
지기도	-10177
▁성공적으로	-10178
영상	-10179
성적	-10180
▁깨닫게	-10181
▁얻었다	-10182
▁호르몬	-10183
▁행위가	-10184
▁그것의	-10185
▁헨	-10186
▁영남	-10187
▁패러다	-10188
▁서방	-10189
하에서	-10190
▁조금은	-10191
▁목욕	-10192
ons	-10193
약의	-10194
▁살았	-10195
▁걷어	-10196
▁전쟁의	-10197
카오	-10198
▁합류	-10199
관계에	-10200
▁성공할	-10201
▁요소를	-10202
▁시범	-10203
위원회는	-10204
▁다양하게	-10205
▁,	-10206
▁산출	-10207
동으로	-10208
▁공연을	-10209
▁멕시코	-10210
▁재활	-10211
▁이른다	-10212
▁달고	-10213
▁구성하는	-10214
▁넉넉	-10215
록을	-10216
자면	-10217
▁베풀	-10218
책이	-10219
▁사업의	-10220
▁거짓말을	-10221
해하는	-10222
▁자세로	-10223
▁종료	-10224
교수	-10225
▁교육이	-10226
디가	-10227
▁돌아올	-10228
▁설명하고	-10229
▁끔찍한	-10230
님과	-10231
오빠	-10232
▁도와주	-10233
▁때보다	-10234
▁되었다는	-10235
▁노하	-10236
협의회	-10237
▁학생들에게	-10238
버릴	-10239
한의	-10240
▁좀처럼	-10241
▁모릅니다	-10242
▁루이	-10243
▁명심	-10244
사기	-10245
▁뜻하는	-10246
▁시민들의	-10247
▁가족을	-10248
▁나타내	-10249
▁묶어	-10250
▁이길	-10251
▁구성원	-10252
▁성적을	-10253
▁바다를	-10254
▁전체적인	-10255
언어	-10256
▁아줌마	-10257
▁가로막	-10258
▁활약	-10259
용은	-10260
▁고작	-10261
▁저희는	-10262
▁존재의	-10263
최근	-10264
▁강연	-10265
세이	-10266
▁주민들의	-10267
.0	-10268
▁있네	-10269
▁사람이었다	-10270
▁뿜	-10271
▁일들을	-10272
▁같다는	-10273
ian	-10274
35	-10275
산과	-10276
▁사이에는	-10277
대출	-10278
▁행동은	-10279
수요	-10280
명하게	-10281
▁취한	-10282
역에서	-10283
건은	-10284
▁구할	-10285
▁선박	-10286
▁길러	-10287
▁키가	-10288
▁롤	-10289
▁죽여	-10290
▁소리는	-10291
▁관할	-10292
▁벗겨	-10293
보겠습니다	-10294
빈은	-10295
▁군대를	-10296
드에	-10297
▁중립	-10298
색으로	-10299
▁협박	-10300
성에서	-10301
▁1,000	-10302
▁특이한	-10303
//	-10304
▁중세	-10305
▁고교	-10306
▁결승	-10307
▁살아온	-10308
적이라고	-10309
▁들려왔다	-10310
▁펄	-10311
향이	-10312
관념	-10313
작업	-10314
곡을	-10315
▁기꺼이	-10316
▁트레이	-10317
▁세계적으로	-10318
▁귀여	-10319
▁사모	-10320
▁떨어질	-10321
36	-10322
▁옹호	-10323
▁늘고	-10324
▁자체에	-10325
미래	-10326
▁사용되는	-10327
▁싱가	-10328
▁나뉘	-10329
▁연봉	-10330
▁오늘날의	-10331
▁부른	-10332
ear	-10333
▁전북	-10334
▁믿음	-10335
▁없었지만	-10336
시즌	-10337
▁탁월한	-10338
였으며	-10339
정당	-10340
▁성경	-10341
▁추상	-10342
▁같다고	-10343
▁도착한	-10344
버트	-10345
다시피	-10346
▁글이	-10347
▁방법에	-10348
▁어렵지	-10349
▁개봉	-10350
▁어이	-10351
▁해답	-10352
▁아들의	-10353
랗게	-10354
▁하나만	-10355
마이	-10356
▁다투	-10357
만여	-10358
(20	-10359
ey	-10360
▁텅	-10361
▁캠프	-10362
▁진행되는	-10363
▁그러기	-10364
▁받으면	-10365
기념	-10366
▁깨달았다	-10367
▁않았어요	-10368
76	-10369
▁1989	-10370
▁밤이	-10371
▁그랬더니	-10372
▁자신감을	-10373
▁사태가	-10374
▁우리들의	-10375
▁보좌	-10376
▁바꾼	-10377
▁해봤	-10378
▁살게	-10379
▁김진	-10380
▁우스	-10381
▁백화점	-10382
▁시키는	-10383
▁다리가	-10384
▁표출	-10385
▁누구에게	-10386
▁신발	-10387
▁장관이	-10388
하시면	-10389
▁들어선	-10390
▁보기에	-10391
▁시점에서	-10392
▁삼성전	-10393
▁읽은	-10394
▁가지의	-10395
▁인하	-10396
함으로	-10397
▁미치지	-10398
▁전도	-10399
오르는	-10400
ue	-10401
▁흥미를	-10402
▁수록	-10403
▁나서서	-10404
▁다르지	-10405
구멍	-10406
▁기업에	-10407
우면	-10408
▁매주	-10409
▁이쪽	-10410
봅시다	-10411
▁지역은	-10412
신에	-10413
▁근처에	-10414
많이	-10415
▁부부가	-10416
▁경선	-10417
▁되살	-10418
▁용이	-10419
▁왔어요	-10420
▁있어서도	-10421
▁이득	-10422
▁뭡니까	-10423
▁조종	-10424
▁하나인	-10425
감도	-10426
▁결과로	-10427
▁하위	-10428
미나	-10429
했죠	-10430
▁했었	-10431
일세	-10432
▁평택	-10433
▁금리	-10434
▁꾸며	-10435
▁휴가	-10436
..."	-10437
▁속한	-10438
▁맞추어	-10439
제도를	-10440
▁전화가	-10441
한테는	-10442
▁저하	-10443
▁분배	-10444
▁일상생활	-10445
으로만	-10446
▁·	-10447
▁전원	-10448
▁피해가	-10449
창조	-10450
▁협동	-10451
▁떠오르는	-10452
▁귀가	-10453
▁훗날	-10454
▁생각하며	-10455
▁화장품	-10456
(8	-10457
▁성질	-10458
▁속삭	-10459
▁간직	-10460
▁비핵	-10461
그리	-10462
▁y	-10463
▁비행기	-10464
목적	-10465
능한	-10466
금리	-10467
▁다음에는	-10468
진에	-10469
▁가지게	-10470
▁인디	-10471
▁벌이고	-10472
▁갔다가	-10473
▁나가야	-10474
▁어쩐	-10475
▁운동이	-10476
▁정당한	-10477
▁손님이	-10478
산에서	-10479
▁하잖아요	-10480
▁캘	-10481
포인트	-10482
▁주목을	-10483
▁수확	-10484
▁태도가	-10485
바닥에	-10486
▁논의가	-10487
▁전문가들은	-10488
계획을	-10489
▁이루어지고	-10490
한을	-10491
▁현실적인	-10492
lic	-10493
러가	-10494
세기의	-10495
됐고	-10496
▁스카	-10497
하잖아요	-10498
년은	-10499
▁얘기해	-10500
▁부드럽게	-10501
▁모은	-10502
▁입지	-10503
▁어째서	-10504
▁유래	-10505
▁비해서	-10506
▁실력	-10507
난히	-10508
이라고도	-10509
▁단정	-10510
사에게	-10511
▁Pro	-10512
▁있지요	-10513
-0	-10514
▁시험을	-10515
계와	-10516
들처럼	-10517
태는	-10518
파크	-10519
터에	-10520
▁마약	-10521
▁여가	-10522
▁스티	-10523
▁거대	-10524
▁아이템	-10525
▁비웃	-10526
▁감고	-10527
▁어휘	-10528
▁쓸데	-10529
▁애매	-10530
▁정식	-10531
▁반갑습니다	-10532
▁부자가	-10533
▁달콤	-10534
▁부친	-10535
리에서	-10536
▁김기	-10537
상공	-10538
알겠습니다	-10539
증은	-10540
브라	-10541
삼십	-10542
▁병행	-10543
중인	-10544
▁윌리엄	-10545
▁놓아	-10546
▁백제	-10547
▁120	-10548
▁안타까운	-10549
▁근까	-10550
▁소음	-10551
▁내버려	-10552
▁뜻밖	-10553
▁공략	-10554
적이지	-10555
▁하라고	-10556
▁포함되어	-10557
▁한국을	-10558
▁학생들을	-10559
IA	-10560
▁어울리는	-10561
과에	-10562
과정을	-10563
▁이루어질	-10564
▁선진국	-10565
세와	-10566
▁수고	-10567
▁언론의	-10568
▁겪은	-10569
복이	-10570
하되	-10571
)"	-10572
일간	-10573
▁교과서	-10574
▁역사에	-10575
인인	-10576
▁공동으로	-10577
상담	-10578
▁음성	-10579
▁선수들이	-10580
투표	-10581
▁있으면서	-10582
매일	-10583
▁사항을	-10584
▁합의를	-10585
▁월요일	-10586
▁뿌리를	-10587
하는가	-10588
▁의정부	-10589
▁총체	-10590
▁위주로	-10591
▁현장을	-10592
▁정원	-10593
▁생각하기	-10594
▁방에서	-10595
▁보고서	-10596
▁사찰	-10597
▁손해를	-10598
▁진주	-10599
▁지켜보	-10600
▁심어	-10601
새가	-10602
▁명문	-10603
줄이	-10604
▁때와	-10605
▁테스트	-10606
▁일할	-10607
▁위헌	-10608
▁뭐예요	-10609
▁녀석이	-10610
시장에	-10611
▁여성들이	-10612
▁허위	-10613
움은	-10614
▁근거가	-10615
▁소나무	-10616
회와	-10617
▁구성되어	-10618
▁PC	-10619
▁사용한다	-10620
▁납부	-10621
▁해안	-10622
고객	-10623
▁더욱더	-10624
▁하려는	-10625
▁사정을	-10626
▁이리저리	-10627
▁믿는다	-10628
바라	-10629
▁지칭	-10630
자라고	-10631
토를	-10632
▁부천	-10633
▁비참	-10634
▁표현할	-10635
▁신문을	-10636
길래	-10637
산업의	-10638
슈타	-10639
▁시청자	-10640
▁엄격한	-10641
▁힘들게	-10642
▁오스트	-10643
▁땅이	-10644
▁분명하다	-10645
▁일으킨	-10646
▁지으며	-10647
▁위원장이	-10648
▁정교	-10649
▁살펴볼	-10650
▁제시하고	-10651
▁밀접한	-10652
▁편견	-10653
▁산다	-10654
▁찾아야	-10655
장인	-10656
▁이원	-10657
▁어떻게든	-10658
▁진지하게	-10659
메이션	-10660
▁뚜렷한	-10661
▁해마다	-10662
행위를	-10663
▁관점	-10664
총을	-10665
▁이어질	-10666
▁제품의	-10667
▁지켜야	-10668
▁진정으로	-10669
개인	-10670
▁쏟아져	-10671
▁순서	-10672
준비	-10673
▁이유도	-10674
▁체제를	-10675
▁49	-10676
편을	-10677
▁갇혀	-10678
평화	-10679
창을	-10680
▁전당	-10681
▁제도가	-10682
풍을	-10683
▁기록한	-10684
▁할까요	-10685
▁양식	-10686
▁테크	-10687
▁아이고	-10688
▁하도	-10689
줄을	-10690
▁감탄	-10691
▁장비	-10692
불이	-10693
▁핸드폰	-10694
교육의	-10695
들에서	-10696
본을	-10697
약간	-10698
▁얼음	-10699
▁교섭	-10700
▁됐고	-10701
▁많다는	-10702
▁정책에	-10703
▁막내	-10704
▁아내와	-10705
▁참여를	-10706
~6	-10707
▁상세	-10708
▁겸손	-10709
이어서	-10710
▁상의	-10711
문학의	-10712
!!	-10713
가장	-10714
▁페이	-10715
▁굿	-10716
저희	-10717
▁방식은	-10718
▁맨날	-10719
▁침입	-10720
▁유독	-10721
▁씁	-10722
▁정책이	-10723
ies	-10724
▁호응	-10725
▁하시고	-10726
▁양자	-10727
▁돌아다니	-10728
리포	-10729
▁이별	-10730
▁고객을	-10731
▁기쁨을	-10732
▁끝나면	-10733
매는	-10734
빛을	-10735
▁연수	-10736
▁의자에	-10737
여자	-10738
▁인자	-10739
▁해주고	-10740
타의	-10741
▁찌푸	-10742
▁살아갈	-10743
사리	-10744
▁고독	-10745
진과	-10746
▁정하는	-10747
▁준비하는	-10748
▁넣은	-10749
▁깨끗한	-10750
▁정도면	-10751
▁일으키는	-10752
▁그놈	-10753
▁명품	-10754
▁해야지	-10755
te	-10756
림은	-10757
▁응용	-10758
▁옳은	-10759
▁이외에	-10760
갑을	-10761
▁화재	-10762
▁벗어날	-10763
▁세력을	-10764
왔고	-10765
▁과학기술	-10766
▁걸릴	-10767
▁실시간	-10768
▁찾아서	-10769
움에	-10770
▁오락	-10771
▁귀한	-10772
▁수단으로	-10773
췄다	-10774
▁주어야	-10775
공급	-10776
▁특징은	-10777
▁부풀	-10778
▁했는데요	-10779
▁말이오	-10780
▁있겠죠	-10781
▁브로	-10782
▁역량을	-10783
▁모르겠어요	-10784
인당	-10785
.3%	-10786
▁소형	-10787
▁있다라고	-10788
미안	-10789
▁넘쳐	-10790
▁박사는	-10791
▁할머니는	-10792
▁뜻한다	-10793
▁강의를	-10794
▁상장	-10795
▁말씀드린	-10796
▁언제까지	-10797
48	-10798
란의	-10799
면적	-10800
▁승객	-10801
▁요구했다	-10802
▁근거를	-10803
▁손수	-10804
▁생일	-10805
▁떨어지고	-10806
▁전사	-10807
되던	-10808
▁듣기	-10809
누구	-10810
▁한국이	-10811
▁배고	-10812
▁편이다	-10813
포르	-10814
▁설문	-10815
황이	-10816
안보	-10817
▁지점	-10818
▁모호	-10819
▁불안한	-10820
ord	-10821
▁태어났	-10822
▁큰일	-10823
▁스트레스를	-10824
규칙	-10825
▁양육	-10826
▁짚어	-10827
▁되었다고	-10828
▁캄	-10829
▁생활의	-10830
▁금메	-10831
▁정보의	-10832
▁배웠	-10833
▁들으면	-10834
iss	-10835
▁미치	-10836
▁시위	-10837
임은	-10838
▁접속	-10839
해에	-10840
▁일이라고	-10841
등이	-10842
▁겨냥	-10843
▁위탁	-10844
▁마음속에	-10845
업무	-10846
동적인	-10847
증에	-10848
의의	-10849
▁승용	-10850
▁소규모	-10851
▁있었으나	-10852
▁이상하게	-10853
▁탱	-10854
마저도	-10855
셨습니까	-10856
▁불필	-10857
▁시작을	-10858
▁잭	-10859
▁게시	-10860
▁분을	-10861
담이	-10862
▁뺏	-10863
iversity	-10864
▁제자	-10865
베이	-10866
▁권력의	-10867
▁아카	-10868
ost	-10869
▁없었기	-10870
▁중국과	-10871
여름	-10872
▁김현	-10873
▁일러	-10874
▁깔끔	-10875
▁관계로	-10876
.1%	-10877
▁가계	-10878
▁그만두	-10879
▁불편한	-10880
▁이태	-10881
▁싶었던	-10882
▁인식하고	-10883
▁꽃이	-10884
▁대해선	-10885
▁하러	-10886
▁걸리는	-10887
▁집중적으로	-10888
구리	-10889
▁깡	-10890
기게	-10891
▁가리키	-10892
▁먹기	-10893
▁쓸쓸	-10894
▁말까지	-10895
▁티비에스	-10896
▁놀랄	-10897
▁저희들이	-10898
▁돌고	-10899
▁적발	-10900
▁명확하게	-10901
▁말없이	-10902
만으로는	-10903
▁잃어버린	-10904
▁목표가	-10905
▁일의	-10906
▁문제다	-10907
와도	-10908
▁우월	-10909
▁화장실	-10910
▁파워	-10911
집단	-10912
▁부합	-10913
▁장성	-10914
▁하려	-10915
▁고립	-10916
▁커지고	-10917
▁수습	-10918
▁괜찮아	-10919
▁단어를	-10920
▁들어요	-10921
▁몰라요	-10922
▁검을	-10923
행에	-10924
임에도	-10925
되지만	-10926
▁콘서	-10927
▁규정을	-10928
▁동안의	-10929
▁시선이	-10930
▁비중을	-10931
대문	-10932
코는	-10933
▁둘러싸고	-10934
▁녹음	-10935
▁교수의	-10936
▁도출	-10937
▁유산	-10938
▁의장	-10939
▁어렵고	-10940
):	-10941
▁一	-10942
▁서사	-10943
▁마르크스	-10944
▁언젠가는	-10945
▁인삼	-10946
▁차츰	-10947
▁일기	-10948
▁자문	-10949
▁그로부터	-10950
▁신성	-10951
▁어마	-10952
▁단속	-10953
▁갖다가	-10954
▁공산주의	-10955
▁그제야	-10956
▁안양	-10957
▁면이	-10958
▁가정을	-10959
▁뜯어	-10960
▁부지런	-10961
▁움직임을	-10962
선언	-10963
▁일어나지	-10964
▁수없이	-10965
▁본부	-10966
▁놀랐다	-10967
▁진영	-10968
▁대학에서	-10969
다녔	-10970
▁입찰	-10971
시절	-10972
챔피	-10973
▁자식이	-10974
▁것으로서	-10975
▁사람들에	-10976
▁스스로의	-10977
▁시민의	-10978
▁좋은데	-10979
사나	-10980
애를	-10981
▁실험을	-10982
▁톤	-10983
▁계몽	-10984
▁47	-10985
▁되고요	-10986
▁상가	-10987
▁것보다는	-10988
▁합법	-10989
▁태도는	-10990
▁껴	-10991
팔십	-10992
▁생활이	-10993
▁글은	-10994
▁생기고	-10995
▁이곳은	-10996
▁수행하는	-10997
▁렌	-10998
▁올릴	-10999
▁시정	-11000
▁얼어	-11001
▁점수를	-11002
▁중심이	-11003
▁스탠	-11004
▁자란	-11005
는다는	-11006
▁필요성을	-11007
▁말씀드리	-11008
▁묻어	-11009
▁죽이고	-11010
▁착수	-11011
▁그때부터	-11012
타이	-11013
▁기록이	-11014
군다나	-11015
▁저지른	-11016
▁숨이	-11017
▁일환	-11018
▁노래가	-11019
▁시간도	-11020
청구	-11021
▁전락	-11022
▁가득한	-11023
▁후손	-11024
IC	-11025
었으면	-11026
▁국민을	-11027
였어	-11028
▁국한	-11029
들이나	-11030
▁사용하지	-11031
▁연구의	-11032
▁있는데네	-11033
▁씨도	-11034
▁생각된다	-11035
▁펠	-11036
▁발효	-11037
▁좋았다	-11038
생에	-11039
▁작고	-11040
드리고	-11041
▁허리케인	-11042
▁두뇌	-11043
▁수요가	-11044
▁측근	-11045
▁알코올	-11046
▁유익	-11047
▁추석	-11048
▁김포	-11049
▁납득	-11050
▁날을	-11051
▁사마	-11052
▁포기하고	-11053
▁언어의	-11054
▁질투	-11055
공은	-11056
▁테마	-11057
▁물어보	-11058
▁것이지요	-11059
▁싶다고	-11060
▁않았다고	-11061
▁복용	-11062
▁위장	-11063
▁목소리는	-11064
▁있겠다	-11065
▁장면이	-11066
▁대표팀	-11067
98	-11068
▁신을	-11069
할머니	-11070
▁서명	-11071
▁선생님의	-11072
▁일차	-11073
▁씨와	-11074
ight	-11075
드레	-11076
▁화물	-11077
▁적혀	-11078
냐는	-11079
▁KBS	-11080
▁하늘에	-11081
처음	-11082
▁왔을	-11083
▁통찰	-11084
보건	-11085
▁반찬	-11086
▁國	-11087
▁똑바로	-11088
▁알아요	-11089
▁싫은	-11090
▁어떻습니까	-11091
NS	-11092
▁만하다	-11093
역시	-11094
린의	-11095
법상	-11096
▁서울의	-11097
때로	-11098
▁미세먼	-11099
▁줄은	-11100
▁청약	-11101
▁지워	-11102
▁이해하지	-11103
▁아들은	-11104
▁휴대전	-11105
▁유연	-11106
▁원시	-11107
▁주변을	-11108
▁성공적인	-11109
▁실종	-11110
▁돌아서	-11111
▁요인이	-11112
▁한숨	-11113
▁예민	-11114
▁뉘	-11115
▁대만	-11116
▁사랑하고	-11117
▁배경으로	-11118
▁이용해서	-11119
▁절감	-11120
바지	-11121
▁정립	-11122
▁정도다	-11123
도덕	-11124
▁베이징	-11125
▁보아도	-11126
▁행복하게	-11127
납니다	-11128
▁1987	-11129
▁유태	-11130
오의	-11131
▁달걀	-11132
▁쓰게	-11133
▁고기를	-11134
축을	-11135
▁물류	-11136
▁위원장은	-11137
대사	-11138
옷을	-11139
▁아닌지	-11140
위험	-11141
에다가	-11142
▁물은	-11143
▁1991	-11144
재산	-11145
▁경쟁이	-11146
월드	-11147
▁비하면	-11148
▁직원들이	-11149
▁○○	-11150
▁금속	-11151
어쨌든	-11152
어느	-11153
▁충성	-11154
▁질서를	-11155
▁그다음	-11156
드릴게요	-11157
▁동시	-11158
인지도	-11159
▁없잖아요	-11160
쯤은	-11161
▁검사를	-11162
▁󰡔	-11163
pr	-11164
데이	-11165
▁증상이	-11166
▁사회적으로	-11167
▁수렴	-11168
▁장점	-11169
▁해서는	-11170
▁의아	-11171
▁같고요	-11172
▁이런저런	-11173
▁씩	-11174
들끼리	-11175
어서는	-11176
▁이익이	-11177
▁전세계	-11178
▁타인의	-11179
▁사립	-11180
▁시기를	-11181
▁해준	-11182
단위	-11183
병의	-11184
▁도심	-11185
▁상담을	-11186
▁현존	-11187
▁의원님	-11188
항을	-11189
▁정치에	-11190
▁몸과	-11191
아니면	-11192
▁내부의	-11193
순환	-11194
▁무죄	-11195
▁개혁을	-11196
▁끓여	-11197
▁소망	-11198
장기	-11199
▁싫어하는	-11200
▁해결하기	-11201
▁해를	-11202
▁공적	-11203
▁사내가	-11204
학회	-11205
▁낳은	-11206
▁청취자	-11207
▁요구하고	-11208
tp	-11209
▁주목할	-11210
.2%	-11211
▁가족과	-11212
계속	-11213
▁중얼거렸다	-11214
지식	-11215
▁지명	-11216
▁열렸다	-11217
33	-11218
▁포함해	-11219
구청	-11220
▁급여	-11221
▁생기면	-11222
▁준비한	-11223
▁벗어나지	-11224
혹시	-11225
▁오일	-11226
▁줄여	-11227
▁응시	-11228
▁경제적인	-11229
▁상대방이	-11230
어어	-11231
하네요	-11232
▁과잉	-11233
▁컨설팅	-11234
로만	-11235
▁북쪽	-11236
▁숫자	-11237
▁욕구를	-11238
▁이루어진다	-11239
되도록	-11240
철이	-11241
▁첫번째	-11242
락의	-11243
▁무작	-11244
▁위성	-11245
...,	-11246
▁취해	-11247
▁국정원	-11248
▁금요일	-11249
▁농사	-11250
▁말하며	-11251
▁일방적으로	-11252
▁형식으로	-11253
▁관계없이	-11254
▁우리나라는	-11255
▁간혹	-11256
쇼핑	-11257
ect	-11258
▁살았다	-11259
▁웃음이	-11260
▁문서	-11261
인사	-11262
▁엉뚱한	-11263
▁협상을	-11264
추진	-11265
▁내용으로	-11266
.4%	-11267
▁공부하는	-11268
▁쇄	-11269
▁외에는	-11270
▁증여	-11271
▁조화를	-11272
▁인정하지	-11273
보증	-11274
운다	-11275
▁얘긴	-11276
천을	-11277
▁이놈	-11278
▁1988	-11279
68	-11280
▁곧장	-11281
▁작업이	-11282
▁소매	-11283
au	-11284
▁브라질	-11285
벌이	-11286
▁관리하는	-11287
▁뜨거	-11288
애가	-11289
▁교도	-11290
────	-11291
▁섰다	-11292
▁인간에게	-11293
▁하려면	-11294
▁검찰은	-11295
▁하나님을	-11296
▁읽기	-11297
▁욕망을	-11298
▁여태	-11299
어와	-11300
▁대동	-11301
▁제시하는	-11302
아들	-11303
▁파악할	-11304
▁출석	-11305
ohn	-11306
▁사후	-11307
▁실재	-11308
▁음료	-11309
▁두었다	-11310
신으로	-11311
▁경제를	-11312
어지	-11313
▁죽었다	-11314
벽을	-11315
▁앞둔	-11316
화되는	-11317
▁갔는데	-11318
▁의무를	-11319
의로	-11320
▁고려해	-11321
▁실력을	-11322
▁친구들과	-11323
▁힘은	-11324
▁후보자	-11325
▁의논	-11326
▁금세	-11327
▁받아들이는	-11328
▁이번에도	-11329
리우	-11330
▁결국에는	-11331
▁않았는데	-11332
그쵸	-11333
▁기자가	-11334
독립	-11335
▁걱정을	-11336
▁의혹을	-11337
질환	-11338
▁교육에	-11339
▁평화를	-11340
▁서해	-11341
▁혼인	-11342
▁회피	-11343
▁머물러	-11344
▁들어와서	-11345
▁우물	-11346
던지	-11347
▁자유의	-11348
▁참여할	-11349
하였으나	-11350
셨을	-11351
son	-11352
▁절대적인	-11353
오면	-11354
▁다닌	-11355
▁중요하다고	-11356
▁죽음에	-11357
▁사람이라면	-11358
졌기	-11359
사회에서	-11360
▁이루어져	-11361
▁걸리	-11362
▁커피를	-11363
▁국가에	-11364
▁여성을	-11365
종교	-11366
▁마리가	-11367
▁맞을	-11368
▁폭넓	-11369
▁마찬가지였다	-11370
년째	-11371
정상	-11372
▁아니라면	-11373
▁만나면	-11374
▁구간	-11375
▁한잔	-11376
▁가능할	-11377
▁거기에서	-11378
해양	-11379
ind	-11380
▁등장한	-11381
계로	-11382
처분	-11383
▁달리는	-11384
래곤	-11385
기며	-11386
▁이방	-11387
▁중개	-11388
시피	-11389
▁역량	-11390
단체의	-11391
▁떨어지	-11392
▁했었는데	-11393
▁진로	-11394
▁백작	-11395
▁살았던	-11396
랑은	-11397
▁공업	-11398
하구	-11399
▁과도한	-11400
기야	-11401
▁괴로	-11402
▁이내에	-11403
▁알리	-11404
▁찍은	-11405
▁쓰면	-11406
▁눈치를	-11407
▁트렌	-11408
▁좋아서	-11409
▁99	-11410
ology	-11411
침이	-11412
▁당분간	-11413
▁환경이	-11414
▁투자가	-11415
▁이들에게	-11416
너스	-11417
▁설사	-11418
▁주위에	-11419
▁세계로	-11420
추를	-11421
▁잔을	-11422
디는	-11423
▁베를	-11424
▁기대할	-11425
날이	-11426
▁미터	-11427
ik	-11428
강한	-11429
▁했으며	-11430
▁의자	-11431
▁못했을	-11432
▁사상을	-11433
▁사태를	-11434
▁명확히	-11435
▁나눔	-11436
하기보다는	-11437
뉴스	-11438
▁가중	-11439
▁인정을	-11440
▁기술의	-11441
지수	-11442
▁김재	-11443
▁식량	-11444
▁사회적인	-11445
열이	-11446
손으로	-11447
▁훑	-11448
▁동부	-11449
ong	-11450
▁이벤트	-11451
▁얘기하고	-11452
▁싸워	-11453
되었는데	-11454
▁유치원	-11455
▁가져온	-11456
▁180	-11457
철학	-11458
부족	-11459
움의	-11460
▁憲	-11461
가야	-11462
▁방문을	-11463
겨울	-11464
항의	-11465
▁사형	-11466
?」	-11467
병에	-11468
▁대거	-11469
▁한편으로	-11470
NA	-11471
▁관절	-11472
었으나	-11473
78	-11474
▁차고	-11475
▁거리에	-11476
온이	-11477
▁후의	-11478
▁계획이	-11479
복합	-11480
▁걸까요	-11481
▁원으로	-11482
기본	-11483
▁오바	-11484
▁기억하고	-11485
▁회전	-11486
▁봉건	-11487
▁맛있게	-11488
혀서	-11489
▁Sch	-11490
▁이데올로기	-11491
▁발표를	-11492
▁칼로	-11493
▁브리핑	-11494
▁흥미로운	-11495
▁김상	-11496
▁표면	-11497
▁해군	-11498
▁선사	-11499
▁수반	-11500
▁휩싸	-11501
▁질렀다	-11502
벌을	-11503
▁비어	-11504
▁당내	-11505
▁인문	-11506
▁임무를	-11507
▁굳게	-11508
▁게이	-11509
▁막고	-11510
▁수직	-11511
▁통보	-11512
▁벌떡	-11513
▁현황	-11514
▁싸우는	-11515
▁프로그램이	-11516
▁일제히	-11517
▁나폴	-11518
▁힌	-11519
▁봤다	-11520
▁정권을	-11521
▁사람처럼	-11522
▁모방	-11523
▁현재까지	-11524
▁리듬	-11525
▁뜰	-11526
▁여러분들	-11527
▁않겠다	-11528
▁좋다는	-11529
▁상황입니다	-11530
운이	-11531
▁익숙한	-11532
▁최순실	-11533
▁두드러	-11534
▁연기를	-11535
▁김용	-11536
▁양을	-11537
▁경력	-11538
▁붙은	-11539
▁초조	-11540
▁메시지	-11541
▁번은	-11542
▁일부는	-11543
▁매번	-11544
▁적립	-11545
▁역사와	-11546
▁교회는	-11547
▁빚을	-11548
▁벌어지는	-11549
(0	-11550
▁이후에는	-11551
셨던	-11552
▁걷고	-11553
▁임차	-11554
▁Ar	-11555
▁그러고는	-11556
▁경제학	-11557
▁열린다	-11558
▁가운데서	-11559
교육청	-11560
▁소송을	-11561
▁개개	-11562
리아의	-11563
▁노인이	-11564
▁앞선	-11565
▁올라가는	-11566
▁생강	-11567
▁저녁에	-11568
▁돌아왔	-11569
건에	-11570
▁예수의	-11571
지능	-11572
▁내용과	-11573
▁대표의	-11574
▁손상	-11575
▁유료	-11576
ement	-11577
▁뿌려	-11578
▁어리석은	-11579
IS	-11580
배우	-11581
▁평가가	-11582
통에	-11583
▁나타나지	-11584
▁어디에서	-11585
▁한나라당	-11586
▁삼백	-11587
▁오만	-11588
니의	-11589
▁처한	-11590
ll	-11591
▁회장님	-11592
▁시작하였다	-11593
▁실린	-11594
▁시급	-11595
▁역사상	-11596
▁친구의	-11597
사회적	-11598
분들이	-11599
▁무리가	-11600
▁자연을	-11601
▁최악의	-11602
동맹	-11603
▁비롯하여	-11604
▁언제든지	-11605
▁덴	-11606
▁말미암	-11607
▁무효	-11608
르면서	-11609
▁되기를	-11610
▁엘리베이터	-11611
지대	-11612
▁환율	-11613
pe	-11614
▁수신	-11615
민을	-11616
▁그쪽	-11617
▁그랬는데	-11618
▁눈부	-11619
▁되겠죠	-11620
▁결정이	-11621
▁이곳을	-11622
▁이외에도	-11623
________________	-11624
사용	-11625
리학	-11626
▁수령	-11627
▁신도	-11628
생명	-11629
수입	-11630
▁서두	-11631
▁흑인	-11632
▁남기고	-11633
▁감동을	-11634
이었으며	-11635
리티	-11636
준은	-11637
공장	-11638
▁환상	-11639
▁이렇다	-11640
▁욕심	-11641
▁저술	-11642
▁1930	-11643
나갈	-11644
▁합동	-11645
달라는	-11646
▁밀고	-11647
위원회가	-11648
▁우주의	-11649
▁원리를	-11650
야구	-11651
▁○.	-11652
▁마당	-11653
▁것이라면	-11654
▁함께하는	-11655
▁울음	-11656
▁트로	-11657
▁후퇴	-11658
▁스며	-11659
녀의	-11660
오게	-11661
▁습관을	-11662
▁사과를	-11663
축구	-11664
▁음식이	-11665
▁증거가	-11666
▁일자	-11667
되었습니다	-11668
▁앨범	-11669
▁이어지고	-11670
▁되는지	-11671
▁체질	-11672
라구	-11673
▁꿈은	-11674
▁댁	-11675
▁모두를	-11676
▁있기는	-11677
▁자원봉사	-11678
귀를	-11679
▁아나운서	-11680
▁정직	-11681
시설을	-11682
79	-11683
▁권유	-11684
제국	-11685
혈압	-11686
▁이루어지지	-11687
▁잃지	-11688
억원의	-11689
▁서울로	-11690
▁인구가	-11691
▁드러내는	-11692
거야	-11693
▁활용하는	-11694
▁단절	-11695
편으로	-11696
▁민주통합	-11697
▁마인	-11698
▁가맹	-11699
▁맞다	-11700
▁날마다	-11701
▁장의	-11702
▁이집트	-11703
▁줄일	-11704
▁탄압	-11705
막이	-11706
▁is	-11707
기보다	-11708
▁핫	-11709
▁도박	-11710
년과	-11711
▁보다는	-11712
▁작용을	-11713
▁상태다	-11714
▁42	-11715
▁누구를	-11716
▁거세	-11717
하거든요	-11718
▁성찰	-11719
▁의문을	-11720
▁학생은	-11721
▁지배하는	-11722
▁결여	-11723
▁발간	-11724
▁캐릭터	-11725
65	-11726
▁젓	-11727
▁속도가	-11728
▁자꾸만	-11729
값이	-11730
▁김무성	-11731
▁전반적인	-11732
▁마음껏	-11733
▁팀이	-11734
▁활용한	-11735
▁구역	-11736
나서	-11737
▁손잡	-11738
합니까	-11739
▁두지	-11740
▁변호사님	-11741
▁내지는	-11742
▁결정할	-11743
▁저마다	-11744
▁진리	-11745
▁보이기	-11746
▁최소한의	-11747
▁있음	-11748
▁유난히	-11749
▁높이고	-11750
▁시어머니	-11751
▁정책의	-11752
▁제외하고는	-11753
맞습니다	-11754
부대	-11755
▁공헌	-11756
▁묵묵	-11757
▁해석을	-11758
▁구미	-11759
▁어쨌	-11760
▁실패한	-11761
루가	-11762
▁벗어난	-11763
▁수험	-11764
▁편입	-11765
▁남자와	-11766
호선	-11767
▁재테크	-11768
▁바를	-11769
자라는	-11770
▁형성된	-11771
기나	-11772
레는	-11773
▁박영	-11774
▁세련	-11775
▁드나	-11776
▁종속	-11777
▁건물을	-11778
조와	-11779
▁삼각	-11780
▁혐오	-11781
▁저자는	-11782
▁흉내	-11783
▁욕구	-11784
결한	-11785
are	-11786
▁아웃	-11787
시고요	-11788
▁사이가	-11789
▁선생이	-11790
튜브	-11791
▁굴러	-11792
▁움켜	-11793
결혼	-11794
▁이듬	-11795
▁관심과	-11796
▁태극	-11797
▁아빠는	-11798
▁무언가를	-11799
38	-11800
가치	-11801
▁두꺼	-11802
▁체계를	-11803
39	-11804
▁하겠다는	-11805
▁빨라	-11806
▁아아	-11807
▁기생	-11808
▁미국을	-11809
해주고	-11810
▁움직이지	-11811
측은	-11812
▁때려	-11813
▁초기에	-11814
의료	-11815
▁성서	-11816
▁웃어	-11817
▁일만	-11818
▁줄곧	-11819
▁깔려	-11820
▁목에	-11821
▁취미	-11822
▁안동	-11823
▁지식이	-11824
▁동성	-11825
▁지나고	-11826
▁잣	-11827
▁교차	-11828
장에게	-11829
▁고양이	-11830
후가	-11831
▁기구	-11832
▁첫날	-11833
정책의	-11834
보통	-11835
▁미쳤	-11836
▁불가능하다	-11837
▁자기는	-11838
밥을	-11839
▁됐을	-11840
▁거고요	-11841
▁컸다	-11842
▁주에	-11843
트라	-11844
▁있다라는	-11845
▁비공	-11846
시까지	-11847
사옵니다	-11848
▁심각하게	-11849
레가	-11850
▁기분을	-11851
----------------	-11852
▁개발을	-11853
▁노인은	-11854
행사	-11855
언론	-11856
▁문제점	-11857
://	-11858
▁화면	-11859
국인	-11860
▁간과	-11861
시스	-11862
▁정치인	-11863
구십	-11864
▁수평	-11865
▁살펴보자	-11866
▁안정적인	-11867
▁프라이	-11868
▁승부	-11869
▁전통적	-11870
▁진리를	-11871
담당	-11872
▁be	-11873
▁해결하는	-11874
▁원고	-11875
천이	-11876
ack	-11877
▁기를	-11878
▁거북	-11879
동물	-11880
프리카	-11881
▁중동	-11882
▁친일	-11883
IT	-11884
▁예금	-11885
번호	-11886
."(	-11887
▁가도	-11888
▁들리는	-11889
가들이	-11890
▁지적이	-11891
▁활용해	-11892
▁반사	-11893
▁없었어요	-11894
3,	-11895
34	-11896
▁조직이	-11897
▁페이스	-11898
▁오페라	-11899
▁요구에	-11900
▁기간에	-11901
▁언론에	-11902
▁쳤	-11903
▁돋보	-11904
▁경향을	-11905
▁지시를	-11906
적이라는	-11907
▁합리적	-11908
▁죽이	-11909
▁당하고	-11910
▁참모	-11911
ice	-11912
▁민생	-11913
▁차는	-11914
러리	-11915
▁다듬	-11916
▁공익	-11917
▁깨끗이	-11918
▁영향이	-11919
▁업계	-11920
▁상태였다	-11921
▁기상	-11922
▁않겠습니까	-11923
▁주민들은	-11924
▁수시	-11925
▁일각	-11926
▁텐데요	-11927
▁선택하는	-11928
▁유승	-11929
박근혜	-11930
▁아이디	-11931
▁운동의	-11932
ations	-11933
▁집필	-11934
▁2~3	-11935
▁담당하는	-11936
▁다시금	-11937
▁학생들	-11938
하였습니다	-11939
▁모두에게	-11940
▁발견했다	-11941
▁정신과	-11942
▁까다	-11943
▁앞장서	-11944
▁차분	-11945
됐다고	-11946
▁재건축	-11947
▁헌법재판	-11948
기사	-11949
▁백만	-11950
인지는	-11951
▁600	-11952
▁오빠가	-11953
▁흘러내	-11954
▁생각과	-11955
▁띠고	-11956
▁해결을	-11957
▁나오는데	-11958
작용을	-11959
▁Z	-11960
▁낳고	-11961
▁오기	-11962
▁이영	-11963
▁화해	-11964
▁관해서	-11965
▁바짝	-11966
▁에드	-11967
▁발의	-11968
▁늘어나고	-11969
▁다니고	-11970
▁소프트웨어	-11971
che	-11972
▁라틴	-11973
뿐만이	-11974
▁계시는	-11975
▁제공할	-11976
▁모양의	-11977
목에	-11978
▁초에	-11979
▁판단이	-11980
▁맥주	-11981
열에	-11982
▁쉬는	-11983
▁비추어	-11984
▁베스트	-11985
▁견제	-11986
형태	-11987
▁북부	-11988
▁죽인	-11989
▁이후에도	-11990
▁샐	-11991
시킴	-11992
개선	-11993
▁중대	-11994
▁소환	-11995
자들에	-11996
▁벌어지고	-11997
37	-11998
▁도서관	-11999
▁동행	-12000
▁봐서	-12001
▁쉬고	-12002
▁이어져	-12003
▁톰	-12004
▁물품	-12005
▁블루	-12006
▁멈추고	-12007
▁못하다	-12008
▁프리미	-12009
▁혐의를	-12010
▁흔적	-12011
ood	-12012
▁그들과	-12013
▁연습을	-12014
반의	-12015
문화를	-12016
▁감초	-12017
▁철수	-12018
챔피언	-12019
▁정상회담	-12020
▁얘기다	-12021
세력	-12022
▁한국과	-12023
▁연결되어	-12024
르다	-12025
▁8.	-12026
▁받았던	-12027
▁)	-12028
련을	-12029
관계의	-12030
▁보석	-12031
▁섬유	-12032
광고	-12033
▁휩쓸	-12034
▁2017	-12035
▁교양	-12036
총리	-12037
▁되겠습니다	-12038
▁넣었다	-12039
▁무인	-12040
▁있어서의	-12041
▁말만	-12042
▁교육은	-12043
▁팔상	-12044
▁풀려	-12045
▁무서워	-12046
▁치매	-12047
▁분포	-12048
▁고유한	-12049
▁나중에는	-12050
▁하면서도	-12051
당하는	-12052
▁직업을	-12053
공연	-12054
종일	-12055
▁지식과	-12056
▁각오	-12057
▁먹었다	-12058
족을	-12059
▁구절	-12060
▁바에	-12061
▁건강에	-12062
▁외모	-12063
부르크	-12064
전화	-12065
초가	-12066
▁오신	-12067
▁귓	-12068
▁75	-12069
▁선거를	-12070
▁자식을	-12071
aw	-12072
▁만만치	-12073
▁어렵다는	-12074
▁줄기	-12075
기관이	-12076
▁못하도록	-12077
ah	-12078
▁영입	-12079
▁창립	-12080
▁밑으로	-12081
▁돌아갔다	-12082
▁든든	-12083
▁때나	-12084
▁왜요	-12085
▁평가하는	-12086
▁말이지	-12087
▁지킬	-12088
▁초록	-12089
▁가격은	-12090
▁실정이다	-12091
▁먹는다	-12092
▁생각해요	-12093
상승	-12094
▁믿음을	-12095
▁조만	-12096
▁University	-12097
▁70%	-12098
▁시계	-12099
▁범위를	-12100
▁일본인	-12101
▁토마	-12102
가면서	-12103
▁달라질	-12104
▁되었는데	-12105
▁현실이	-12106
▁안된다	-12107
▁내기	-12108
▁핵심은	-12109
ire	-12110
비도	-12111
▁MBC	-12112
▁안산	-12113
▁이야기도	-12114
개는	-12115
▁때때로	-12116
▁확률이	-12117
차이	-12118
▁산업의	-12119
▁세기	-12120
In	-12121
▁톡	-12122
경제의	-12123
▁기도를	-12124
▁효과는	-12125
▁슬퍼	-12126
날을	-12127
▁듀	-12128
▁리스트	-12129
▁보도를	-12130
▁시기가	-12131
▁서정	-12132
▁요리를	-12133
셔널	-12134
▁다가왔다	-12135
ct	-12136
▁노벨	-12137
새를	-12138
▁머릿속에	-12139
▁버렸	-12140
님도	-12141
▁추진하는	-12142
▁뱉	-12143
▁것이란	-12144
▁했거든요	-12145
ere	-12146
ook	-12147
▁조리	-12148
느냐고	-12149
▁요거	-12150
맞아	-12151
▁이론적	-12152
사람이	-12153
지금은	-12154
▁드리겠습니다	-12155
▁재발	-12156
▁재생	-12157
▁정부에서	-12158
▁병원에서	-12159
▁어머니와	-12160
▁인과	-12161
mm	-12162
▁창고	-12163
▁크로	-12164
▁움직여	-12165
’(	-12166
▁유해	-12167
길은	-12168
▁여긴	-12169
▁엽	-12170
▁틀린	-12171
▁증가하고	-12172
교사	-12173
▁당하는	-12174
▁터키	-12175
▁어디까지나	-12176
▁침착	-12177
.」	-12178
례가	-12179
순간	-12180
변에	-12181
폈다	-12182
▁벽을	-12183
창한	-12184
▁요금	-12185
▁여러분은	-12186
▁참된	-12187
▁주제에	-12188
재정	-12189
▁것과는	-12190
▁많기	-12191
안고	-12192
▁이르렀	-12193
▁국경	-12194
▁세무	-12195
▁여론조사	-12196
▁움직임이	-12197
▁있겠습니까	-12198
▁일체	-12199
일랜드	-12200
▁미스	-12201
▁기억에	-12202
▁편안한	-12203
얼마	-12204
▁년을	-12205
▁내놓은	-12206
▁뻗어	-12207
▁세속	-12208
▁재능을	-12209
▁기자회견을	-12210
▁라인	-12211
▁기숙	-12212
▁박수	-12213
시부터	-12214
▁양산	-12215
▁훔쳐	-12216
▁저거	-12217
게는	-12218
▁습득	-12219
▁통하는	-12220
공산	-12221
해볼	-12222
▁간담	-12223
▁임진	-12224
▁달러를	-12225
▁결성	-12226
▁명절	-12227
▁하얗	-12228
▁이메	-12229
▁정수	-12230
▁단계에	-12231
▁조세	-12232
▁흐르고	-12233
▁무시하고	-12234
64	-12235
▁그후	-12236
▁아리	-12237
▁실패를	-12238
▁잠깐만	-12239
▁방울	-12240
프랑	-12241
▁스키	-12242
▁위임	-12243
▁주인공이	-12244
▁전년	-12245
▁or	-12246
파로	-12247
▁재단	-12248
▁쳐다보	-12249
▁화합	-12250
▁날씨가	-12251
▁달라진	-12252
▁전반에	-12253
▁취하고	-12254
▁맥락에서	-12255
▁총괄	-12256
▁비전을	-12257
근대	-12258
▁시작된다	-12259
▁계단	-12260
▁우리와	-12261
▁말아	-12262
▁살림	-12263
▁신인	-12264
▁단위로	-12265
▁적당히	-12266
▁9.	-12267
▁군인	-12268
▁임무	-12269
▁우연	-12270
▁누릴	-12271
회의를	-12272
▁무료로	-12273
▁공사를	-12274
▁폰	-12275
co	-12276
겨운	-12277
▁감자	-12278
▁사대	-12279
▁시절의	-12280
천은	-12281
▁코를	-12282
▁편안하게	-12283
▁대치	-12284
▁운동은	-12285
▁전통을	-12286
▁바둑	-12287
▁인증	-12288
▁노력하는	-12289
네는	-12290
▁한복	-12291
부동	-12292
▁그러는데	-12293
짐을	-12294
▁비닐	-12295
▁횟	-12296
▁그해	-12297
▁설교	-12298
▁우아	-12299
▁오피스	-12300
▁평창	-12301
오던	-12302
그마한	-12303
▁지내는	-12304
금지	-12305
▁안정을	-12306
▁있었죠	-12307
▁따름	-12308
▁북한을	-12309
ci	-12310
▁유전자	-12311
▁늑	-12312
인데네	-12313
▁중국을	-12314
스러웠다	-12315
▁형식을	-12316
▁기차	-12317
▁장미	-12318
▁플라톤	-12319
▁나옵니다	-12320
▁친노	-12321
씨와	-12322
었을까	-12323
▁보고를	-12324
▁집단의	-12325
▁강력하게	-12326
▁알면	-12327
▁육군	-12328
▁전인	-12329
▁만성	-12330
▁허물	-12331
▁마지막에	-12332
▁톱	-12333
▁객관적인	-12334
▁4,	-12335
▁남편과	-12336
▁현대의	-12337
▁헝	-12338
▁배상	-12339
▁유인	-12340
잠깐	-12341
▁입사	-12342
▁현관	-12343
축제	-12344
▁극단적인	-12345
▁않는가	-12346
오일	-12347
▁마실	-12348
집으로	-12349
녀는	-12350
▁파악하는	-12351
깁니다	-12352
오면서	-12353
▁아리스	-12354
▁입으로	-12355
▁짙은	-12356
주식	-12357
내며	-12358
▁인터뷰를	-12359
▁록	-12360
▁긍정적으로	-12361
▁최선의	-12362
▁해고	-12363
▁하나에	-12364
이었다는	-12365
▁급한	-12366
위원회를	-12367
▁이루어졌다	-12368
류에	-12369
▁동의를	-12370
정부는	-12371
▁무사히	-12372
▁유가	-12373
▁던졌다	-12374
▁보육	-12375
▁마루	-12376
▁同	-12377
▁사내는	-12378
그레	-12379
▁이어진	-12380
▁가정의	-12381
락에	-12382
▁대두	-12383
▁실시한	-12384
▁같지만	-12385
▁다루고	-12386
▁기운을	-12387
▁정신의	-12388
▁발생한다	-12389
▁됐어	-12390
▁대학원	-12391
▁명확한	-12392
▁마스터	-12393
▁김정일	-12394
▁남성이	-12395
▁반도체	-12396
▁앞으로는	-12397
공학	-12398
반이	-12399
준이	-12400
▁En	-12401
▁리그	-12402
▁프로그램의	-12403
ver	-12404
▁묻지	-12405
▁서너	-12406
삼국	-12407
행복	-12408
하기에는	-12409
▁사회복지	-12410
▁하필	-12411
▁낯설	-12412
▁사건으로	-12413
▁거기에는	-12414
롭다	-12415
▁낮추	-12416
▁호랑	-12417
▁신청을	-12418
▁안전을	-12419
▁진행하고	-12420
랫폼	-12421
▁어마어	-12422
▁자신만의	-12423
선택	-12424
타가	-12425
▁등산	-12426
▁제의	-12427
▁불과한	-12428
▁무엇인가를	-12429
▁물가	-12430
▁우는	-12431
▁이수	-12432
▁의혹이	-12433
▁대원	-12434
▁계단을	-12435
▁보도록	-12436
▁국내에서	-12437
▁중심에	-12438
청년	-12439
▁학과	-12440
▁내적	-12441
▁한양	-12442
란은	-12443
▁이라크	-12444
▁너무나도	-12445
끄럽	-12446
▁입이	-12447
▁것만으로도	-12448
▁했었다	-12449
.6%	-12450
▁급격히	-12451
▁별도의	-12452
능력을	-12453
▁마이클	-12454
▁도발	-12455
▁꽁	-12456
▁땀을	-12457
▁휴식	-12458
▁정리를	-12459
▁거래를	-12460
▁문학적	-12461
▁후진	-12462
목표	-12463
▁포인	-12464
▁선거에	-12465
해가지고	-12466
▁인천시	-12467
▁정부를	-12468
예산	-12469
▁일종	-12470
매매	-12471
74	-12472
▁높아지고	-12473
▁단축	-12474
▁저질	-12475
▁불확실	-12476
▁씨에	-12477
▁제사	-12478
년대의	-12479
▁확인한	-12480
▁이승만	-12481
▁지도를	-12482
료는	-12483
먼트	-12484
했듯이	-12485
▁고조	-12486
당신은	-12487
▁우리들은	-12488
라고도	-12489
▁국가와	-12490
▁아래에	-12491
▁동요	-12492
▁하기로	-12493
▁입장은	-12494
▁우리나라에서	-12495
▁젖은	-12496
▁미끄러	-12497
레옹	-12498
▁시원한	-12499
ult	-12500
▁상인	-12501
▁만들어낸	-12502
피해	-12503
(15	-12504
▁낮게	-12505
됐다는	-12506
▁Pol	-12507
▁정치적으로	-12508
왕을	-12509
▁무한한	-12510
▁영혼을	-12511
하면은	-12512
▁교회가	-12513
▁신고를	-12514
▁조사한	-12515
▁놀러	-12516
▁하버	-12517
▁본질을	-12518
하는지	-12519
▁債	-12520
글로	-12521
기다	-12522
▁따라서는	-12523
내에	-12524
▁전두	-12525
▁주요한	-12526
량한	-12527
▁더더	-12528
▁동지	-12529
▁기술적	-12530
▁넋	-12531
▁전진	-12532
▁부재	-12533
▁레스토	-12534
러의	-12535
▁"......	-12536
▁올려다	-12537
▁의원을	-12538
골을	-12539
▁노트	-12540
▁무더	-12541
▁규명	-12542
▁물러나	-12543
▁고사	-12544
▁시ᆞ	-12545
▁존재로	-12546
▁차지했다	-12547
▁포트	-12548
▁상관없	-12549
▁기대하고	-12550
95	-12551
이론	-12552
▁모금	-12553
▁필리핀	-12554
시게	-12555
▁닮은	-12556
▁좋겠어요	-12557
말씀	-12558
▁처방	-12559
▁모델을	-12560
▁정치의	-12561
▁현명한	-12562
▁인터넷을	-12563
▁목회	-12564
▁지체	-12565
▁앞뒤	-12566
▁그치지	-12567
▁전달하는	-12568
▁하룻	-12569
쉽게	-12570
▁변신	-12571
▁전하는	-12572
히게	-12573
마켓	-12574
▁당일	-12575
▁저자	-12576
▁오세요	-12577
▁불거	-12578
▁심화	-12579
▁행위에	-12580
기름	-12581
▁신혼	-12582
▁이랬	-12583
▁자유와	-12584
▁사드	-12585
▁싶으면	-12586
▁동해	-12587
▁남에게	-12588
▁드러나는	-12589
▁흔들어	-12590
▁임원	-12591
▁곳도	-12592
▁유형의	-12593
~8	-12594
▁되는데요	-12595
▁섞여	-12596
▁신장	-12597
▁삼성전자	-12598
변의	-12599
▁자기도	-12600
▁부분들이	-12601
▁다문화	-12602
▁깊숙이	-12603
▁판결을	-12604
▁왔어	-12605
▁저서	-12606
▁모양을	-12607
▁지주	-12608
가량	-12609
▁술에	-12610
▁다다	-12611
지역에	-12612
▁an	-12613
▁젖어	-12614
▁대표적	-12615
▁요런	-12616
▁연락이	-12617
▁나타낸다	-12618
▁편찬	-12619
류는	-12620
▁들어가고	-12621
▁모여서	-12622
▁아닌가요	-12623
대기	-12624
▁확인을	-12625
▁화살	-12626
▁혀를	-12627
▁플로	-12628
▁해상	-12629
▁대한민국의	-12630
▁정권이	-12631
▁신선한	-12632
▁노동조합	-12633
족이	-12634
▁평상	-12635
▁스스로가	-12636
▁소모	-12637
▁않았다면	-12638
▁비롯된	-12639
.7%	-12640
▁슬로	-12641
보니까	-12642
사십	-12643
주일	-12644
ual	-12645
▁극장	-12646
▁힘입	-12647
▁더해	-12648
▁빌딩	-12649
▁훌쩍	-12650
저것	-12651
▁종말	-12652
▁파업	-12653
▁요즘에	-12654
▁들었던	-12655
▁어깨에	-12656
▁확인하는	-12657
▁취할	-12658
▁엄마를	-12659
▁청춘	-12660
▁소비자의	-12661
됨에	-12662
▁선거에서	-12663
▁모니터	-12664
▁를	-12665
▁선생은	-12666
▁마을에	-12667
▁생각하게	-12668
▁분단	-12669
▁동경	-12670
▁구조가	-12671
▁단단히	-12672
▁이야기할	-12673
▁무대에	-12674
리던	-12675
▁1/	-12676
▁장소를	-12677
▁증오	-12678
▁지가	-12679
▁벌인	-12680
▁분도	-12681
▁세균	-12682
▁드문	-12683
▁하하	-12684
▁;	-12685
▁국가는	-12686
무엇	-12687
▁좋아하고	-12688
▁보도가	-12689
▁해당한다	-12690
▁시작했습니다	-12691
신고	-12692
▁제갈	-12693
통의	-12694
▁강조한다	-12695
▁중요하지	-12696
▁보리	-12697
▁제국의	-12698
hy	-12699
▁햇볕	-12700
▁암시	-12701
▁권리가	-12702
▁손실을	-12703
▁지친	-12704
국적	-12705
▁효율적으로	-12706
검을	-12707
맛이	-12708
▁프로그램에	-12709
▁안은	-12710
▁의원들이	-12711
.8%	-12712
▁지역이	-12713
32	-12714
▁휘두	-12715
▁팔고	-12716
▁얘기한	-12717
▁특이	-12718
▁매스	-12719
▁중년	-12720
▁않았을까	-12721
신경	-12722
▁뚜껑	-12723
▁회장의	-12724
키지	-12725
▁표기	-12726
▁쓰이는	-12727
▁최근의	-12728
ton	-12729
▁재촉	-12730
▁서부	-12731
네시아	-12732
▁다큐	-12733
▁전쟁에	-12734
▁예약	-12735
▁표를	-12736
▁놨	-12737
▁철거	-12738
▁말처럼	-12739
▁인문학	-12740
양은	-12741
▁차마	-12742
▁고개	-12743
용품	-12744
▁채소	-12745
▁황제의	-12746
▁가리지	-12747
▁마음도	-12748
▁인맥	-12749
▁정반	-12750
▁철학적	-12751
▁커플	-12752
▁묻혀	-12753
▁검찰에	-12754
동과	-12755
▁스코	-12756
▁그지	-12757
▁오게	-12758
▁기다렸다	-12759
▁아이들과	-12760
▁덥	-12761
▁불쾌	-12762
▁마흔	-12763
▁수호	-12764
▁햄	-12765
▁마땅히	-12766
▁부가가	-12767
▁문제이다	-12768
병은	-12769
▁부수	-12770
▁여는	-12771
▁인접	-12772
▁비밀을	-12773
탄이	-12774
▁단행	-12775
▁제주도	-12776
▁즐거움을	-12777
정하고	-12778
▁네이	-12779
▁1920	-12780
▁장래	-12781
▁강렬한	-12782
▁정체성을	-12783
▁제시했다	-12784
▁발라	-12785
▁하나님은	-12786
오염	-12787
▁가리키는	-12788
▁시선	-12789
▁단계에서	-12790
▁절약	-12791
그렇기	-12792
DP	-12793
▁야간	-12794
김없이	-12795
▁심상	-12796
운을	-12797
언제	-12798
▁노력하고	-12799
▁대지	-12800
▁선생의	-12801
▁구하는	-12802
▁실체	-12803
▁商	-12804
▁주간	-12805
▁스웨덴	-12806
▁않았나	-12807
경험	-12808
▁약화	-12809
▁지키기	-12810
▁그림이	-12811
학적인	-12812
하오	-12813
▁변하지	-12814
▁보여줄	-12815
직에	-12816
▁56	-12817
▁진상	-12818
▁언니가	-12819
▁진지한	-12820
▁Re	-12821
프레	-12822
아이고	-12823
미널	-12824
▁싣고	-12825
있고	-12826
▁합니까	-12827
▁요한	-12828
▁허무	-12829
법적	-12830
▁때네	-12831
▁조용한	-12832
내용	-12833
▁나보다	-12834
▁땅의	-12835
▁정신적인	-12836
버섯	-12837
▁장점이	-12838
▁신흥	-12839
▁갸	-12840
▁광명	-12841
▁나서야	-12842
▁중산	-12843
▁지을	-12844
▁치우	-12845
▁형은	-12846
▁und	-12847
▁시작되는	-12848
▁몸짓	-12849
▁무거	-12850
▁법안	-12851
제도의	-12852
▁명분	-12853
▁야생	-12854
으려면	-12855
▁질문이	-12856
육십	-12857
▁기간을	-12858
▁때문일	-12859
시도	-12860
▁악마	-12861
발의	-12862
▁세우는	-12863
▁의도를	-12864
서부터	-12865
▁뿐입니다	-12866
▁민정	-12867
▁과거를	-12868
oci	-12869
▁세계대전	-12870
▁여느	-12871
▁그리는	-12872
▁폼	-12873
▁짐작할	-12874
▁두렵	-12875
주에서	-12876
측의	-12877
▁상환	-12878
▁산에	-12879
▁80%	-12880
▁개념으로	-12881
▁성폭	-12882
▁자각	-12883
▁주한	-12884
▁自	-12885
▁네네네	-12886
결국	-12887
▁총을	-12888
▁드래곤	-12889
▁타임	-12890
▁놓치지	-12891
▁땅에서	-12892
▁뭐지	-12893
▁고도	-12894
▁맞았다	-12895
▁지혜를	-12896
▁짠	-12897
▁시인의	-12898
▁땜	-12899
장관	-12900
▁도시를	-12901
▁무기를	-12902
▁인생은	-12903
▁곳곳에서	-12904
▁사용하여	-12905
▁레닌	-12906
▁네덜란드	-12907
▁지역으로	-12908
▁어땠	-12909
▁바로잡	-12910
○○	-12911
▁축복	-12912
▁이제부터	-12913
▁처벌을	-12914
me	-12915
▁주장에	-12916
인민	-12917
▁거슬러	-12918
▁젠	-12919
-6	-12920
▁취향	-12921
어가고	-12922
▁내밀었다	-12923
▁54	-12924
▁돌입	-12925
▁집계	-12926
▁델	-12927
▁위원회	-12928
건만	-12929
시즘	-12930
▁끊어	-12931
▁애니메이션	-12932
▁일깨	-12933
▁벌이는	-12934
▁하드	-12935
Ch	-12936
▁연구소	-12937
▁막는	-12938
갔습니다	-12939
었거든요	-12940
▁들러	-12941
▁래	-12942
보장	-12943
▁무심	-12944
▁버는	-12945
▁카드를	-12946
▁오이	-12947
▁하루를	-12948
▁붐	-12949
▁복종	-12950
rom	-12951
▁거둔	-12952
달이	-12953
▁부당	-12954
▁걸렸다	-12955
▁넣는	-12956
소유	-12957
▁상관이	-12958
▁무산	-12959
▁용납	-12960
▁있구나	-12961
▁그리워	-12962
▁닦아	-12963
▁쉽고	-12964
▁과제를	-12965
임대	-12966
▁고구	-12967
▁일년	-12968
운동에	-12969
▁나머지는	-12970
실과	-12971
이걸	-12972
▁전염	-12973
▁일원	-12974
▁부의	-12975
▁먹어도	-12976
▁관계에서	-12977
▁이듬해	-12978
▁개발에	-12979
▁장로	-12980
▁제이	-12981
▁사진이	-12982
▁불쑥	-12983
▁전직	-12984
이었어	-12985
▁법이다	-12986
▁용기	-12987
▁지분	-12988
▁웰	-12989
▁줄이고	-12990
▁김지	-12991
▁설명이	-12992
이었으나	-12993
▁돈도	-12994
▁획기	-12995
▁나오게	-12996
▁혈압	-12997
올랐다	-12998
▁내려와	-12999
▁역할은	-13000
적에	-13001
▁해제	-13002
)>	-13003
▁존재할	-13004
II	-13005
다음	-13006
▁낸다	-13007
▁진행된	-13008
편이	-13009
형과	-13010
▁매월	-13011
▁올라갈	-13012
▁계좌	-13013
▁인정할	-13014
▁입는	-13015
▁충북	-13016
▁이미지가	-13017
▁띤	-13018
새로운	-13019
▁자격이	-13020
▁폭로	-13021
.’	-13022
▁강을	-13023
▁울타	-13024
사들의	-13025
사업에	-13026
▁항복	-13027
▁확고	-13028
구조를	-13029
▁사원	-13030
▁남지	-13031
▁놓는	-13032
▁용의	-13033
듯한	-13034
▁안돼	-13035
▁법에	-13036
▁냄새를	-13037
▁가사	-13038
▁회수	-13039
회의에서	-13040
▁잤	-13041
▁정권의	-13042
▁기업들은	-13043
앉아	-13044
았기	-13045
▁원숭	-13046
가들은	-13047
St	-13048
▁추락	-13049
▁증거를	-13050
▁도의	-13051
▁투기	-13052
▁지식의	-13053
▁공식적으로	-13054
권도	-13055
▁기성	-13056
▁눈에는	-13057
▁여자들이	-13058
▁시설을	-13059
▁그르	-13060
▁높이기	-13061
▁저게	-13062
▁해산	-13063
▁크리	-13064
▁음음	-13065
전시	-13066
▁늘려	-13067
▁봤습니다	-13068
▁빈번	-13069
▁가지만	-13070
▁일으켰다	-13071
집행	-13072
▁강대	-13073
▁끝을	-13074
▁많다고	-13075
▁감성	-13076
tis	-13077
▁섰	-13078
▁맞춘	-13079
▁붙인	-13080
▁전과	-13081
▁강릉	-13082
▁드러난다	-13083
▁지난번	-13084
들에게도	-13085
▁알았는데	-13086
de	-13087
▁대표를	-13088
▁대화가	-13089
▁시작해서	-13090
▁쉰	-13091
▁깨어나	-13092
▁58	-13093
▁한눈에	-13094
▁징계	-13095
토가	-13096
▁계십니다	-13097
行爲	-13098
▁짜증	-13099
ish	-13100
▁나랑	-13101
▁맞춤형	-13102
▁지나간	-13103
바탕	-13104
▁사고의	-13105
▁토론을	-13106
▁이지	-13107
▁변화와	-13108
미디	-13109
하느라	-13110
▁여인의	-13111
▁수송	-13112
공에	-13113
▁박탈	-13114
▁지사	-13115
▁줄이	-13116
▁일이야	-13117
▁노는	-13118
▁달려가	-13119
▁더군다나	-13120
올라	-13121
▁자유로	-13122
▁전수	-13123
▁표명	-13124
▁고속	-13125
▁적고	-13126
▁게재	-13127
▁성직	-13128
▁문예	-13129
▁차기	-13130
▁고객에게	-13131
심사	-13132
▁불구	-13133
버그	-13134
견이	-13135
부문	-13136
고사	-13137
▁전교	-13138
▁국제적	-13139
▁자녀를	-13140
▁도중에	-13141
▁산이	-13142
▁서운	-13143
ED	-13144
▁내각	-13145
▁객관적	-13146
▁경과	-13147
▁투자하는	-13148
▁그간	-13149
하더니	-13150
나갔다	-13151
▁말합니다	-13152
▁발이	-13153
▁역사적인	-13154
▁수염	-13155
▁의도가	-13156
▁그러면서도	-13157
▁크레	-13158
지는데	-13159
.9%	-13160
생은	-13161
▁선택의	-13162
▁빠질	-13163
▁장이	-13164
▁전송	-13165
▁교통사고	-13166
일곱	-13167
▁메르	-13168
▁알파	-13169
▁틀을	-13170
▁발견된	-13171
▁집안의	-13172
▁들어간다	-13173
돈이	-13174
▁인연	-13175
▁스크린	-13176
▁디자이너	-13177
동아	-13178
▁미만	-13179
▁이보다	-13180
▁증상	-13181
▁사람에게는	-13182
▁장교	-13183
▁스쳐	-13184
▁소리와	-13185
▁알아볼	-13186
▁누구보다	-13187
층으로	-13188
▁한자	-13189
▁선두	-13190
▁늘었다	-13191
▁주자	-13192
▁가치는	-13193
▁궁극적으로	-13194
77	-13195
어에	-13196
▁배에	-13197
▁주재	-13198
▁상품의	-13199
▁김일성	-13200
▁가진다	-13201
▁속한다	-13202
▁어린아이	-13203
▁자립	-13204
▁시작했고	-13205
▁사용을	-13206
▁의문이	-13207
▁머무	-13208
▁적정	-13209
▁클린	-13210
▁김수	-13211
느라고	-13212
▁보이지만	-13213
▁이병	-13214
▁탐색	-13215
▁협약	-13216
▁교회를	-13217
▁꿈꾸는	-13218
▁단계를	-13219
됨으로써	-13220
그러니까요	-13221
밤에	-13222
▁일본을	-13223
▁행동으로	-13224
고리	-13225
체제를	-13226
▁독자적인	-13227
▁상호작용	-13228
▁있겠습니다	-13229
▁개발한	-13230
▁보름	-13231
▁들었어요	-13232
▁전체에	-13233
▁평생을	-13234
▁크리스마스	-13235
▁주사	-13236
▁인생이	-13237
▁EU	-13238
▁전담	-13239
▁타고난	-13240
역으로	-13241
▁찾아와	-13242
▁운영을	-13243
▁즐겁	-13244
▁보호를	-13245
▁비전	-13246
단한	-13247
▁부탁을	-13248
▁제도적	-13249
▁의욕	-13250
▁하루하루	-13251
▁총장	-13252
노조	-13253
버렸	-13254
▁자연스러운	-13255
▁신음	-13256
▁잠수	-13257
▁없어도	-13258
▁주변에서	-13259
▁임기	-13260
▁준공	-13261
▁이은	-13262
▁당할	-13263
▁적절히	-13264
아웃	-13265
셨죠	-13266
▁동쪽	-13267
▁선비	-13268
▁관계의	-13269
▁러시아의	-13270
▁열정을	-13271
▁생산하는	-13272
으실	-13273
▁말하기	-13274
▁심심	-13275
그것도	-13276
▁드라이	-13277
▁봤어요	-13278
▁소설은	-13279
▁남북한	-13280
방지	-13281
▁재개	-13282
▁만들어내는	-13283
집은	-13284
~20	-13285
▁이란	-13286
▁일인	-13287
▁아메리카	-13288
▁싶고	-13289
오기	-13290
물이다	-13291
귀한	-13292
▁슬프	-13293
▁빠지는	-13294
▁아쉬운	-13295
▁상징하는	-13296
▁하겠다고	-13297
루는	-13298
▁동정	-13299
▁실감	-13300
▁날려	-13301
체계를	-13302
확인	-13303
▁주류	-13304
▁짝이	-13305
뭔가	-13306
▁성분	-13307
방식을	-13308
▁없음을	-13309
▁문화와	-13310
▁조선일보	-13311
▁측면을	-13312
▁돌을	-13313
▁안개	-13314
당시	-13315
▁가끔씩	-13316
▁로스	-13317
▁집합	-13318
▁10.	-13319
▁매개	-13320
급을	-13321
▁자연과	-13322
라미	-13323
▁스토리	-13324
▁영상을	-13325
주의적인	-13326
▁아버님	-13327
▁톨	-13328
▁작품에	-13329
mun	-13330
▁움직이고	-13331
령에	-13332
duc	-13333
▁흩어져	-13334
카는	-13335
▁여인이	-13336
▁드리는	-13337
契約	-13338
▁지쳐	-13339
▁눕	-13340
▁살다	-13341
▁사우	-13342
▁암살	-13343
▁워크	-13344
▁영어를	-13345
▁옮겼다	-13346
▁효율적인	-13347
▁몰입	-13348
▁하시면	-13349
▁by	-13350
▁오백	-13351
▁'20	-13352
▁못해서	-13353
▁생각해서	-13354
▁"(	-13355
▁의거	-13356
▁그것으로	-13357
▁인재를	-13358
웠고	-13359
▁알레	-13360
▁말라는	-13361
▁보편적	-13362
▁자유한국당	-13363
▁짤	-13364
에게로	-13365
느냐에	-13366
스포	-13367
처가	-13368
▁도중	-13369
▁소주	-13370
▁끝내고	-13371
▁뚱	-13372
▁실어	-13373
▁않으려고	-13374
▁진행된다	-13375
제작	-13376
토의	-13377
▁죄가	-13378
▁고장	-13379
지배	-13380
▁세계적	-13381
▁분노를	-13382
랄까	-13383
▁데에는	-13384
▁임금이	-13385
ace	-13386
▁경호	-13387
▁줄이는	-13388
금에	-13389
▁후기	-13390
▁두번째	-13391
▁반항	-13392
▁관세	-13393
▁끝없이	-13394
▁넣어서	-13395
▁신사	-13396
▁방법도	-13397
▁최후의	-13398
▁이제까지	-13399
졌으며	-13400
▁뉴스를	-13401
▁대하는	-13402
커니즘	-13403
▁멀티	-13404
▁쓰다듬	-13405
활동에	-13406
▁장관은	-13407
▁추운	-13408
▁핵심적인	-13409
수산	-13410
▁꺼냈다	-13411
보도	-13412
▁금액을	-13413
▁정하고	-13414
▁64	-13415
▁독창	-13416
겠는데	-13417
▁5)	-13418
크라테	-13419
▁대안을	-13420
이었죠	-13421
▁그랬던	-13422
비평	-13423
▁갑니다	-13424
▁골짜	-13425
▁장점을	-13426
▁비판했다	-13427
▁지목	-13428
▁위와	-13429
▁님이	-13430
▁시상	-13431
▁바뀌었다	-13432
▁핵무	-13433
▁표현한	-13434
리니	-13435
▁섞어	-13436
농업	-13437
▁구청	-13438
▁어른이	-13439
▁라이프	-13440
머리를	-13441
▁학교의	-13442
▁쇼핑몰	-13443
ann	-13444
▁벗고	-13445
▁초상	-13446
▁한의	-13447
▁주체가	-13448
tit	-13449
▁나왔는데	-13450
▁상한	-13451
▁논리를	-13452
하십시오	-13453
▁사천	-13454
나라를	-13455
▁대상은	-13456
▁최신	-13457
조선일보	-13458
▁글자	-13459
이익을	-13460
▁간이	-13461
▁비춰	-13462
▁예술의	-13463
▁존재하고	-13464
권으로	-13465
▁비난을	-13466
질서	-13467
▁민원	-13468
▁에스엔	-13469
계산	-13470
▁운반	-13471
▁부모는	-13472
▁섞인	-13473
▁현안	-13474
슨의	-13475
후는	-13476
으흠	-13477
▁인물을	-13478
▁경험과	-13479
▁않더라도	-13480
노총	-13481
-8	-13482
▁아저씨가	-13483
▁결제	-13484
아래	-13485
▁상해	-13486
▁처음엔	-13487
▁모조리	-13488
▁요컨대	-13489
▁그라	-13490
▁다가오는	-13491
▁잘해	-13492
▁하반기	-13493
워진	-13494
운동이	-13495
▁잘하고	-13496
▁헤매	-13497
▁소용이	-13498
▁가늠	-13499
▁어리석	-13500
▁열을	-13501
▁친한	-13502
▁인생에	-13503
전기	-13504
원래	-13505
▁데이비	-13506
▁남양	-13507
▁보려고	-13508
▁사무총	-13509
▁i	-13510
▁피난	-13511
▁보편적인	-13512
▁카르	-13513
▁서기	-13514
▁교장	-13515
▁높일	-13516
▁호수	-13517
▁생명이	-13518
▁승려	-13519
▁이인	-13520
▁나폴레옹	-13521
▁상처가	-13522
主義	-13523
▁아끼지	-13524
▁카카오	-13525
▁와중에	-13526
▁집의	-13527
▁길고	-13528
▁타격을	-13529
림으로	-13530
▁경계를	-13531
▁마다	-13532
▁정의를	-13533
▁의식의	-13534
▁좋아한다	-13535
아이가	-13536
▁침대에	-13537
-19	-13538
▁틀림없다	-13539
▁내걸	-13540
▁단어가	-13541
중은	-13542
▁아테	-13543
▁장차	-13544
▁형태가	-13545
▁힘에	-13546
보의	-13547
어린	-13548
▁이야기하고	-13549
ance	-13550
▁감사의	-13551
▁저렴한	-13552
▁다니면서	-13553
▁유한	-13554
▁태워	-13555
기면	-13556
두리	-13557
▁야외	-13558
▁불만이	-13559
▁기준에	-13560
린다는	-13561
▁갖가지	-13562
범이	-13563
(10	-13564
▁생선	-13565
▁살펴본	-13566
▁어때요	-13567
▁시스템이	-13568
▁잊을	-13569
▁지위	-13570
▁ch	-13571
▁발음	-13572
▁예전에는	-13573
▁싸움이	-13574
▁행사가	-13575
▁드러내고	-13576
▁있었는지	-13577
ᆞ중	-13578
토는	-13579
프리	-13580
▁불행한	-13581
▁여기가	-13582
▁뿔	-13583
▁아파트를	-13584
▁포위	-13585
▁화제가	-13586
▁조건으로	-13587
발로	-13588
▁상대방을	-13589
▁전반적으로	-13590
▁부부는	-13591
▁이르게	-13592
▁죽일	-13593
들지	-13594
걸음	-13595
▁가는데	-13596
▁맴	-13597
▁매달려	-13598
con	-13599
▁그녀와	-13600
▁데이트	-13601
▁숫자가	-13602
▁날로	-13603
▁여쭤	-13604
▁벌였다	-13605
▁작년에	-13606
근한	-13607
개국	-13608
▁접어	-13609
▁외출	-13610
▁녀석은	-13611
▁달라는	-13612
▁아픔을	-13613
값을	-13614
▁보이며	-13615
하냐	-13616
테이션	-13617
▁상반기	-13618
▁신문에	-13619
▁체험을	-13620
▁안주	-13621
▁가져올	-13622
▁번만	-13623
▁크지	-13624
▁합성	-13625
▁체계적으로	-13626
▁부가	-13627
더군	-13628
▁에피	-13629
▁우두	-13630
▁손해배	-13631
▁지원이	-13632
▁1985	-13633
▁묵묵히	-13634
파와	-13635
호에	-13636
▁소집	-13637
▁강제로	-13638
▁한화	-13639
▁학교가	-13640
음으로써	-13641
▁증가했다	-13642
會社	-13643
료로	-13644
▁서쪽	-13645
▁대가로	-13646
▁조만간	-13647
층은	-13648
▁의사소통	-13649
▁자질	-13650
▁풀고	-13651
▁병원을	-13652
▁한참을	-13653
▁마당에	-13654
▁무섭게	-13655
▁힘의	-13656
▁규모로	-13657
검찰	-13658
▁관해서는	-13659
▁주름	-13660
▁콤	-13661
▁귀신	-13662
으로의	-13663
▁바뀔	-13664
▁1986	-13665
▁두세	-13666
▁군사적	-13667
▁해준다	-13668
▁이상적인	-13669
▁다운	-13670
▁비교할	-13671
▁와인	-13672
(9	-13673
▁뒤덮	-13674
▁잃게	-13675
▁시작하면	-13676
먹은	-13677
▁규정이	-13678
▁죽지	-13679
ᆞ이	-13680
▁입력	-13681
▁팝	-13682
yst	-13683
ign	-13684
▁pro	-13685
▁설명한	-13686
▁힘들고	-13687
순위	-13688
하진	-13689
▁내부에	-13690
좋아	-13691
▁레스토랑	-13692
▁땡	-13693
▁FTA	-13694
▁진행하는	-13695
▁돌리고	-13696
................	-13697
▁나무가	-13698
▁관심은	-13699
금과	-13700
▁더러	-13701
▁마누	-13702
▁치켜	-13703
▁통일을	-13704
▁추출	-13705
▁불빛	-13706
▁여신	-13707
법원	-13708
▁안성	-13709
▁긴장을	-13710
워드	-13711
▁역임	-13712
▁욕을	-13713
역은	-13714
▁쪼금	-13715
살렘	-13716
▁희망이	-13717
▁모셔	-13718
▁않던	-13719
▁킹	-13720
▁KB	-13721
▁사각	-13722
▁묻자	-13723
줘요	-13724
▁있기에	-13725
▁새벽에	-13726
▁이룩	-13727
▁견뎌	-13728
▁끌어들	-13729
▁재고	-13730
▁침투	-13731
▁말씀은	-13732
변이	-13733
름한	-13734
▁59	-13735
여덟	-13736
▁멀쩡	-13737
▁긍정적	-13738
전도	-13739
▁비판이	-13740
▁방식에	-13741
▁주장한	-13742
▁직장을	-13743
▁연구하는	-13744
▁권위를	-13745
▁자들이	-13746
▁알았어요	-13747
▁어머님	-13748
▁일어나서	-13749
▁방문해	-13750
▁아기를	-13751
▁바빠	-13752
▁주인은	-13753
▁李	-13754
▁갔던	-13755
▁녹아	-13756
▁김병	-13757
▁주시면	-13758
▁金	-13759
▁어둡	-13760
▁사촌	-13761
▁중고	-13762
▁엘리트	-13763
▁원장	-13764
▁상영	-13765
▁유감	-13766
ition	-13767
사님	-13768
▁받아들이고	-13769
▁전신	-13770
손이	-13771
▁답변을	-13772
었나	-13773
보에	-13774
▁가방	-13775
▁개통	-13776
▁다툼	-13777
▁의결	-13778
▁후보로	-13779
함의	-13780
▁차례로	-13781
▁der	-13782
▁밝히는	-13783
▁모으고	-13784
▁살지	-13785
▁치솟	-13786
▁발견하고	-13787
생활에	-13788
pl	-13789
▁담임	-13790
▁기대된다	-13791
▁객관적으로	-13792
채권	-13793
▁맞물	-13794
▁능력은	-13795
▁임금을	-13796
▁특혜	-13797
▁자연히	-13798
▁한없이	-13799
▁묘한	-13800
▁활동은	-13801
겠냐	-13802
▁모스크	-13803
조치	-13804
▁위태	-13805
▁아리스토	-13806
칠십	-13807
▁저소득	-13808
▁옵	-13809
▁불균	-13810
▁미안해	-13811
▁쌓인	-13812
▁입장이다	-13813
▁일으킬	-13814
▁가꾸	-13815
▁12.	-13816
▁남성의	-13817
▁하느님의	-13818
▁가방을	-13819
▁답했다	-13820
▁박물	-13821
▁스파	-13822
▁얻지	-13823
그럼요	-13824
▁40%	-13825
▁문화에	-13826
라야	-13827
▁삼국	-13828
▁우리나라에	-13829
▁올라갔다	-13830
빈의	-13831
삼성	-13832
▁알면서도	-13833
루살렘	-13834
질적인	-13835
▁양상을	-13836
▁학생을	-13837
▁못한다는	-13838
)」	-13839
▁때로	-13840
▁됐다고	-13841
▁낀	-13842
▁소리도	-13843
▁그때까지	-13844
New	-13845
들까지	-13846
나라에	-13847
▁무선	-13848
▁단백질	-13849
▁괜찮아요	-13850
▁내놓고	-13851
▁뽀	-13852
▁덕분	-13853
간다는	-13854
작이	-13855
▁대인	-13856
인터넷	-13857
▁생략	-13858
▁바이오	-13859
▁판단할	-13860
가리	-13861
지던	-13862
하다면	-13863
▁계획은	-13864
▁오라	-13865
▁원정	-13866
▁세일즈	-13867
격으로	-13868
▁위해선	-13869
▁들었는데	-13870
▁일상적인	-13871
▁탈북	-13872
석에서	-13873
▁정규직	-13874
▁시시	-13875
▁자국	-13876
▁com	-13877
▁쓰러져	-13878
......,	-13879
중에서	-13880
▁고민이	-13881
공정	-13882
▁마을을	-13883
▁기자회견	-13884
▁놀고	-13885
시대에	-13886
▁퉁	-13887
▁함유	-13888
▁베어	-13889
▁육아	-13890
노라	-13891
▁던진	-13892
▁날아가	-13893
▁당당하게	-13894
▁복음	-13895
메이	-13896
▁설명한다	-13897
▁시작하여	-13898
▁릴	-13899
유는	-13900
▁기득	-13901
▁초등학생	-13902
노는	-13903
▁마신	-13904
▁유성	-13905
▁있냐	-13906
비한	-13907
▁농협	-13908
▁이완	-13909
되었지만	-13910
▁시작합니다	-13911
▁신축	-13912
▁능력과	-13913
▁사용해	-13914
~18	-13915
▁성의	-13916
그러다	-13917
ER	-13918
▁일고	-13919
▁첨가	-13920
▁시각을	-13921
▁경제적으로	-13922
▁임상	-13923
▁분석한	-13924
경제적	-13925
▁잠겨	-13926
자들도	-13927
▁5%	-13928
▁모른다고	-13929
▁재판을	-13930
▁부인의	-13931
▁물리적	-13932
▁국민들은	-13933
바퀴	-13934
준표	-13935
▁보복	-13936
▁중요하지만	-13937
▁운이	-13938
▁팀을	-13939
▁따라가	-13940
▁물고기	-13941
4,	-13942
보수	-13943
▁숭배	-13944
▁해독	-13945
▁지향하는	-13946
▁사람이라고	-13947
▁당이	-13948
▁찻	-13949
▁불과했다	-13950
▁지켜보고	-13951
▁것뿐	-13952
▁삼는	-13953
▁정보는	-13954
▁우러	-13955
▁더불어민주당	-13956
생태	-13957
▁기대한다	-13958
▁살펴보고	-13959
▁굉장	-13960
▁정보통신	-13961
ous	-13962
추가	-13963
제일	-13964
덩이	-13965
기독교	-13966
미로	-13967
▁이마	-13968
▁안전하게	-13969
▁좇	-13970
▁플랫폼	-13971
▁못했습니다	-13972
저축	-13973
하자고	-13974
▁결정했다	-13975
▁알아듣	-13976
▁스튜디오	-13977
집의	-13978
▁명성을	-13979
▁모양으로	-13980
설은	-13981
보다가	-13982
뭐야	-13983
▁룰	-13984
등의	-13985
ath	-13986
▁반쯤	-13987
▁사자	-13988
▁비리	-13989
▁어느덧	-13990
▁벌어졌다	-13991
론으로	-13992
하든	-13993
▁공공기관	-13994
▁나가면	-13995
▁활발하게	-13996
▁쑤	-13997
▁66	-13998
▁가격에	-13999
ma	-14000
▁검정	-14001
▁결혼한	-14002
▁관행	-14003
▁트위	-14004
▁들어서는	-14005
▁시공	-14006
▁양은	-14007
▁영역에	-14008
▁포함된	-14009
▁것인가를	-14010
▁공식적인	-14011
▁사면	-14012
강이	-14013
▁대답이	-14014
▁영어로	-14015
▁우리들	-14016
▁폴란드	-14017
▁정무	-14018
▁초라	-14019
▁현실은	-14020
朝鮮	-14021
▁연휴	-14022
▁자료가	-14023
▁미국으로	-14024
▁특징이다	-14025
▁금융기관	-14026
▁끄는	-14027
▁꼼꼼히	-14028
국장	-14029
▁문장을	-14030
▁버리지	-14031
▁말하였다	-14032
환의	-14033
▁개시	-14034
▁분야를	-14035
▁주실	-14036
▁기대가	-14037
▁노골	-14038
▁기존에	-14039
▁85	-14040
▁저택	-14041
▁하느님	-14042
객이	-14043
▁결핍	-14044
▁창문	-14045
▁비명을	-14046
▁있고네	-14047
▁성공했다	-14048
▁막혀	-14049
▁수소	-14050
▁다이어트	-14051
▁누구의	-14052
▁문화재	-14053
션이	-14054
▁의심을	-14055
▁엔진	-14056
▁천문학	-14057
▁마을의	-14058
CA	-14059
호로	-14060
국가의	-14061
▁방식의	-14062
▁]	-14063
▁기인	-14064
▁자체로	-14065
▁만주	-14066
▁가늘	-14067
▁점수	-14068
▁가량	-14069
▁친정	-14070
▁성사	-14071
▁바다에	-14072
▁슬쩍	-14073
▁늘어날	-14074
▁추방	-14075
▁성분이	-14076
▁있었지	-14077
환은	-14078
▁친구들은	-14079
▁호의	-14080
▁내부에서	-14081
▁무엇이든	-14082
▁숙박	-14083
▁그곳을	-14084
▁챔피언	-14085
▁준수	-14086
▁여성들은	-14087
▁5000	-14088
▁시점에	-14089
▁영혼의	-14090
▁포기하지	-14091
시킴으로써	-14092
▁사고로	-14093
▁바늘	-14094
▁지탱	-14095
▁보상을	-14096
고네	-14097
▁남겼다	-14098
▁웃으면서	-14099
▁아스	-14100
▁국회에	-14101
▁나을	-14102
▁모욕	-14103
▁됐던	-14104
에의	-14105
▁주인공은	-14106
▁원동	-14107
▁믿었다	-14108
▁여자들은	-14109
▁스미	-14110
▁아팠	-14111
▁범행	-14112
▁추진할	-14113
▁홈런	-14114
▁납치	-14115
▁쪽은	-14116
▁싱가포르	-14117
▁아베	-14118
▁각별	-14119
▁악의	-14120
▁관리가	-14121
▁국민들	-14122
주년	-14123
▁건물이	-14124
▁제고	-14125
하기까지	-14126
두가	-14127
▁말자	-14128
▁활성화를	-14129
팀은	-14130
판에서	-14131
▁은근히	-14132
▁나름의	-14133
▁궁금해	-14134
▁있을지도	-14135
▁68	-14136
▁권고	-14137
▁보유한	-14138
생물	-14139
▁저널	-14140
왔는데	-14141
▁일이지만	-14142
the	-14143
들이는	-14144
▁유지하기	-14145
방안	-14146
▁것만은	-14147
동에서	-14148
▁반응은	-14149
▁압축	-14150
▁처형	-14151
▁운동에	-14152
▁도래	-14153
급히	-14154
▁흘려	-14155
▁입구	-14156
▁그분이	-14157
▁리스크	-14158
▁익히	-14159
▁존재는	-14160
▁말미암아	-14161
▁얼룩	-14162
▁감사를	-14163
▁대중의	-14164
▁마련한	-14165
▁유용한	-14166
▁마술	-14167
▁나오기	-14168
▁불필요한	-14169
▁프로그램은	-14170
▁자궁	-14171
맣게	-14172
▁게으	-14173
공동체	-14174
▁세월을	-14175
▁삼천	-14176
▁남들이	-14177
▁인물로	-14178
봉을	-14179
▁알리고	-14180
▁싸울	-14181
▁재개발	-14182
▁결정에	-14183
익은	-14184
포가	-14185
▁주위의	-14186
▁현역	-14187
▁98	-14188
▁불량	-14189
▁요시	-14190
▁간다고	-14191
▁제임스	-14192
▁바뀌는	-14193
▁無	-14194
▁기쁜	-14195
▁제공해	-14196
▁전략이	-14197
하셨습니다	-14198
▁들리	-14199
▁비슷하게	-14200
▁개선을	-14201
▁대상에	-14202
▁김해	-14203
▁술이	-14204
▁타자	-14205
▁해본	-14206
치도	-14207
▁굶주	-14208
▁끝났다	-14209
▁생각이다	-14210
▁용어를	-14211
디아	-14212
▁폐하	-14213
▁계세요	-14214
▁주석	-14215
▁서로가	-14216
▁결혼식	-14217
▁골고	-14218
▁신임	-14219
▁프랜	-14220
▁컴퓨터를	-14221
▁한국전쟁	-14222
▁부회	-14223
▁사다	-14224
▁좋아하지	-14225
▁현실에서	-14226
근로	-14227
▁옮김	-14228
오른	-14229
▁가르침	-14230
리포니아	-14231
ide	-14232
▁빌어	-14233
▁죽이는	-14234
▁오디	-14235
▁일정을	-14236
봐도	-14237
▁자동차를	-14238
인구	-14239
채가	-14240
박물관	-14241
▁물건이	-14242
▁덮어	-14243
▁하셨어요	-14244
▁이론은	-14245
▁잇는	-14246
실제로	-14247
▁과세	-14248
▁옮긴	-14249
조원	-14250
▁팀의	-14251
▁도가	-14252
모습	-14253
▁분석해	-14254
▁병에	-14255
▁있었다면	-14256
▁잊혀	-14257
▁완공	-14258
▁한껏	-14259
▁부시	-14260
▁즉위	-14261
▁당신도	-14262
▁동생이	-14263
▁그랬어요	-14264
토론	-14265
▁농사를	-14266
▁말이었다	-14267
▁희미	-14268
▁소수의	-14269
▁봐라	-14270
판으로	-14271
▁성공의	-14272
▁남이	-14273
▁내달	-14274
하였을	-14275
▁노력은	-14276
▁여기고	-14277
화하기	-14278
▁경우와	-14279
▁지구의	-14280
▁일어난다	-14281
▁et	-14282
▁끊임없는	-14283
▁눈썹	-14284
운전	-14285
▁단계로	-14286
▁강행	-14287
▁명백한	-14288
TO	-14289
▁까마	-14290
▁클레	-14291
▁엇갈	-14292
▁진압	-14293
▁메커니즘	-14294
▁진짜로	-14295
▁모습이다	-14296
▁보전	-14297
사업의	-14298
▁중요합니다	-14299
▁수행할	-14300
▁추모	-14301
▁싶다면	-14302
후를	-14303
▁받았고	-14304
저녁	-14305
▁하나다	-14306
아유	-14307
▁찾아가는	-14308
인권	-14309
▁메이저	-14310
▁원칙에	-14311
▁주문을	-14312
지향	-14313
▁번갈	-14314
희를	-14315
▁누적	-14316
▁일부가	-14317
▁영역에서	-14318
▁아니더라도	-14319
▁Le	-14320
▁유망	-14321
▁정책은	-14322
▁심장이	-14323
구먼	-14324
▁가보	-14325
▁떠들	-14326
▁망가	-14327
▁방학	-14328
▁낙관	-14329
티를	-14330
▁여왕	-14331
▁침몰	-14332
▁심리학	-14333
었으니	-14334
▁상하	-14335
▁발휘할	-14336
증의	-14337
타임	-14338
▁내신	-14339
▁무작정	-14340
▁후계	-14341
▁일구	-14342
사회에	-14343
문제가	-14344
업계	-14345
신도시	-14346
▁노인의	-14347
▁이제야	-14348
였죠	-14349
▁현실과	-14350
▁여성들의	-14351
▁하룻밤	-14352
▁기쁘	-14353
▁왔다는	-14354
튿날	-14355
▁열한	-14356
▁들으면서	-14357
유치	-14358
▁걱정하지	-14359
이나마	-14360
▁누리	-14361
▁서류를	-14362
▁태도로	-14363
▁가족들이	-14364
▁이야기에	-14365
▁연못	-14366
▁잇따라	-14367
▁x	-14368
▁찡	-14369
▁사라지는	-14370
▁애쓰	-14371
▁깨끗하게	-14372
▁거란	-14373
▁우뚝	-14374
사항을	-14375
유통	-14376
▁딸의	-14377
▁주둔	-14378
▁야당이	-14379
▁윤리적	-14380
업자	-14381
▁배는	-14382
▁백인	-14383
▁받아들이지	-14384
▁원칙적으로	-14385
▁천만	-14386
46	-14387
▁법은	-14388
이긴	-14389
▁넣어주	-14390
아파트	-14391
▁감정의	-14392
▁대구시	-14393
▁수단을	-14394
▁성격의	-14395
▁자기네	-14396
▁하고는	-14397
SA	-14398
▁면제	-14399
다만	-14400
플렉	-14401
▁주일	-14402
아트	-14403
마케팅	-14404
▁세종시	-14405
초등학교	-14406
▁인위	-14407
▁치밀	-14408
운의	-14409
할수록	-14410
▁순간을	-14411
▁환원	-14412
성이나	-14413
▁그레	-14414
▁하든	-14415
▁못지않게	-14416
▁동조	-14417
▁공인	-14418
▁바라고	-14419
300	-14420
▁발급	-14421
▁박물관	-14422
거니와	-14423
량에	-14424
▁납품	-14425
▁규모는	-14426
▁기울여	-14427
▁분석이	-14428
▁서양의	-14429
▁지진	-14430
▁대답은	-14431
직이	-14432
ris	-14433
▁키로	-14434
▁제외하고	-14435
▁미흡	-14436
▁나왔던	-14437
▁가마	-14438
림에	-14439
변화	-14440
▁주방	-14441
▁고혈압	-14442
부도	-14443
▁앓고	-14444
▁마리의	-14445
▁매니저	-14446
▁이름도	-14447
▁첫째는	-14448
▁확신을	-14449
바람이	-14450
▁요청을	-14451
▁클래식	-14452
슨이	-14453
합의	-14454
▁브레	-14455
▁협력을	-14456
ft	-14457
언니	-14458
▁깨닫고	-14459
▁바꾸고	-14460
주아	-14461
▁중지	-14462
▁경험한	-14463
▁중재	-14464
▁버섯	-14465
▁음악이	-14466
▁형이상	-14467
▁여자와	-14468
나물	-14469
▁했잖아요	-14470
한테도	-14471
▁모습이었다	-14472
▁틈을	-14473
bert	-14474
▁구부	-14475
▁받았습니다	-14476
▁모자를	-14477
▁하셨는데	-14478
▁교실	-14479
▁일삼	-14480
▁되었으며	-14481
▁못했지만	-14482
▁불어넣	-14483
▁뒤따	-14484
단에서	-14485
▁프로이트	-14486
orld	-14487
▁공허	-14488
▁마비	-14489
▁전주	-14490
해지기	-14491
▁것에서	-14492
▁못했고	-14493
▁학기	-14494
했는데요	-14495
까진	-14496
▁면을	-14497
▁백두	-14498
▁설령	-14499
▁특징이	-14500
약품	-14501
▁밸	-14502
아홉	-14503
이천	-14504
▁유죄	-14505
▁이불	-14506
▁느끼며	-14507
▁예루살렘	-14508
운용	-14509
▁al	-14510
▁열광	-14511
▁제압	-14512
우스는	-14513
▁회상	-14514
▁아름답게	-14515
갔고	-14516
▁양심	-14517
▁이광	-14518
▁역사적으로	-14519
은행은	-14520
응하는	-14521
▁방문한	-14522
▁취하는	-14523
▁기술은	-14524
▁도착했다	-14525
▁쉬지	-14526
▁재직	-14527
▁이튿날	-14528
▁제품이	-14529
▁주소	-14530
▁‘20	-14531
▁수익률	-14532
▁어울려	-14533
▁이야기의	-14534
▁전국의	-14535
▁능동	-14536
▁(5)	-14537
▁신속하게	-14538
▁반환	-14539
▁실효	-14540
가슴	-14541
▁장사를	-14542
▁사물을	-14543
▁판매하는	-14544
타고	-14545
▁싶어하는	-14546
▁기록하고	-14547
약성	-14548
▁국민의당	-14549
▁생각해야	-14550
nal	-14551
▁상무	-14552
▁차갑	-14553
은행의	-14554
▁나만	-14555
▁비결	-14556
▁심정	-14557
▁아이러	-14558
▁이루어져야	-14559
ug	-14560
▁ed	-14561
▁알려주	-14562
▁않으면서	-14563
▁마냥	-14564
▁목록	-14565
▁비율은	-14566
▁아래에서	-14567
▁떴다	-14568
▁PR	-14569
▁동구	-14570
▁신호를	-14571
▁존엄	-14572
▁찬양	-14573
웠습니다	-14574
마마	-14575
▁꼬리를	-14576
자료를	-14577
▁명으로	-14578
▁변한	-14579
▁사제	-14580
해져서	-14581
▁데려다	-14582
▁값이	-14583
▁문명의	-14584
▁위협을	-14585
▁유승민	-14586
▁바꿨	-14587
▁지성	-14588
▁더더욱	-14589
▁과언이	-14590
▁마마	-14591
렬하게	-14592
▁지내고	-14593
▁이유에서	-14594
▁밝아	-14595
▁이분이	-14596
시키며	-14597
▁좋지만	-14598
▁원전	-14599
▁찾아내	-14600
▁늘어나는	-14601
분들	-14602
▁증가한	-14603
▁들어섰다	-14604
신청	-14605
▁멍청	-14606
▁놈은	-14607
▁해결해	-14608
황의	-14609
▁인도네시아	-14610
센트를	-14611
▁죽음이	-14612
▁실력이	-14613
▁위험에	-14614
▁역전	-14615
▁변하는	-14616
녀를	-14617
▁문화예술	-14618
▁시대적	-14619
팀이	-14620
▁날개	-14621
▁경찰의	-14622
▁빠뜨	-14623
였으나	-14624
▁떠나지	-14625
▁일본과	-14626
▁언론이	-14627
▁보시는	-14628
72	-14629
그동안	-14630
▁위주의	-14631
▁건강하게	-14632
▁죽게	-14633
자금을	-14634
▁함은	-14635
▁흔적이	-14636
사이트	-14637
▁버스를	-14638
▁달라진다	-14639
호흡	-14640
▁아니냐는	-14641
부산	-14642
▁베네	-14643
▁기업과	-14644
업의	-14645
▁흘렀다	-14646
▁사적	-14647
▁기지	-14648
▁자매	-14649
▁장기적인	-14650
▁교회에	-14651
▁논리적	-14652
▁그것들을	-14653
old	-14654
▁잔디	-14655
세계의	-14656
▁환경에서	-14657
▁공고	-14658
▁절로	-14659
스도	-14660
▁보고는	-14661
잡을	-14662
▁수화	-14663
기업이	-14664
▁않은데	-14665
들과는	-14666
▁공간에	-14667
▁나타내고	-14668
▁불길	-14669
교회의	-14670
▁시작하고	-14671
▁예술가	-14672
▁드러냈다	-14673
겠구나	-14674
▁지지하는	-14675
오늘은	-14676
▁오피스텔	-14677
▁법의	-14678
▁그림자	-14679
▁없으므로	-14680
▁할아버지가	-14681
▁우호	-14682
▁음반	-14683
▁조언을	-14684
하우스	-14685
오리	-14686
▁가이드	-14687
▁사실과	-14688
▁종족	-14689
▁당사자	-14690
▁본인은	-14691
▁만져	-14692
작용이	-14693
▁대문	-14694
마음	-14695
되었기	-14696
▁하얗게	-14697
▁베를린	-14698
▁장소에	-14699
왜냐면	-14700
▁기적	-14701
▁유신	-14702
▁아니잖아요	-14703
라면서	-14704
레이드	-14705
하였다고	-14706
▁나이를	-14707
리아는	-14708
▁일환으로	-14709
int	-14710
▁대성	-14711
▁졸업하고	-14712
▁성능	-14713
드리는	-14714
▁돌아오지	-14715
▁쓸데없는	-14716
▁말이냐	-14717
▁키우고	-14718
그러면서	-14719
▁95	-14720
분양	-14721
▁해에	-14722
문제는	-14723
▁만나지	-14724
▁휴식을	-14725
▁재앙	-14726
▁은폐	-14727
▁선조	-14728
▁인간적인	-14729
국어	-14730
▁단골	-14731
사일	-14732
지노	-14733
tiv	-14734
▁종교의	-14735
▁신도시	-14736
▁돌아가고	-14737
66	-14738
▁책으로	-14739
▁우리나라가	-14740
▁계실	-14741
▁언뜻	-14742
rans	-14743
▁열리고	-14744
▁이따금	-14745
▁돌아가신	-14746
▁큐	-14747
득한	-14748
▁않았어	-14749
▁뇌물	-14750
▁기다릴	-14751
▁낙찰	-14752
▁듣게	-14753
▁프리미엄	-14754
arl	-14755
표는	-14756
▁보신	-14757
▁민주당이	-14758
▁자녀가	-14759
▁땜에	-14760
▁이사를	-14761
▁힘입어	-14762
gl	-14763
▁공장을	-14764
▁들었을	-14765
준의	-14766
▁김광	-14767
▁발생했다	-14768
▁손가락을	-14769
▁정면으로	-14770
▁값을	-14771
감치	-14772
▁예능	-14773
▁끼어들	-14774
▁들으	-14775
▁장려	-14776
▁조사에	-14777
▁벌을	-14778
▁오프	-14779
▁보고서를	-14780
▁중순	-14781
옛날	-14782
해지면	-14783
▁이것저것	-14784
마크	-14785
▁신랑	-14786
대강	-14787
설계	-14788
천에	-14789
▁어미	-14790
▁대가를	-14791
▁여수	-14792
▁일반적	-14793
이용	-14794
스케	-14795
▁상생	-14796
▁모시	-14797
▁모르겠는데	-14798
케스트	-14799
▁멀리서	-14800
▁침을	-14801
청소년	-14802
▁1945	-14803
▁있음에도	-14804
▁몸에서	-14805
▁버린다	-14806
목은	-14807
▁불려	-14808
▁관점을	-14809
▁시기는	-14810
▁직전에	-14811
거기에	-14812
▁프린	-14813
▁매력을	-14814
▁성명	-14815
▁제어	-14816
▁차로	-14817
49	-14818
효율	-14819
oll	-14820
운동은	-14821
통화	-14822
▁증진	-14823
▁비서실	-14824
▁선호하는	-14825
▁않겠다는	-14826
초에	-14827
▁체계적인	-14828
▁절을	-14829
▁껍질	-14830
▁봤어	-14831
▁양극	-14832
어버린	-14833
월호	-14834
공무원	-14835
네네네	-14836
더니즘	-14837
▁꿈에	-14838
계층	-14839
▁왔다고	-14840
▁흘리며	-14841
▁생리	-14842
▁혼란을	-14843
닙니다	-14844
▁언제부터	-14845
▁여유를	-14846
▁플러스	-14847
▁진전	-14848
▁처해	-14849
7,	-14850
▁아무렇	-14851
▁생각했	-14852
▁사람입니다	-14853
▁대수	-14854
▁민속	-14855
▁가정에서	-14856
가정	-14857
▁법조	-14858
▁읊	-14859
▁찜	-14860
▁강조한	-14861
▁확고한	-14862
레의	-14863
회계	-14864
▁뜻은	-14865
▁감각을	-14866
▁멍하니	-14867
▁자세가	-14868
▁평가는	-14869
티는	-14870
▁심층	-14871
▁필자가	-14872
▁물질적	-14873
▁열흘	-14874
책으로	-14875
▁주먹을	-14876
전국	-14877
민주연합	-14878
▁일주일에	-14879
▁수색	-14880
▁800	-14881
▁침체	-14882
▁능력에	-14883
▁문제들을	-14884
▁재미있게	-14885
▁오셨	-14886
▁체력	-14887
소리로	-14888
▁수사가	-14889
▁원장은	-14890
목의	-14891
통제	-14892
▁쿠데	-14893
▁편을	-14894
▁기술과	-14895
▁바라볼	-14896
▁진작	-14897
교과	-14898
▁고리	-14899
▁어쩌다	-14900
▁참여해	-14901
▁해당되는	-14902
당할	-14903
받게	-14904
▁5,	-14905
▁소재로	-14906
▁걷기	-14907
수리	-14908
협정	-14909
▁대면	-14910
▁변명	-14911
▁예가	-14912
▁인도의	-14913
▁꿈과	-14914
▁의사는	-14915
▁세분	-14916
ier	-14917
▁국회가	-14918
악을	-14919
▁41	-14920
▁과시	-14921
▁마이크	-14922
▁찼	-14923
▁없었다는	-14924
결의	-14925
법률	-14926
▁공이	-14927
▁급진	-14928
▁더러운	-14929
▁시민단체	-14930
애는	-14931
▁메리	-14932
▁전무	-14933
▁자극을	-14934
▁즈음	-14935
▁근로자	-14936
▁나가지	-14937
업이	-14938
▁여건	-14939
▁아내에게	-14940
▁절대적으로	-14941
부담	-14942
▁조사가	-14943
찮은	-14944
▁아니고요	-14945
진다는	-14946
▁치명적인	-14947
기부	-14948
철은	-14949
▁탄탄	-14950
▁높았다	-14951
:1	-14952
▁이루지	-14953
▁편에	-14954
▁설치된	-14955
▁자리잡고	-14956
▁가급	-14957
중독	-14958
▁프란	-14959
▁하자는	-14960
▁한국당	-14961
▁환자를	-14962
▁대출을	-14963
▁wh	-14964
▁유월	-14965
▁공평	-14966
▁지키지	-14967
기금	-14968
만명	-14969
▁소지	-14970
▁판사	-14971
▁믿음이	-14972
▁비판적	-14973
▁인프라	-14974
▁재밌는	-14975
▁남자들이	-14976
▁손톱	-14977
▁무너져	-14978
▁발표된	-14979
▁창조적	-14980
▁보시죠	-14981
IP	-14982
▁당원	-14983
▁양국	-14984
생활의	-14985
▁순으로	-14986
▁유대인	-14987
▁어딜	-14988
만약에	-14989
▁되나요	-14990
▁활발한	-14991
▁투수	-14992
▁산다는	-14993
▁설명이다	-14994
▁숱	-14995
찌감치	-14996
▁원래는	-14997
ein	-14998
▁본질적으로	-14999
▁급하게	-15000
▁연결하는	-15001
▁레오	-15002
▁무늬	-15003
장하고	-15004
▁가다	-15005
해준	-15006
▁띄는	-15007
기계	-15008
벨트	-15009
신학	-15010
▁무너뜨	-15011
▁뾰	-15012
▁향하는	-15013
천억	-15014
▁株	-15015
▁삭제	-15016
▁갈아입	-15017
▁작업에	-15018
경으로	-15019
▁여부에	-15020
▁인간에	-15021
상도	-15022
▁주며	-15023
▁사람이나	-15024
시키려는	-15025
▁이러면서	-15026
▁하나이다	-15027
▁가져가	-15028
데미	-15029
▁남짓	-15030
▁샤워	-15031
▁포스코	-15032
▁250	-15033
▁아니오	-15034
▁머뭇	-15035
▁조약	-15036
신도	-15037
▁여론이	-15038
▁호랑이	-15039
루의	-15040
▁측이	-15041
▁들리지	-15042
▁사람들이다	-15043
교안	-15044
▁살을	-15045
▁하구요	-15046
▁자발적으로	-15047
▁보이는데	-15048
▁출동	-15049
효과를	-15050
▁귀중한	-15051
▁시민사회	-15052
▁페미	-15053
어가지고	-15054
▁인형	-15055
대도	-15056
시켜서	-15057
▁만나러	-15058
ᆞ김	-15059
form	-15060
▁빠졌다	-15061
▁설비	-15062
▁여보	-15063
▁쥐어	-15064
▁시인이	-15065
성이다	-15066
▁서구의	-15067
▁솔직하게	-15068
▁필요합니다	-15069
oy	-15070
▁지적을	-15071
▁이어진다	-15072
해방	-15073
▁만들지	-15074
▁어우러	-15075
▁집회	-15076
▁매출이	-15077
▁애초에	-15078
▁고려해야	-15079
▁않을까요	-15080
▁개그	-15081
▁예산이	-15082
짓는	-15083
▁김두	-15084
▁떨고	-15085
어제	-15086
과세	-15087
▁회고	-15088
복음	-15089
부처	-15090
▁요동	-15091
▁에어컨	-15092
▁구글	-15093
▁평가할	-15094
▁리포	-15095
▁사명	-15096
▁히로	-15097
당신이	-15098
▁일컫	-15099
▁수준에서	-15100
조각	-15101
치다	-15102
▁끼어	-15103
▁해수	-15104
▁지적하고	-15105
▁페이스북	-15106
▁무소속	-15107
▁춥	-15108
7%	-15109
무니	-15110
▁제도의	-15111
▁신생	-15112
▁상황과	-15113
▁어울리지	-15114
▁터널	-15115
았으며	-15116
▁플라스틱	-15117
곳에	-15118
▁엠비	-15119
▁구조조	-15120
▁상상을	-15121
▁볼까요	-15122
▁없어진	-15123
▁있네요	-15124
이거는	-15125
▁치며	-15126
▁미니	-15127
▁방위	-15128
▁하루가	-15129
타르	-15130
▁줄도	-15131
▁바지	-15132
▁세울	-15133
▁부모를	-15134
교에	-15135
▁전쟁은	-15136
▁않겠는가	-15137
▁먹게	-15138
▁걸어서	-15139
민주주의	-15140
▁다가와	-15141
▁포함하는	-15142
▁거느리고	-15143
▁광범위한	-15144
도다	-15145
▁동창	-15146
▁이야기다	-15147
▁•	-15148
현을	-15149
▁배정	-15150
▁컨셉	-15151
▁정도만	-15152
▁앞으로의	-15153
▁자랑하는	-15154
나기	-15155
이신	-15156
상대	-15157
▁캘리포니아	-15158
▁팽팽	-15159
어지게	-15160
▁이름의	-15161
쯤에	-15162
▁꿰뚫	-15163
▁사물의	-15164
▁하늘에서	-15165
원인	-15166
운송	-15167
▁교정	-15168
▁얼어붙	-15169
▁철학을	-15170
대며	-15171
~30	-15172
▁영화에	-15173
▁전에도	-15174
▁마련했다	-15175
▁분명했다	-15176
▁분해	-15177
말의	-15178
시마	-15179
포로	-15180
▁느닷	-15181
▁도를	-15182
▁보았던	-15183
▁적용되는	-15184
빈이	-15185
▁현실적	-15186
▁변혁	-15187
▁고유의	-15188
▁들어야	-15189
▁52	-15190
▁교역	-15191
▁마라톤	-15192
▁페이지	-15193
▁없잖아	-15194
▁넣을	-15195
▁가나	-15196
▁中	-15197
▁구성요	-15198
▁습관이	-15199
▁구슬	-15200
▁동방	-15201
▁재해	-15202
▁후속	-15203
자였다	-15204
▁건전한	-15205
▁다룰	-15206
코의	-15207
▁이같이	-15208
말은	-15209
▁보여주었다	-15210
▁넘은	-15211
문제에	-15212
근이	-15213
▁그치	-15214
▁빛의	-15215
세종	-15216
들기	-15217
▁뒤의	-15218
▁병역	-15219
▁약혼	-15220
▁비스	-15221
사전	-15222
▁착용	-15223
▁즐기고	-15224
로부터의	-15225
▁급기야	-15226
▁군의	-15227
회사가	-15228
▁시대는	-15229
▁진흙	-15230
▁民	-15231
▁피터	-15232
▁아름답고	-15233
▁랜	-15234
▁되니	-15235
▁11.	-15236
▁매력적인	-15237
▁우회	-15238
▁골고루	-15239
▁바람직하다	-15240
▁암흑	-15241
▁어젯	-15242
▁학업	-15243
▁말려	-15244
▁평론가	-15245
달에	-15246
▁물의	-15247
겠니	-15248
▁3000	-15249
어우	-15250
▁인물의	-15251
탄의	-15252
▁카운	-15253
▁잔인	-15254
바이트	-15255
▁품에	-15256
▁측의	-15257
▁고통이	-15258
완전	-15259
쳤던	-15260
▁편한	-15261
▁밖에도	-15262
▁절대적	-15263
▁도리어	-15264
▁사상의	-15265
▁성과가	-15266
▁공정한	-15267
▁던지는	-15268
▁중심을	-15269
▁가르침을	-15270
수석	-15271
▁없소	-15272
▁자원을	-15273
▁아이와	-15274
▁그래가지고	-15275
▁재수	-15276
act	-15277
▁치면	-15278
▁대주	-15279
▁방영	-15280
시에서	-15281
▁압력을	-15282
▁오월	-15283
▁인성	-15284
▁많지만	-15285
만약	-15286
죄송	-15287
▁기초로	-15288
차원	-15289
▁굵은	-15290
▁붙잡고	-15291
▁인식의	-15292
▁아름다움을	-15293
▁토로	-15294
▁냉장고	-15295
▁사항은	-15296
▁성별	-15297
▁기억해	-15298
▁미련	-15299
▁비관	-15300
▁손실	-15301
44	-15302
▁창설	-15303
아무리	-15304
화해	-15305
거지	-15306
레일	-15307
▁뛰는	-15308
▁주면서	-15309
께끼	-15310
비율	-15311
▁따위는	-15312
▁미적	-15313
▁아미	-15314
▁양파	-15315
▁60%	-15316
▁국민적	-15317
▁안정된	-15318
▁로버트	-15319
▁울렸다	-15320
혈을	-15321
▁검거	-15322
▁곡을	-15323
▁지적한	-15324
▁비례대표	-15325
▁인구의	-15326
▁놓을	-15327
▁마셔	-15328
▁봄이	-15329
▁옮기	-15330
▁동안은	-15331
로드	-15332
▁고운	-15333
▁그림은	-15334
반도	-15335
센터를	-15336
▁떠나서	-15337
▁문자를	-15338
▁본래의	-15339
▁법적으로	-15340
▁퀴즈	-15341
▁분에	-15342
상이다	-15343
▁안경	-15344
▁타이밍	-15345
▁행사에	-15346
우리나라	-15347
▁사람들로	-15348
▁직원들의	-15349
▁탈락	-15350
▁표현은	-15351
▁국민에게	-15352
▁잡힌	-15353
▁노르	-15354
스트로	-15355
▁르네	-15356
당으로	-15357
▁고마워	-15358
▁교사가	-15359
▁전까지는	-15360
▁위법	-15361
▁온도	-15362
▁시끄러	-15363
ondon	-15364
람회	-15365
▁일인가	-15366
▁공짜	-15367
▁부당한	-15368
▁부모와	-15369
▁손쉽게	-15370
▁들어가지	-15371
▁바뀌고	-15372
▁외곽	-15373
▁찾아왔다	-15374
▁논문을	-15375
▁뵈	-15376
▁내서	-15377
▁남아있	-15378
▁내놨	-15379
▁칼럼	-15380
▁적절하게	-15381
철을	-15382
피가	-15383
▁부임	-15384
▁결심을	-15385
▁참여하고	-15386
년도에	-15387
모로	-15388
▁거시	-15389
▁높였다	-15390
▁공동체의	-15391
▁계집	-15392
▁불리한	-15393
71	-15394
▁│	-15395
께서도	-15396
사람들이	-15397
▁같구요	-15398
▁고려할	-15399
▁돌아다	-15400
▁기아	-15401
윤리	-15402
▁번호	-15403
▁전념	-15404
▁정진	-15405
▁위해서도	-15406
▁꾸려	-15407
▁며느리	-15408
▁란	-15409
채는	-15410
▁합의가	-15411
▁환경의	-15412
▁아일랜드	-15413
사회를	-15414
▁행하는	-15415
▁궁궐	-15416
▁커서	-15417
▁흔한	-15418
됐지만	-15419
하셔야	-15420
▁글쎄요	-15421
▁민감한	-15422
▁즐거워	-15423
가능한	-15424
여기서	-15425
▁군주	-15426
▁범죄를	-15427
▁있기를	-15428
▁페르시아	-15429
▁대도시	-15430
▁일어섰다	-15431
eth	-15432
▁근대적	-15433
▁공기가	-15434
▁창문을	-15435
▁요구되는	-15436
▁예견	-15437
▁원주민	-15438
ech	-15439
▁통증이	-15440
했으니	-15441
▁모았다	-15442
하였다는	-15443
▁따뜻하게	-15444
▁온전히	-15445
▁분위기는	-15446
폴리오	-15447
▁나왔을	-15448
레이션	-15449
▁철회	-15450
▁반란	-15451
▁속속	-15452
▁떨리는	-15453
▁넓게	-15454
▁변수	-15455
▁김영삼	-15456
▁여인은	-15457
▁전문적인	-15458
▁정기적으로	-15459
▁노선	-15460
▁분석하고	-15461
▁전국적으로	-15462
스티벌	-15463
고용	-15464
▁선별	-15465
▁거구요	-15466
ystem	-15467
▁기회에	-15468
▁거지요	-15469
▁日	-15470
▁중에도	-15471
▁활동하고	-15472
▁있기도	-15473
br	-15474
▁통행	-15475
▁원형	-15476
▁있지는	-15477
▁내려오는	-15478
밀리	-15479
▁총독	-15480
인력	-15481
페이	-15482
▁배로	-15483
▁상주	-15484
▁미용	-15485
▁지역구	-15486
▁with	-15487
▁알바	-15488
네의	-15489
▁예뻐	-15490
중학교	-15491
▁자전거를	-15492
각각	-15493
▁잘할	-15494
했을까	-15495
물었다	-15496
▁세입	-15497
▁학교는	-15498
▁학살	-15499
한은	-15500
enc	-15501
▁마음과	-15502
올린	-15503
▁본질적인	-15504
▁복사	-15505
▁깨뜨	-15506
그릇	-15507
▁소원	-15508
▁전승	-15509
▁두려움을	-15510
▁다이아	-15511
▁것이었습니다	-15512
▁규제를	-15513
우선	-15514
▁불합	-15515
▁섭섭	-15516
▁달콤한	-15517
▁계속되는	-15518
▁도와주는	-15519
▁깨우	-15520
▁상향	-15521
▁하루는	-15522
죽을	-15523
▁스위스	-15524
안으로	-15525
▁소설가	-15526
▁때문인지	-15527
▁에너지가	-15528
▁판단하는	-15529
▁벽돌	-15530
▁스탈	-15531
이라고는	-15532
▁어려웠다	-15533
보면서	-15534
▁전두환	-15535
송이	-15536
▁"'	-15537
병으로	-15538
여명이	-15539
끈한	-15540
▁돌이켜	-15541
▁의사결	-15542
▁남자들은	-15543
▁매운	-15544
▁클라	-15545
▁전략은	-15546
판의	-15547
▁대담	-15548
▁인물이다	-15549
▁잘생	-15550
▁비율을	-15551
▁선수는	-15552
▁코리아	-15553
▁해석이	-15554
▁새해	-15555
▁펼치고	-15556
▁꼬마	-15557
▁원하지	-15558
▁했고요	-15559
소개	-15560
▁고뇌	-15561
▁수급	-15562
▁1~2	-15563
아름	-15564
▁현직	-15565
▁부드러	-15566
기술을	-15567
▁오르고	-15568
▁얌	-15569
▁LH	-15570
▁고아	-15571
▁질문은	-15572
▁준다는	-15573
▁관계자	-15574
▁붙이고	-15575
▁지방자치단체	-15576
놈이	-15577
표의	-15578
▁구워	-15579
FC	-15580
마리	-15581
▁선뜻	-15582
▁아라	-15583
▁폭이	-15584
▁터였다	-15585
▁하라는	-15586
주신	-15587
스러울	-15588
▁물음에	-15589
▁있더라도	-15590
▁만났을	-15591
▁의미와	-15592
▁☞	-15593
▁언어로	-15594
저를	-15595
▁레드	-15596
▁소홀히	-15597
들하고	-15598
투자를	-15599
▁강하다	-15600
▁나왔어요	-15601
▁넘어가는	-15602
온은	-15603
▁앵커	-15604
▁질을	-15605
▁묻은	-15606
▁포지	-15607
▁어두워	-15608
선가	-15609
▁없네	-15610
▁되느냐	-15611
▁빠지게	-15612
▁못합니다	-15613
잡이	-15614
▁전지	-15615
ha	-15616
하자마자	-15617
체제의	-15618
▁범주	-15619
▁제게	-15620
▁보이게	-15621
▁쫙	-15622
▁끈질	-15623
▁우편	-15624
▁찍고	-15625
▁자료에	-15626
▁사람인	-15627
▁이러면	-15628
▁간절히	-15629
▁내용도	-15630
▁강구	-15631
▁영감	-15632
▁생각하십니까	-15633
▁종전	-15634
년간의	-15635
초의	-15636
▁먹여	-15637
▁나간다	-15638
92	-15639
▁추격	-15640
▁출장	-15641
▁내려온	-15642
▁벅	-15643
▁행동의	-15644
▁보더라도	-15645
▁둬	-15646
▁사월	-15647
meric	-15648
피는	-15649
▁태어났다	-15650
▁광경을	-15651
▁기관이	-15652
▁해결해야	-15653
▁유병	-15654
그거는	-15655
백화점	-15656
제이	-15657
▁시켰	-15658
▁혁명의	-15659
▁북한에서	-15660
▁접목	-15661
▁별이	-15662
근을	-15663
지거나	-15664
▁지나갔다	-15665
▁수동	-15666
▁위생	-15667
신한	-15668
▁담론	-15669
▁잉글	-15670
▁달라붙	-15671
▁다녔다	-15672
▁묻는다	-15673
▁한번도	-15674
시행	-15675
▁명도	-15676
▁양주	-15677
▁말하기를	-15678
▁규칙을	-15679
▁지원할	-15680
▁깎아	-15681
▁흔적을	-15682
up	-15683
기반	-15684
임의	-15685
▁먼지	-15686
책은	-15687
모니	-15688
▁잡기	-15689
▁불쌍한	-15690
▁없는지	-15691
▁파헤	-15692
▁광화	-15693
▁나와요	-15694
▁다르고	-15695
▁하나님께	-15696
절차	-15697
▁놀라게	-15698
▁홍준표	-15699
▁십팔	-15700
▁어쩐지	-15701
▁패널	-15702
미에	-15703
포의	-15704
▁의사의	-15705
▁당첨	-15706
조약	-15707
트롤	-15708
▁고모	-15709
▁포함해서	-15710
야의	-15711
족한	-15712
▁경제에	-15713
백이	-15714
▁말아요	-15715
▁갈래	-15716
운은	-15717
▁요양	-15718
이라면서	-15719
증으로	-15720
▁의무가	-15721
▁공간에서	-15722
▁지원하고	-15723
▁IB	-15724
▁드시	-15725
▁중점을	-15726
▁역동	-15727
▁혈관	-15728
퍼스	-15729
▁가전	-15730
▁기사는	-15731
▁실시하고	-15732
▁전하고	-15733
국내	-15734
니까네	-15735
▁파생	-15736
▁당대	-15737
▁십구	-15738
▁열이	-15739
▁로맨	-15740
▁아래서	-15741
▁괴로워	-15742
▁들으며	-15743
▁생각하니	-15744
뒀다	-15745
▁보았을	-15746
▁하늘과	-15747
ocial	-15748
▁여겼	-15749
트에서	-15750
▁있겠지	-15751
▁박원	-15752
▁가족은	-15753
개정	-15754
▁학력	-15755
▁훑어	-15756
▁우승을	-15757
▁엘리자	-15758
▁소유하고	-15759
▁해주세요	-15760
철의	-15761
▁간장	-15762
▁금전	-15763
▁착취	-15764
▁몰라서	-15765
▁개체	-15766
▁수단이	-15767
▁절도	-15768
▁비판하는	-15769
▁상정	-15770
▁公	-15771
▁계란	-15772
▁끝나지	-15773
술이	-15774
▁행위의	-15775
▁했다면	-15776
▁5,000	-15777
▁민중의	-15778
▁일인지	-15779
▁자녀의	-15780
▁정밀	-15781
▁극심한	-15782
▁목적에	-15783
▁수월	-15784
▁팽창	-15785
하고요	-15786
▁영혼이	-15787
▁군수	-15788
▁조롱	-15789
▁프라	-15790
▁하여야	-15791
▁해보고	-15792
행동	-15793
▁주워	-15794
▁거리는	-15795
▁목소리에	-15796
▁밝혔습니다	-15797
▁사회와	-15798
▁왕자	-15799
셨으면	-15800
▁생각만	-15801
▁햇빛	-15802
ournal	-15803
▁당했다	-15804
▁그에게는	-15805
▁88	-15806
▁권력이	-15807
▁모두의	-15808
▁향해서	-15809
▁기초를	-15810
▁글의	-15811
▁초보	-15812
≫,	-15813
티즌	-15814
급식	-15815
ner	-15816
▁하오	-15817
▁향하여	-15818
▁계획에	-15819
▁외부의	-15820
아우	-15821
▁눈과	-15822
▁뻔한	-15823
망의	-15824
▁지식인	-15825
▁다채	-15826
▁마십시오	-15827
안과	-15828
▁제기한	-15829
▁스펙	-15830
▁극복할	-15831
▁불에	-15832
▁가치와	-15833
막한	-15834
졌어	-15835
▁투쟁을	-15836
지역에서	-15837
지만은	-15838
▁산하	-15839
▁하수	-15840
▁규모를	-15841
▁시작이	-15842
▁단일화	-15843
▁산소	-15844
▁약탈	-15845
▁자신감이	-15846
▁이화	-15847
▁하에	-15848
▁자격을	-15849
▁허벅	-15850
▁몰락	-15851
▁번을	-15852
▁힘껏	-15853
▁다음달	-15854
▁다큐멘	-15855
하셨다	-15856
▁작업은	-15857
▁민족주의	-15858
▁사건과	-15859
▁부모님이	-15860
▁각국의	-15861
▁되므로	-15862
▁업무에	-15863
▁영장	-15864
▁현대차	-15865
▁700	-15866
▁포로	-15867
▁달리고	-15868
▁호흡을	-15869
이라기보다는	-15870
▁진동	-15871
▁연구개발	-15872
▁곤충	-15873
▁근접	-15874
▁아랑	-15875
73	-15876
는가를	-15877
라고요	-15878
▁싸우고	-15879
▁사람한테	-15880
브를	-15881
▁생활은	-15882
▁개나	-15883
▁플레	-15884
▁것까지	-15885
▁외국의	-15886
▁한결같이	-15887
▁벙	-15888
측이	-15889
터로	-15890
▁연루	-15891
69	-15892
▁이르면	-15893
▁청문회	-15894
▁연료	-15895
▁유가족	-15896
▁동물의	-15897
설에	-15898
티가	-15899
▁돌리	-15900
▁장기적으로	-15901
▁줌	-15902
개소	-15903
대한민	-15904
▁전력을	-15905
▁잠자	-15906
유지	-15907
▁변증	-15908
▁인건	-15909
▁태풍	-15910
▁감옥에	-15911
▁처리하는	-15912
▁하나님께서	-15913
받기	-15914
장치	-15915
회관	-15916
▁수요일	-15917
▁시절을	-15918
▁의도적으로	-15919
골이	-15920
출판사	-15921
▁시인은	-15922
레스테	-15923
▁인테	-15924
▁칭찬을	-15925
▁사용되고	-15926
▁정식으로	-15927
귀가	-15928
▁84	-15929
▁도피	-15930
▁장인	-15931
▁재미를	-15932
▁랭	-15933
▁유적	-15934
▁초고	-15935
▁역할에	-15936
▁진행될	-15937
▁대행	-15938
▁물결	-15939
▁그때의	-15940
하겠지만	-15941
남의	-15942
▁과다	-15943
▁수수께끼	-15944
▁친구와	-15945
▁가르치	-15946
▁신앙의	-15947
▁특성에	-15948
▁소개를	-15949
▁작품이다	-15950
▁필요성이	-15951
▁결단	-15952
▁그러네요	-15953
▁분주	-15954
▁졸업한	-15955
▁정황	-15956
▁수준이다	-15957
▁일쑤	-15958
▁찔러	-15959
▁결론이	-15960
hil	-15961
▁상류	-15962
▁변호사가	-15963
▁등장한다	-15964
변호	-15965
▁중국인	-15966
▁고시	-15967
▁허구	-15968
▁포함된다	-15969
사태	-15970
▁어딨	-15971
▁생겨난	-15972
▁숟	-15973
집어	-15974
▁피해자가	-15975
▁씻어	-15976
▁타입	-15977
▁너한테	-15978
▁유튜브	-15979
▁도시로	-15980
실록	-15981
전부터	-15982
▁뒤섞	-15983
▁있는데예	-15984
상인	-15985
▁중계	-15986
▁뒤에도	-15987
광을	-15988
안정	-15989
▁비만	-15990
▁기준은	-15991
줘서	-15992
▁애정	-15993
▁톡톡	-15994
▁학자	-15995
▁두어야	-15996
▁간다는	-15997
▁떠나고	-15998
▁달한다	-15999
▁전해졌다	-16000
혁은	-16001
▁전복	-16002
▁발생하고	-16003
▁풋	-16004
증과	-16005
▁강화를	-16006
▁올라와	-16007
▁볼을	-16008
▁거기다	-16009
▁1979	-16010
장에서는	-16011
군사	-16012
▁으흠	-16013
▁주게	-16014
▁사실입니다	-16015
▁부어	-16016
제도가	-16017
▁185	-16018
▁호칭	-16019
가도	-16020
▁서문	-16021
▁Cl	-16022
▁스님은	-16023
▁사인	-16024
▁자본의	-16025
▁누군가를	-16026
▁모스크바	-16027
오히려	-16028
데이터	-16029
▁국내에	-16030
▁제휴	-16031
금액	-16032
▁아인	-16033
▁밀가루	-16034
▁백성을	-16035
▁말았	-16036
▁소크라테	-16037
▁한인	-16038
▁달랐	-16039
▁하셔야	-16040
숨에	-16041
▁고안	-16042
▁무방	-16043
▁당나라	-16044
▁감기	-16045
가을	-16046
▁53	-16047
▁끼워	-16048
광이	-16049
▁박수를	-16050
▁수여	-16051
▁못하였다	-16052
▁산림	-16053
▁소년은	-16054
▁쳐다보고	-16055
드린	-16056
▁바닥을	-16057
▁보는데	-16058
▁갯	-16059
정권	-16060
▁약속한	-16061
▁종류가	-16062
▁as	-16063
▁나선다	-16064
▁문화는	-16065
▁그때마다	-16066
▁보답	-16067
▁햇살	-16068
▁은혜를	-16069
지니어	-16070
▁--	-16071
▁분당	-16072
▁지름	-16073
▁대를	-16074
▁회색	-16075
되므로	-16076
▁코미디	-16077
ram	-16078
▁민주통합당	-16079
▁둥근	-16080
▁오산	-16081
▁재혼	-16082
▁상품이	-16083
▁자라는	-16084
▁공손	-16085
▁구조적	-16086
▁배워야	-16087
▁기초한	-16088
간접	-16089
단체가	-16090
▁블록	-16091
하고네	-16092
꽃이	-16093
역할	-16094
아침에	-16095
▁그처럼	-16096
▁유능한	-16097
남이	-16098
▁복제	-16099
▁일탈	-16100
정보를	-16101
▁까닭에	-16102
▁예정이	-16103
▁형성하는	-16104
개에	-16105
▁속해	-16106
ric	-16107
▁김연	-16108
차고	-16109
▁표현하고	-16110
▁할아버지는	-16111
▁지난번에	-16112
하길	-16113
▁숨은	-16114
▁간략	-16115
▁망원	-16116
▁쓸모	-16117
▁이론이	-16118
팅을	-16119
잖습니까	-16120
▁국가에서	-16121
▁힘과	-16122
▁제출한	-16123
잖은	-16124
▁문학을	-16125
동원	-16126
▁대학이	-16127
▁제안했다	-16128
▁人	-16129
▁개화	-16130
▁des	-16131
▁또다른	-16132
▁없으나	-16133
▁클린턴	-16134
▁급속히	-16135
▁중학생	-16136
▁타이틀	-16137
▁남았다	-16138
▁아니면은	-16139
▁째	-16140
▁송도	-16141
▁덕에	-16142
카의	-16143
▁세게	-16144
었더니	-16145
경과	-16146
▁둔다	-16147
▁여객	-16148
▁최상의	-16149
▁대하여는	-16150
행의	-16151
▁권의	-16152
▁사양	-16153
▁관철	-16154
▁중시하는	-16155
▁국민들에게	-16156
▁경멸	-16157
항에	-16158
장애인	-16159
▁거주하는	-16160
▁이야기로	-16161
맞춤	-16162
▁상자	-16163
▁따지고	-16164
▁오바마	-16165
▁유언	-16166
▁미래가	-16167
▁민주당은	-16168
감히	-16169
▁부착	-16170
▁약물	-16171
▁진행이	-16172
▁자영업	-16173
▁폭력을	-16174
▁포함하여	-16175
▁말입니까	-16176
▁전성	-16177
회복	-16178
▁일인데	-16179
▁PD	-16180
▁받으면서	-16181
▁명예를	-16182
▁무겁	-16183
▁위대	-16184
▁폭풍	-16185
▁책임은	-16186
날의	-16187
▁딸은	-16188
▁인터뷰에서	-16189
▁넓혀	-16190
▁이경	-16191
▁싱글	-16192
▁원가	-16193
▁드립니다	-16194
실히	-16195
▁성령	-16196
▁의정	-16197
▁벌금	-16198
▁정이	-16199
▁키울	-16200
▁로마의	-16201
▁초기의	-16202
▁손가락으로	-16203
레스타	-16204
▁활동의	-16205
▁발전의	-16206
▁전망이	-16207
▁시피	-16208
보도록	-16209
▁연결된	-16210
▁휠	-16211
▁대다수	-16212
포럼	-16213
▁고래	-16214
▁황제가	-16215
우주	-16216
▁감행	-16217
▁스님이	-16218
▁허가를	-16219
94	-16220
▁추종	-16221
▁소득이	-16222
디의	-16223
org	-16224
▁Con	-16225
~10	-16226
만달러	-16227
▁학문적	-16228
▁자네는	-16229
▁파산	-16230
▁죽기	-16231
기간이	-16232
▁내세워	-16233
▁포르투	-16234
로와	-16235
▁굳은	-16236
▁지저	-16237
▁III	-16238
▁생생하게	-16239
)·	-16240
과거	-16241
▁않자	-16242
▁너머로	-16243
▁지지율	-16244
ᆞ고	-16245
갔을	-16246
▁수강	-16247
▁독립을	-16248
▁소설이	-16249
▁ex	-16250
▁정중	-16251
▁지침	-16252
은행이	-16253
▁다르다는	-16254
▁하더라고요	-16255
▁몸부	-16256
▁처리할	-16257
88	-16258
▁않거나	-16259
▁총리가	-16260
▁정유	-16261
▁플래	-16262
▁둘째는	-16263
▁장편	-16264
▁변화하는	-16265
▁UN	-16266
▁호박	-16267
▁기업들의	-16268
▁저에게	-16269
벽이	-16270
통상	-16271
▁시기의	-16272
▁님께서	-16273
▁스티븐	-16274
600	-16275
▁의류	-16276
▁그레이	-16277
사례	-16278
▁단숨에	-16279
▁안아	-16280
▁하네	-16281
내의	-16282
▁재구성	-16283
▁떨어진다	-16284
▁로드	-16285
______	-16286
▁망각	-16287
버린다	-16288
▁프로젝트를	-16289
▁동아리	-16290
▁존속	-16291
▁황교안	-16292
▁국세	-16293
투성이	-16294
▁작아	-16295
▁맡았다	-16296
▁사내의	-16297
▁얘기하면	-16298
An	-16299
▁법과	-16300
▁서로에게	-16301
▁국왕	-16302
▁되구요	-16303
▁과천	-16304
도르	-16305
▁백악	-16306
▁부분이다	-16307
▁수수료	-16308
▁강화하고	-16309
봐라	-16310
▁브랜드를	-16311
신앙	-16312
▁우습	-16313
▁엘리자베	-16314
튼을	-16315
▁무게를	-16316
▁상급	-16317
▁내수	-16318
▁애기	-16319
▁밀어붙	-16320
혹은	-16321
▁하셨다	-16322
▁당부했다	-16323
▁곤두	-16324
▁쇠퇴	-16325
▁때처럼	-16326
인식	-16327
▁떠돌	-16328
▁그곳은	-16329
▁근무하는	-16330
반응	-16331
▁삼일	-16332
▁오류	-16333
량과	-16334
▁따랐다	-16335
▁웬만한	-16336
▁지금까지의	-16337
군으로	-16338
▁찾는다	-16339
▁아니니까	-16340
순이	-16341
▁담을	-16342
▁새우	-16343
▁없을까	-16344
▁하고자	-16345
▁아닐까요	-16346
ke	-16347
아니야	-16348
▁새정치민주연합	-16349
센터는	-16350
▁찾아오는	-16351
헌법	-16352
▁커질	-16353
▁부는	-16354
반에	-16355
▁가뭄	-16356
▁저었다	-16357
sy	-16358
옥은	-16359
▁도약	-16360
▁셔츠	-16361
▁파라	-16362
▁그쳤다	-16363
▁삼았다	-16364
▁이러는	-16365
▁주제가	-16366
▁넘어갈	-16367
▁적용할	-16368
재료	-16369
▁평온	-16370
했음을	-16371
▁평안	-16372
▁노릇을	-16373
▁훤	-16374
▁고려하여	-16375
▁행렬	-16376
▁SNS	-16377
▁하늘로	-16378
교류	-16379
▁형을	-16380
▁색깔이	-16381
받는다	-16382
▁시민이	-16383
▁해봐야	-16384
있어	-16385
▁대나무	-16386
▁비하여	-16387
▁표현의	-16388
▁흐름이	-16389
올해	-16390
▁주시는	-16391
5000	-16392
▁접근할	-16393
▁쉼	-16394
▁크루	-16395
▁타락	-16396
쳤습니다	-16397
▁오시	-16398
▁공기를	-16399
▁받았을	-16400
▁아침부터	-16401
▁공개적으로	-16402
▁필연적으로	-16403
채의	-16404
▁국가적	-16405
▁고등학생	-16406
▁소리야	-16407
▁높다는	-16408
▁어디를	-16409
▁여간	-16410
▁휴가를	-16411
▁건물의	-16412
▁이룬다	-16413
▁작정	-16414
▁지녔	-16415
▁행사는	-16416
▁소비자가	-16417
▁덩어	-16418
▁운영에	-16419
▁뺀	-16420
▁동독	-16421
▁망명	-16422
▁연인	-16423
▁』	-16424
으음	-16425
▁영주	-16426
▁것이요	-16427
▁광복	-16428
▁하구	-16429
▁저녁을	-16430
▁화이트	-16431
▁없었는데	-16432
토리	-16433
▁창백	-16434
일지	-16435
▁싸늘	-16436
▁말씀하시	-16437
링을	-16438
그러고	-16439
해야지	-16440
▁다녀오	-16441
▁있었기에	-16442
▁변함	-16443
▁줄어든	-16444
▁흔들었다	-16445
▁도우	-16446
시의회	-16447
▁지금처럼	-16448
▁저쪽	-16449
▁De	-16450
▁내비	-16451
▁배경을	-16452
▁전라도	-16453
▁미쳐	-16454
계약을	-16455
▁모습도	-16456
▁하지요	-16457
코가	-16458
한번	-16459
론적인	-16460
사회가	-16461
▁신기한	-16462
▁업체가	-16463
▁자유가	-16464
▁인연을	-16465
▁강화하는	-16466
자다	-16467
▁가던	-16468
▁닿는	-16469
▁사주	-16470
▁충고	-16471
▁끊이지	-16472
말에	-16473
▁문제였다	-16474
노의	-16475
판은	-16476
▁기자들이	-16477
PC	-16478
▁대공	-16479
enti	-16480
▁민감	-16481
왔다는	-16482
▁가담	-16483
▁간행	-16484
▁룸	-16485
▁탄력	-16486
▁부작용	-16487
스에게	-16488
▁성향을	-16489
io	-16490
▁인물은	-16491
화도	-16492
▁떠오른	-16493
▁점심을	-16494
▁확보할	-16495
▁배포	-16496
남북	-16497
▁과거와	-16498
▁벌어질	-16499
▁된장	-16500
▁교훈을	-16501
▁병원으로	-16502
▁폭탄	-16503
위도	-16504
▁진열	-16505
▁퍼부	-16506
▁더는	-16507
▁겉으로	-16508
▁줍니다	-16509
▁못한다면	-16510
▁남기	-16511
▁빠지지	-16512
▁셔	-16513
▁결정한	-16514
▁공간으로	-16515
겹게	-16516
▁대부	-16517
erv	-16518
▁말씀해	-16519
▁특성이	-16520
▁감안하면	-16521
▁따를	-16522
▁즐거움	-16523
▁세이	-16524
▁목요일	-16525
sh	-16526
남도	-16527
▁재료를	-16528
▁영적	-16529
▁포트폴리오	-16530
▁기법	-16531
▁출마를	-16532
격에	-16533
▁석탄	-16534
▁드러낸	-16535
▁어조로	-16536
▁불태	-16537
대학원	-16538
▁것인지를	-16539
▁못했다는	-16540
▁보호하기	-16541
해지면서	-16542
▁흐름에	-16543
▁기울이고	-16544
▁중이었다	-16545
▁답이	-16546
마지막	-16547
됐을	-16548
▁산맥	-16549
▁아폴	-16550
▁이빨	-16551
▁간편	-16552
▁세계와	-16553
▁진행할	-16554
▁權	-16555
▁펑	-16556
▁실태	-16557
▁느껴진다	-16558
두면	-16559
무늬	-16560
▁당신과	-16561
▁인지도	-16562
▁합시다	-16563
▁남편에게	-16564
▁정시	-16565
▁쪼개	-16566
▁계속되고	-16567
▁쓸어	-16568
▁중점	-16569
▁낫다	-16570
▁대명	-16571
▁실증	-16572
▁십육	-16573
▁부여하는	-16574
▁가다가	-16575
6,	-16576
▁바르게	-16577
▁쭈	-16578
▁보물	-16579
▁콘서트	-16580
▁부양	-16581
▁기독교의	-16582
▁꼬박	-16583
▁시작하면서	-16584
▁원로	-16585
▁군은	-16586
사무소	-16587
▁극복하고	-16588
▁샵	-16589
▁최상	-16590
▁공부하고	-16591
▁오가는	-16592
▁체제가	-16593
▁펼쳤다	-16594
▁거부하는	-16595
르자	-16596
카를	-16597
협약	-16598
▁여름에	-16599
▁일그러	-16600
▁경기에서	-16601
▁지적이다	-16602
▁고지	-16603
▁하네요	-16604
▁생각해도	-16605
▁사설	-16606
▁필사	-16607
공제	-16608
▁벤치	-16609
▁성질을	-16610
오프	-16611
▁내려앉	-16612
▁중구	-16613
▁싸게	-16614
▁피워	-16615
▁듬	-16616
▁강사	-16617
▁여자에게	-16618
▁나름대로의	-16619
.......'	-16620
▁참지	-16621
▁엄마와	-16622
▁음모	-16623
▁치킨	-16624
▁떨어지지	-16625
▁하듯	-16626
▁지중	-16627
터에서	-16628
▁중복	-16629
▁대화의	-16630
▁이러고	-16631
▁인디언	-16632
▁함축	-16633
▁거침	-16634
소방	-16635
▁주민의	-16636
▁피하기	-16637
99	-16638
▁일상의	-16639
▁김선	-16640
▁지냈다	-16641
강은	-16642
애의	-16643
▁부인을	-16644
하우	-16645
사업은	-16646
▁들어도	-16647
▁모처럼	-16648
▁측에서	-16649
▁과감하게	-16650
▁깨고	-16651
▁숫자를	-16652
▁날개를	-16653
one	-16654
랑을	-16655
▁반영하는	-16656
▁있는가를	-16657
▁대입	-16658
▁평범	-16659
▁날에	-16660
▁묶여	-16661
▁받았다고	-16662
▁두들	-16663
▁하므로	-16664
▁데이터를	-16665
▁理	-16666
▁국방부	-16667
▁교부	-16668
▁향기	-16669
▁살펴보았다	-16670
▁달을	-16671
방법을	-16672
▁회의에서	-16673
▁비슷하다	-16674
▁디스	-16675
▁행사할	-16676
으로부터의	-16677
▁가축	-16678
▁안이	-16679
▁변했다	-16680
▁지나서	-16681
▁않겠느냐	-16682
가인	-16683
▁가평	-16684
▁왔고	-16685
도대체	-16686
▁돌아간	-16687
외의	-16688
▁막강한	-16689
▁자존심	-16690
▁하셨습니다	-16691
민과	-16692
테이	-16693
▁곱게	-16694
▁태국	-16695
▁시중	-16696
▁협의를	-16697
▁요건	-16698
▁토지를	-16699
▁2,000	-16700
건한	-16701
비서	-16702
▁72	-16703
▁씨에게	-16704
▁조선시대	-16705
▁CD	-16706
극을	-16707
▁강좌	-16708
▁감정에	-16709
▁피하고	-16710
처에	-16711
▁김민	-16712
▁악몽	-16713
▁구월	-16714
▁관람객	-16715
▁석사	-16716
▁여럿	-16717
▁벌여	-16718
▁열매	-16719
▁선거가	-16720
▁시각이	-16721
▁다윈	-16722
▁부흥	-16723
▁세트	-16724
▁순간적으로	-16725
▁하와	-16726
아무래도	-16727
며시	-16728
▁더운	-16729
▁멈추지	-16730
▁가리킨다	-16731
▁중요하다는	-16732
▁인연이	-16733
천원	-16734
▁고생을	-16735
▁내용이다	-16736
▁늘어났다	-16737
▁1%	-16738
▁라면	-16739
▁Man	-16740
▁의원과	-16741
▁일으켰	-16742
▁정해져	-16743
▁않겠다고	-16744
▁빛깔	-16745
ution	-16746
▁늪	-16747
으루	-16748
식에서	-16749
▁요구가	-16750
라와	-16751
▁손짓	-16752
▁사실도	-16753
봤는데	-16754
▁마찬가지이다	-16755
권에서	-16756
▁없었다고	-16757
학원	-16758
은요	-16759
▁표방	-16760
▁가루	-16761
▁거칠게	-16762
▁분별	-16763
▁토크	-16764
▁굉장한	-16765
▁태도에	-16766
▁필요하지	-16767
▁에피소	-16768
장하는	-16769
▁가깝게	-16770
▁순간이	-16771
▁향이	-16772
만하게	-16773
▁연기가	-16774
공사는	-16775
ternational	-16776
▁천사	-16777
방위	-16778
▁신중하게	-16779
▁실리	-16780
▁프랭	-16781
▁까닭은	-16782
▁일부분	-16783
▁j	-16784
▁51	-16785
▁개는	-16786
▁씁쓸	-16787
▁우리들이	-16788
▁신한	-16789
▁원조	-16790
▁자진	-16791
▁선한	-16792
▁시킨	-16793
그것은	-16794
▁항해	-16795
▁마셨다	-16796
갔던	-16797
▁울음을	-16798
▁박지	-16799
▁시계를	-16800
▁고구려의	-16801
져요	-16802
▁돌리는	-16803
▁가부장	-16804
▁모아서	-16805
서비스를	-16806
▁맹세	-16807
내를	-16808
째로	-16809
▁후유	-16810
잠을	-16811
▁굴복	-16812
▁미소가	-16813
▁비켜	-16814
▁새로이	-16815
▁아세요	-16816
▁누구보다도	-16817
],	-16818
▁일간	-16819
▁급격한	-16820
▁달렸다	-16821
▁주제는	-16822
▁요구한다	-16823
▁심부	-16824
▁내면의	-16825
▁다니던	-16826
▁잃었다	-16827
▁투명한	-16828
▁구리	-16829
▁흐느	-16830
▁삼월	-16831
▁사용된	-16832
▁일행은	-16833
▁정성을	-16834
▁글씨	-16835
▁마무	-16836
▁속성	-16837
▁파도	-16838
▁시각에서	-16839
▁유명하다	-16840
▁감축	-16841
▁감당할	-16842
▁ᄀ	-16843
▁국가대표	-16844
▁모르겠어	-16845
까봐	-16846
▁표본	-16847
▁부부의	-16848
▁일컬	-16849
▁헨리	-16850
▁있었으면	-16851
량으로	-16852
▁죽음은	-16853
▁면도	-16854
전형	-16855
▁공제	-16856
신용	-16857
▁십삼	-16858
자와의	-16859
겨레	-16860
▁과정의	-16861
▁질러	-16862
관계는	-16863
▁영향력	-16864
▁종로	-16865
▁1984	-16866
▁가르치고	-16867
걸이	-16868
▁로비	-16869
▁손은	-16870
▁성장할	-16871
▁도사	-16872
▁접근을	-16873
▁거리에서	-16874
▁사업으로	-16875
▁김유	-16876
당했다	-16877
일지도	-16878
뉴얼	-16879
▁형의	-16880
화시키는	-16881
미와	-16882
주체	-16883
▁맺은	-16884
▁사망한	-16885
▁하지는	-16886
그것이	-16887
▁신문의	-16888
▁인공지능	-16889
▁배분	-16890
▁됐다는	-16891
부자	-16892
▁신세	-16893
▁탐험	-16894
▁밝혀졌다	-16895
등에	-16896
▁꿈의	-16897
▁동계	-16898
관리를	-16899
▁개념의	-16900
안타	-16901
▁시절부터	-16902
음식	-16903
억달러	-16904
년으로	-16905
▁제기되고	-16906
그러면은	-16907
▁맞춰서	-16908
▁한시	-16909
▁위기가	-16910
▁포기할	-16911
▁작품으로	-16912
▁필요했다	-16913
▁할머니의	-16914
수단	-16915
▁놀랍게도	-16916
▁발전과	-16917
담에	-16918
▁박지원	-16919
2000	-16920
에르	-16921
모르	-16922
박사	-16923
▁깊고	-16924
티미터	-16925
▁국제적인	-16926
▁부디	-16927
거린다	-16928
▁마음먹	-16929
TE	-16930
▁난리	-16931
▁자리는	-16932
▁겹쳐	-16933
▁돌연	-16934
▁발해	-16935
▁어떤가	-16936
▁뜻대로	-16937
▁참가한	-16938
▁뜸	-16939
▁용기가	-16940
▁예상되는	-16941
만족	-16942
▁죄책	-16943
▁과거에는	-16944
▁방황	-16945
▁이십오	-16946
버는	-16947
안녕하세요	-16948
?.	-16949
▁나아갈	-16950
고속도로	-16951
▁답답한	-16952
name	-16953
▁경제성	-16954
▁연예인	-16955
▁이해와	-16956
위원장은	-16957
▁우려를	-16958
▁머리카락	-16959
▁행동하는	-16960
▁쿵	-16961
▁꼴이	-16962
▁창을	-16963
수화	-16964
▁90%	-16965
▁이혼을	-16966
▁해야만	-16967
▁돈의	-16968
▁종결	-16969
▁형성하고	-16970
ee	-16971
▁꿇고	-16972
보로	-16973
▁당혹	-16974
그리스	-16975
위원회에	-16976
▁부속	-16977
통한	-16978
레스테롤	-16979
곳을	-16980
란하게	-16981
▁무수한	-16982
▁변하고	-16983
▁원래의	-16984
▁장착	-16985
색은	-16986
▁생각하면서	-16987
급하게	-16988
카르	-16989
전에는	-16990
▁앞에는	-16991
▁종업원	-16992
▁현실이다	-16993
▁신진	-16994
▁증폭	-16995
▁진한	-16996
▁글쓰기	-16997
━━━━	-16998
▁신경이	-16999
더냐	-17000
▁크기가	-17001
▁향상을	-17002
▁자세하게	-17003
▁지낼	-17004
▁번갈아	-17005
▁정리하고	-17006
▁하였고	-17007
▁아니었지만	-17008
맞는	-17009
▁건넸	-17010
▁상상할	-17011
▁안되는	-17012
▁촉구했다	-17013
▁출제	-17014
렸어	-17015
▁과학의	-17016
▁봅시다	-17017
▁체제의	-17018
▁미친다	-17019
▁상사	-17020
▁행정부	-17021
▁위기의	-17022
무의	-17023
sch	-17024
▁세웠	-17025
▁여러분들이	-17026
▁오사	-17027
▁뛰쳐	-17028
▁옳지	-17029
▁어김없이	-17030
▁기름을	-17031
▁남다른	-17032
오자	-17033
▁곳의	-17034
▁나니	-17035
▁열중	-17036
이번에	-17037
▁넓고	-17038
▁지날	-17039
▁않는데	-17040
▁기껏	-17041
▁봉투	-17042
▁요구할	-17043
▁노부	-17044
▁좋았	-17045
▁현명	-17046
▁할게요	-17047
힘을	-17048
▁78	-17049
▁높을	-17050
정치적	-17051
▁영위	-17052
▁선물로	-17053
▁신체적	-17054
▁대응을	-17055
▁맞어	-17056
▁했으니까	-17057
▁우와	-17058
▁꽤나	-17059
청에서	-17060
기관에	-17061
다를	-17062
▁유로	-17063
▁끊고	-17064
▁되새	-17065
▁격렬한	-17066
▁받아들인	-17067
▁요인으로	-17068
▁오스트리아	-17069
▁열등	-17070
▁열릴	-17071
▁어렵다고	-17072
▁글에서	-17073
난을	-17074
▁전임	-17075
관들이	-17076
되지는	-17077
번이	-17078
▁공영	-17079
화하여	-17080
▁들어가기	-17081
외교	-17082
▁鄭	-17083
법칙	-17084
▁배후	-17085
▁겁이	-17086
지도록	-17087
▁백화	-17088
▁나요	-17089
▁부진	-17090
▁직결	-17091
들아	-17092
냅니다	-17093
마땅	-17094
▁무림	-17095
기억	-17096
▁Sp	-17097
▁당을	-17098
▁자기에게	-17099
▁낚시	-17100
▁직선	-17101
▁선택이	-17102
고로	-17103
▁96	-17104
▁구멍이	-17105
▁직원들은	-17106
▁이월	-17107
주년을	-17108
▁이전에는	-17109
꾼이	-17110
▁순종	-17111
▁푸는	-17112
저가	-17113
▁무신	-17114
▁견해가	-17115
▁160	-17116
▁조직에	-17117
▁거둘	-17118
▁기각	-17119
▁자손	-17120
▁주유	-17121
▁하고네	-17122
▁활동하는	-17123
▁意	-17124
▁쓰인	-17125
▁용역	-17126
▁짊	-17127
▁우상	-17128
▁위에는	-17129
▁또래	-17130
▁뭐니	-17131
▁Mar	-17132
▁멘토	-17133
▁천하	-17134
▁열악한	-17135
▁태평양	-17136
▁펼쳐진	-17137
tical	-17138
▁내정	-17139
▁이끈	-17140
▁그랬어	-17141
▁이십일	-17142
▁중부	-17143
▁경험은	-17144
▁전화로	-17145
러를	-17146
▁옷이	-17147
▁오해를	-17148
▁알아보고	-17149
▁빤	-17150
▁포털	-17151
▁논쟁을	-17152
머스	-17153
▁이석	-17154
▁청년이	-17155
과학기술	-17156
▁있으면서도	-17157
▁표지	-17158
ther	-17159
대왕	-17160
▁배낭	-17161
티아	-17162
▁잘난	-17163
▁교육감	-17164
▁대비해	-17165
▁운전을	-17166
하시오	-17167
▁귀여운	-17168
▁비용은	-17169
▁막힌	-17170
▁장기간	-17171
▁가이	-17172
▁나서고	-17173
▁한번은	-17174
▁영향력이	-17175
▁노래는	-17176
▁언어가	-17177
55	-17178
벌레	-17179
▁관중	-17180
▁서비스의	-17181
400	-17182
정책에	-17183
▁재미가	-17184
▁시와	-17185
▁얘가	-17186
▁정면	-17187
▁미루어	-17188
▁사장의	-17189
텐데	-17190
iti	-17191
▁사례는	-17192
▁우선적으로	-17193
▁동호	-17194
▁것들에	-17195
▁발자국	-17196
마일	-17197
적이거나	-17198
▁구도	-17199
▁만기	-17200
▁사라질	-17201
▁지상파	-17202
▁적극적	-17203
▁63	-17204
▁민주주의의	-17205
▁불신	-17206
▁비비	-17207
분히	-17208
▁상황이었다	-17209
▁거래가	-17210
▁논의는	-17211
▁사적인	-17212
▁준다고	-17213
▁않았으며	-17214
▁아담	-17215
▁공사가	-17216
▁르네상	-17217
▁동그	-17218
▁빨아	-17219
▁소양	-17220
▁일찌감치	-17221
▁작용하는	-17222
MA	-17223
동기	-17224
없어	-17225
▁제도는	-17226
▁환하게	-17227
▁엎드려	-17228
▁펴고	-17229
▁강아지	-17230
▁동북아	-17231
▁철학자	-17232
▁달성하기	-17233
▁있었거든요	-17234
공공	-17235
▁마산	-17236
▁발레	-17237
▁방식이다	-17238
매체	-17239
▁He	-17240
▁이기는	-17241
▁거부하고	-17242
▁포함하고	-17243
조한	-17244
시키면서	-17245
▁요청했다	-17246
▁서독	-17247
▁탐욕	-17248
▁통화를	-17249
▁밀집	-17250
▁파격	-17251
42	-17252
▁내던	-17253
▁오줌	-17254
▁넘어선	-17255
숙은	-17256
▁꼬리	-17257
▁낙동	-17258
옵소서	-17259
▁명백히	-17260
▁잘못한	-17261
▁조치가	-17262
▁하겠지만	-17263
▁추진해	-17264
▁진행한다	-17265
뿐인	-17266
▁헤겔	-17267
볼까요	-17268
여겨	-17269
▁지팡	-17270
▁천안함	-17271
▁박사가	-17272
▁살아있는	-17273
▁변모	-17274
▁살아가고	-17275
▁민족적	-17276
▁고통과	-17277
▁계기를	-17278
현상	-17279
▁자금이	-17280
▁2020	-17281
▁인정한	-17282
▁애썼	-17283
▁미세먼지	-17284
▁지역경제	-17285
▁머리는	-17286
▁保	-17287
▁포용	-17288
었다가	-17289
▁that	-17290
▁지평	-17291
춧가루	-17292
▁정책과	-17293
억원으로	-17294
▁프랜차이	-17295
논문	-17296
▁선수를	-17297
근까	-17298
▁깨달은	-17299
▁들어가야	-17300
▁져야	-17301
▁말하자	-17302
▁당면	-17303
▁이유다	-17304
▁부끄러운	-17305
훈은	-17306
아닙니다	-17307
▁무모	-17308
▁하나같이	-17309
학교를	-17310
▁유학생	-17311
▁있거든	-17312
이것은	-17313
▁어디선가	-17314
▁박상	-17315
▁할려고	-17316
▁시체	-17317
▁아르바이트	-17318
매김	-17319
▁놓지	-17320
▁아깝	-17321
질로	-17322
▁도끼	-17323
▁장애가	-17324
▁he	-17325
▁솟구	-17326
▁열매를	-17327
res	-17328
▁남게	-17329
▁비를	-17330
▁있는데도	-17331
▁자기들이	-17332
▁옮기는	-17333
오래	-17334
▁휘둘	-17335
▁논란을	-17336
▁Kore	-17337
어촌	-17338
경기도	-17339
▁않다면	-17340
▁적자	-17341
▁편히	-17342
안에서	-17343
▁될지도	-17344
▁칩	-17345
▁원씩	-17346
▁팔레스타	-17347
▁섣	-17348
▁타격	-17349
▁물러서	-17350
▁누군가의	-17351
▁발걸음을	-17352
만도	-17353
ild	-17354
▁비즈니	-17355
▁시도를	-17356
▁청주	-17357
저희가	-17358
▁해놓고	-17359
▁출신으로	-17360
▁앗	-17361
▁가며	-17362
▁김창	-17363
▁청탁	-17364
▁부르주아	-17365
▁솔로	-17366
내일	-17367
▁나치	-17368
▁도시에	-17369
▁박사님	-17370
새끼	-17371
▁돕기	-17372
▁막걸	-17373
▁주인의	-17374
PA	-17375
▁순간부터	-17376
▁뛰고	-17377
▁미성	-17378
▁유배	-17379
중공업	-17380
▁아이스크	-17381
▁입체	-17382
▁해운	-17383
▁영향으로	-17384
물인	-17385
▁경직	-17386
▁듯싶	-17387
▁불투	-17388
▁선제	-17389
어린이	-17390
▁바탕을	-17391
▁부족하다	-17392
)-	-17393
▁야채	-17394
▁절제	-17395
▁대통령에게	-17396
주시면	-17397
▁수원시	-17398
▁현실로	-17399
▁포르투갈	-17400
심리	-17401
▁곁에서	-17402
▁씨씨	-17403
▁나이는	-17404
▁작성한	-17405
▁전쟁에서	-17406
▁?	-17407
방과	-17408
▁돕고	-17409
▁1982	-17410
▁겪게	-17411
▁욕망의	-17412
성이라는	-17413
EA	-17414
700	-17415
▁청렴	-17416
▁노력해야	-17417
▁주입	-17418
▁세미나	-17419
▁최고위원	-17420
그머니	-17421
▁원인으로	-17422
▁사육	-17423
▁저것	-17424
▁다이아몬	-17425
▁헷	-17426
사업이	-17427
▁고마운	-17428
▁사업자	-17429
▁거치면서	-17430
▁장소에서	-17431
▁이례	-17432
▁청원	-17433
셨고	-17434
다고요	-17435
▁도로를	-17436
▁마을에서	-17437
▁요즘에는	-17438
▁비추	-17439
▁원자력	-17440
▁주의해야	-17441
교와	-17442
▁선거구	-17443
센터에서	-17444
▁it	-17445
▁외의	-17446
▁대부분을	-17447
죄를	-17448
▁겪어	-17449
▁엿볼	-17450
▁창간	-17451
지역을	-17452
▁됐죠	-17453
▁짓밟	-17454
▁CC	-17455
▁이토록	-17456
▁귀엽	-17457
해보자	-17458
▁놓으면	-17459
▁도시가	-17460
▁카카오톡	-17461
▁보태	-17462
▁군포	-17463
▁수혜	-17464
▁있은	-17465
▁승인을	-17466
▁겐	-17467
그네	-17468
▁고가	-17469
▁방이	-17470
▁유족	-17471
▁곳이었다	-17472
▁선수들의	-17473
▁아들에게	-17474
▁산악	-17475
▁빠져나가	-17476
▁배추	-17477
▁휴게	-17478
▁서늘	-17479
▁어어	-17480
▁원치	-17481
▁다섯째	-17482
▁마음속	-17483
▁대책이	-17484
▁부르며	-17485
▁흔들리는	-17486
▁왈	-17487
▁나와야	-17488
▁참고로	-17489
범은	-17490
▁수험생	-17491
▁광장	-17492
▁절벽	-17493
▁걸림	-17494
▁저승	-17495
▁무리한	-17496
▁사춘	-17497
으시면	-17498
▁확보하고	-17499
직접	-17500
▁브레이	-17501
▁그림자가	-17502
년에서	-17503
디자인	-17504
▁먹이를	-17505
▁시적	-17506
브로	-17507
작의	-17508
▁채취	-17509
순히	-17510
▁따위	-17511
▁브랜	-17512
▁약속했다	-17513
훈이	-17514
ock	-17515
▁백성들이	-17516
▁열거	-17517
▁상이한	-17518
전용	-17519
▁꾸짖	-17520
▁환기	-17521
▁지방에	-17522
▁나에	-17523
▁유학을	-17524
왔을	-17525
▁일선	-17526
▁도전을	-17527
▁후보와	-17528
▁수상한	-17529
▁다양하다	-17530
▁증가하는	-17531
▁위해서였다	-17532
▁개관	-17533
▁도매	-17534
▁삽입	-17535
비용을	-17536
▁자체도	-17537
▁농산물	-17538
▁정신은	-17539
▁평가했다	-17540
먼저	-17541
▁구단	-17542
▁신동	-17543
▁직장에서	-17544
▁선생님께서	-17545
거기서	-17546
▁이론의	-17547
보안	-17548
▁파일	-17549
▁없었어	-17550
▁상륙	-17551
▁열망	-17552
▁잡아당	-17553
▁관련되어	-17554
▁무대를	-17555
▁없나	-17556
밖에는	-17557
쳐야	-17558
사회는	-17559
층에서	-17560
▁예비후보	-17561
▁마련된	-17562
▁여의도	-17563
▁내려갔다	-17564
▁결혼할	-17565
해주세요	-17566
erson	-17567
iew	-17568
▁장치를	-17569
▁익혀	-17570
▁한바탕	-17571
▁전환을	-17572
▁공간의	-17573
▁보호하는	-17574
▁상황에서는	-17575
▁쥔	-17576
▁딱히	-17577
▁이시	-17578
▁네티즌	-17579
?’	-17580
주어	-17581
▁맡기	-17582
▁제사를	-17583
▁않고는	-17584
▁안되	-17585
▁사랑해	-17586
▁파스	-17587
▁수입이	-17588
▁Journal	-17589
▁순조	-17590
▁야단	-17591
▁손님을	-17592
▁여부는	-17593
▁달려갔다	-17594
창의	-17595
▁인류가	-17596
▁검토하고	-17597
▁수첩	-17598
▁강하고	-17599
▁제목을	-17600
▁부지런히	-17601
▁깔고	-17602
▁다각	-17603
▁오케스트	-17604
▁민영	-17605
▁진술을	-17606
었는데요	-17607
▁확대를	-17608
.(	-17609
▁흡연	-17610
▁장소가	-17611
▁쏟아지는	-17612
▁박종	-17613
곡이	-17614
끄럽게	-17615
유로	-17616
▁처리를	-17617
▁걸을	-17618
▁티켓	-17619
▁환자는	-17620
63	-17621
▁파주	-17622
▁필립	-17623
▁아이돌	-17624
시킨다는	-17625
▁랩	-17626
탕을	-17627
▁간판	-17628
▁내심	-17629
▁인생에서	-17630
硏究	-17631
삼촌	-17632
▁그것들은	-17633
▁새누리당은	-17634
긋한	-17635
▁AI	-17636
▁되던	-17637
규제	-17638
▁김부	-17639
▁손자	-17640
▁신제품	-17641
▁지지율이	-17642
▁팍	-17643
검토	-17644
▁켄	-17645
▁테고	-17646
어가는	-17647
▁공부할	-17648
합이	-17649
▁고르	-17650
▁반공	-17651
하리라	-17652
▁넘기	-17653
▁사단	-17654
▁들어있	-17655
▁자리매김	-17656
▁생각했는데	-17657
구조의	-17658
들이고	-17659
▁선정된	-17660
▁신용카드	-17661
함께	-17662
▁빠지고	-17663
▁신라의	-17664
설명	-17665
▁130	-17666
▁기피	-17667
▁생생한	-17668
▁키워드	-17669
감각	-17670
테인	-17671
▁Sh	-17672
갑자기	-17673
▁만남을	-17674
ization	-17675
태의	-17676
▁경이	-17677
▁기습	-17678
▁일이라	-17679
기인	-17680
▁버티고	-17681
시에는	-17682
▁횡령	-17683
▁기대하는	-17684
▁갈망	-17685
89	-17686
▁질적	-17687
어야지	-17688
▁모습과	-17689
▁풍경을	-17690
활동의	-17691
▁진행을	-17692
▁집안에	-17693
▁쟁점	-17694
67	-17695
▁강박	-17696
▁면허	-17697
팀을	-17698
inc	-17699
▁땀이	-17700
▁자유주의	-17701
PS	-17702
▁개미	-17703
▁홍성	-17704
▁군대가	-17705
▁생각해보면	-17706
덕을	-17707
▁거네	-17708
▁명명	-17709
▁물질이	-17710
고려	-17711
국회	-17712
▁이르고	-17713
▁친구에게	-17714
▁지닌다	-17715
작으로	-17716
▁말들이	-17717
▁보낸다	-17718
▁영광을	-17719
▁방향이	-17720
▁밤낮	-17721
▁이년	-17722
대회를	-17723
▁킬	-17724
물도	-17725
▁은하	-17726
▁정화	-17727
▁꾹	-17728
▁에디	-17729
▁그것과	-17730
▁크기의	-17731
▁남과	-17732
▁러브	-17733
능력이	-17734
▁모자라	-17735
▁동안이나	-17736
▁서재	-17737
▁오징	-17738
새누리	-17739
▁했다가	-17740
▁흡사	-17741
성공	-17742
▁반가운	-17743
▁이루기	-17744
▁혁명을	-17745
환자	-17746
▁직원을	-17747
계열	-17748
릿한	-17749
정비	-17750
▁해온	-17751
▁성도	-17752
▁던지고	-17753
▁드릴게요	-17754
▁협조를	-17755
PG	-17756
리안	-17757
하였지만	-17758
발전을	-17759
▁놈의	-17760
▁생기지	-17761
▁놀라서	-17762
▁동기를	-17763
▁일방적인	-17764
라운드	-17765
년경	-17766
수용	-17767
▁가설	-17768
▁청중	-17769
▁찰스	-17770
클리	-17771
▁가졌	-17772
▁항암	-17773
▁제품에	-17774
▁눈여겨	-17775
▁착공	-17776
공천	-17777
론하고	-17778
권력	-17779
▁동향	-17780
▁두산	-17781
▁덧붙여	-17782
▁영업을	-17783
▁판단에	-17784
▁골드	-17785
▁연쇄	-17786
▁취직	-17787
▁소개하는	-17788
▁맑고	-17789
나중에	-17790
▁용병	-17791
▁올라온	-17792
츠는	-17793
▁마크	-17794
▁체류	-17795
▁물과	-17796
▁인턴	-17797
린다고	-17798
▁사회과학	-17799
▁이해관계	-17800
키아	-17801
▁간첩	-17802
▁사료	-17803
▁참사	-17804
묘하게	-17805
▁개념에	-17806
▁손해배상	-17807
▁달했다	-17808
red	-17809
군데	-17810
▁일명	-17811
▁확보를	-17812
표준	-17813
▁박혀	-17814
▁임금의	-17815
責任	-17816
▁얼핏	-17817
▁의왕	-17818
▁느닷없이	-17819
▁속상	-17820
▁하더니	-17821
쿼터	-17822
>(	-17823
▁투덜	-17824
노래	-17825
▁시체를	-17826
▁보십시오	-17827
▁투자자	-17828
▁움직였다	-17829
쳤을	-17830
희망	-17831
▁공시	-17832
도서관	-17833
▁밖을	-17834
▁거군요	-17835
▁터무니	-17836
멘트	-17837
▁돼지고	-17838
▁예측할	-17839
▁티베	-17840
▁생기게	-17841
▁전국에	-17842
▁분석했다	-17843
노가	-17844
▁목포	-17845
▁영문	-17846
▁분담	-17847
▁입었다	-17848
범의	-17849
어른	-17850
▁피디	-17851
▁도와줄	-17852
▁욕심을	-17853
▁다원	-17854
▁경찰서	-17855
▁오후에	-17856
▁온몸이	-17857
▁천지	-17858
▁누군지	-17859
시설이	-17860
▁피하는	-17861
▁해줘야	-17862
절의	-17863
▁기능은	-17864
▁판결이	-17865
▁정신분석	-17866
▁성에	-17867
▁추리	-17868
▁수입을	-17869
헨티	-17870
▁도청	-17871
▁맘에	-17872
▁오천	-17873
들게	-17874
수출	-17875
▁감정은	-17876
tics	-17877
▁가졌던	-17878
▁끌어당	-17879
▁자신감	-17880
▁장군이	-17881
내에서	-17882
▁경제는	-17883
▁나이트	-17884
▁많았고	-17885
루에	-17886
▁모르지	-17887
▁택시를	-17888
▁힘차게	-17889
▁소작	-17890
▁여주	-17891
였지	-17892
▁공소	-17893
▁미스터	-17894
▁핵실험	-17895
▁서비스가	-17896
여보	-17897
▁보기로	-17898
▁부상을	-17899
어야만	-17900
▁해보자	-17901
▁사신	-17902
▁횡단	-17903
▁억울한	-17904
▁정보화	-17905
▁국민은	-17906
▁모델로	-17907
▁색다른	-17908
장이나	-17909
▁걸어갔다	-17910
▁7,	-17911
▁노동자의	-17912
▁조립	-17913
▁기록은	-17914
▁아시안	-17915
▁잠에서	-17916
▁정신없이	-17917
▁측에	-17918
퇴근	-17919
▁이대	-17920
문서	-17921
▁줄이기	-17922
▁사슴	-17923
▁ht	-17924
▁농부	-17925
▁슬픔을	-17926
▁키스	-17927
▁그분은	-17928
▁들어오고	-17929
감사합니다	-17930
▁얄	-17931
이동	-17932
▁돌려보	-17933
▁위해서라도	-17934
▁1978	-17935
물며	-17936
▁기여할	-17937
▁필요에	-17938
▁갔습니다	-17939
▁영화에서	-17940
▁근거한	-17941
▁네트워크를	-17942
▁성격에	-17943
▁신앙을	-17944
▁다가갔다	-17945
800	-17946
▁실시하는	-17947
콜릿	-17948
▁가파	-17949
▁기하	-17950
▁대학은	-17951
되었으나	-17952
▁상황으로	-17953
▁결정은	-17954
ans	-17955
▁이다	-17956
ication	-17957
▁수성	-17958
▁방법과	-17959
▁쏜	-17960
련한	-17961
▁말레이	-17962
▁이뤄진	-17963
▁천주교	-17964
▁들어오지	-17965
너의	-17966
▁씩씩	-17967
▁기본적	-17968
▁봉쇄	-17969
▁떨쳐	-17970
▁그걸로	-17971
▁전기를	-17972
▁의지와	-17973
이야기	-17974
▁고도의	-17975
심에서	-17976
▁조선에	-17977
▁사랑으로	-17978
▁민주주의를	-17979
양에	-17980
인들과	-17981
▁구석구	-17982
▁옛날에는	-17983
▁형용	-17984
▁실적을	-17985
▁배타	-17986
▁그만두고	-17987
▁반기	-17988
▁아랑곳	-17989
▁자본주의의	-17990
▁윤곽	-17991
▁이왕	-17992
▁괜찮을	-17993
▁리모델	-17994
▁주택을	-17995
▁비명	-17996
▁요구된다	-17997
▁주장하였다	-17998
▁하였습니다	-17999
부짖	-18000
▁조심해야	-18001
쳤고	-18002
▁보행	-18003
중소	-18004
▁바다로	-18005
▁1975	-18006
▁나타냈다	-18007
▁항일	-18008
▁가다듬	-18009
▁쥬	-18010
리거나	-18011
▁이론과	-18012
▁at	-18013
나무가	-18014
동네	-18015
▁파멸	-18016
민들이	-18017
▁찾아보	-18018
▁용산	-18019
▁황태	-18020
▁전문가가	-18021
▁탑승	-18022
▁황홀	-18023
▁교육과정	-18024
▁남겼	-18025
▁소문을	-18026
데스	-18027
▁지수	-18028
▁한밤	-18029
▁환호	-18030
▁말에서	-18031
▁수차례	-18032
▁김한	-18033
▁미네	-18034
▁연다	-18035
▁만나기	-18036
▁인식하는	-18037
석으로	-18038
▁스티브	-18039
▁전국에서	-18040
▁위상을	-18041
▁가능하다는	-18042
▁이렇게까지	-18043
▁혼돈	-18044
▁빼앗아	-18045
▁울리는	-18046
▁John	-18047
▁에프	-18048
▁파묻	-18049
▁바다가	-18050
질은	-18051
▁미국에서는	-18052
지검	-18053
치자	-18054
▁브루	-18055
로마	-18056
▁분비	-18057
▁오렌	-18058
맞게	-18059
됐으며	-18060
▁구호	-18061
▁참석했다	-18062
사법	-18063
▁흐트	-18064
았으나	-18065
▁대통령도	-18066
▁것인가에	-18067
▁수감	-18068
▁정동	-18069
FA	-18070
▁싫다	-18071
▁딛	-18072
▁꿈틀	-18073
▁현저	-18074
▁불고	-18075
는데예	-18076
▁시카	-18077
었지요	-18078
▁기록되어	-18079
▁새누리당이	-18080
▁대박	-18081
▁방송에	-18082
아저	-18083
▁픽	-18084
하잖아	-18085
▁것들도	-18086
▁당국	-18087
▁법원에	-18088
▁욕심이	-18089
월이	-18090
▁농구	-18091
▁닫고	-18092
▁물질을	-18093
품의	-18094
▁무척이나	-18095
▁【	-18096
▁어렵습니다	-18097
모두	-18098
▁연신	-18099
▁전격	-18100
▁언어는	-18101
▁울부짖	-18102
▁웃을	-18103
▁반대를	-18104
▁내놓았다	-18105
▁제품은	-18106
▁젤	-18107
▁좌파	-18108
▁생방송	-18109
▁은행에	-18110
▁제목이	-18111
▁선동	-18112
▁접할	-18113
▁판단하고	-18114
▁구멍을	-18115
▁돌아와서	-18116
▁아저씨는	-18117
▁따돌	-18118
▁업적을	-18119
▁앞에서는	-18120
▁오죽	-18121
▁제한된	-18122
▁없었다면	-18123
▁이론에	-18124
▁해석할	-18125
▁http	-18126
▁이래서	-18127
▁부분적으로	-18128
루만	-18129
클레	-18130
▁내장	-18131
▁반전	-18132
▁두꺼운	-18133
▁충동	-18134
▁충격적인	-18135
▁옷차	-18136
▁프롤	-18137
▁가급적	-18138
▁대대적인	-18139
▁터라	-18140
드라마	-18141
▁결정적	-18142
▁빵을	-18143
▁말하면서	-18144
ase	-18145
▁설레	-18146
하셨어요	-18147
▁규정하는	-18148
▁필수적인	-18149
97	-18150
뭐가	-18151
주자	-18152
▁지배를	-18153
▁때문이라는	-18154
▁중화	-18155
▁지르며	-18156
▁다니며	-18157
▁두려운	-18158
▁조직은	-18159
▁초기에는	-18160
▁나타낸	-18161
▁필자의	-18162
고추	-18163
▁그랬을	-18164
▁나눴	-18165
▁법규	-18166
나무를	-18167
▁했으니	-18168
61	-18169
~1	-18170
재와	-18171
▁사상이	-18172
문예	-18173
분과	-18174
▁포럼	-18175
▁바이러	-18176
▁분석하는	-18177
▁영업이익	-18178
▁곰곰	-18179
▁주권	-18180
▁술잔을	-18181
▁태어날	-18182
전하	-18183
ins	-18184
▁충실한	-18185
▁최강	-18186
▁밧	-18187
테르	-18188
▁성균	-18189
▁걱정하는	-18190
▁대회에서	-18191
▁고종	-18192
▁이현	-18193
거리면서	-18194
▁숲을	-18195
▁동영	-18196
▁참아	-18197
소이다	-18198
▁차관	-18199
▁아니었던	-18200
▁이동평균	-18201
▁전통적으로	-18202
▁움직이	-18203
▁노력했다	-18204
▁통합진보	-18205
▁뭣	-18206
분명	-18207
▁짚고	-18208
▁더이상	-18209
절에	-18210
▁더블	-18211
▁히트	-18212
셔가지고	-18213
▁싶었지만	-18214
62	-18215
나르	-18216
▁거로	-18217
되기를	-18218
▁바쁘게	-18219
▁고민하고	-18220
▁아이들도	-18221
마당	-18222
▁부조	-18223
▁구하기	-18224
▁어떡해	-18225
▁하자고	-18226
궁을	-18227
뒹굴	-18228
▁흰색	-18229
▁숨겨진	-18230
▁영수	-18231
▁저주	-18232
두지	-18233
▁궁극적인	-18234
백의	-18235
▁이성을	-18236
티에	-18237
해결	-18238
anc	-18239
-7	-18240
림과	-18241
▁여권	-18242
▁Res	-18243
▁주말에	-18244
▁특히나	-18245
▁지식은	-18246
▁여하	-18247
공사가	-18248
▁낳는	-18249
▁중견	-18250
▁방송이	-18251
오니	-18252
▁넘지	-18253
▁단단한	-18254
▁퍽	-18255
▁꾸미	-18256
▁데다가	-18257
독일	-18258
itt	-18259
▁흐른	-18260
렸다가	-18261
▁시대에는	-18262
그가	-18263
▁출신인	-18264
▁혹시나	-18265
▁역사에서	-18266
▁스캔	-18267
▁지게	-18268
▁헬렌	-18269
▁어딘가	-18270
▁문법	-18271
▁유비	-18272
▁확인이	-18273
노인	-18274
▁매혹	-18275
▁저러	-18276
▁공자	-18277
▁ᄂ	-18278
▁점진	-18279
▁동영상	-18280
▁읽었다	-18281
47	-18282
▁쓰면서	-18283
광주	-18284
보단	-18285
야는	-18286
학기	-18287
▁DNA	-18288
▁청와대가	-18289
▁가산	-18290
▁만찬	-18291
상태에	-18292
▁종합적으로	-18293
▁나게	-18294
▁괴물	-18295
▁오스	-18296
▁단계는	-18297
▁작게	-18298
▁일제의	-18299
▁비교하면	-18300
▁어디에도	-18301
▁아버지에게	-18302
▁DM	-18303
▁어디가	-18304
▁관련해서는	-18305
▁만들어지는	-18306
전략을	-18307
▁패스트	-18308
▁포함한다	-18309
린을	-18310
티의	-18311
▁식은	-18312
세계를	-18313
▁느꼈던	-18314
▁붙였다	-18315
일체	-18316
▁토착	-18317
▁第	-18318
▁57	-18319
▁중요시	-18320
▁다진	-18321
▁얼굴도	-18322
▁육체적	-18323
▁머물고	-18324
▁황급히	-18325
▁한해	-18326
테이너	-18327
▁들어가게	-18328
▁게을	-18329
▁교사의	-18330
▁수익률을	-18331
▁깜빡	-18332
▁합창	-18333
▁무시할	-18334
▁조건에	-18335
수술	-18336
키스탄	-18337
out	-18338
아니요	-18339
▁여겼다	-18340
▁넘어서는	-18341
▁지나면서	-18342
▁시민들은	-18343
▁신성한	-18344
▁지금껏	-18345
▁1983	-18346
▁해결책을	-18347
▁겨울에	-18348
▁서면	-18349
▁항소	-18350
▁갈릴	-18351
▁뜨겁게	-18352
▁명이나	-18353
▁문제라고	-18354
전통	-18355
▁물로	-18356
▁북핵	-18357
▁소련의	-18358
▁닉	-18359
▁꼭대	-18360
▁방송의	-18361
▁누구인가	-18362
▁농가	-18363
▁않고도	-18364
▁없거든요	-18365
에너지	-18366
▁혁신을	-18367
▁개념과	-18368
▁해석하는	-18369
▁#	-18370
베르크	-18371
▁반대의	-18372
▁일으키고	-18373
▁상대방에게	-18374
▁6,	-18375
▁플랜	-18376
겁니다	-18377
▁하남	-18378
▁놈들이	-18379
▁콜레스테롤	-18380
사원	-18381
▁서식	-18382
라이언	-18383
▁달러의	-18384
▁기울였다	-18385
▁들게	-18386
▁밝고	-18387
▁거리의	-18388
▁갈색	-18389
▁밝게	-18390
▁볼까	-18391
▁검찰의	-18392
▁공부에	-18393
ublic	-18394
▁인원	-18395
키가	-18396
▁하냐	-18397
▁넣으면	-18398
▁예비후	-18399
젠테이션	-18400
▁결론은	-18401
▁진단을	-18402
▁순위	-18403
다니며	-18404
전문가	-18405
▁신체의	-18406
▁최우수	-18407
▁하버드	-18408
업은	-18409
▁Ad	-18410
▁채찍	-18411
러시아	-18412
▁따르지	-18413
▁돈에	-18414
▁승부를	-18415
▁따스	-18416
▁판례	-18417
▁거잖아	-18418
▁마디로	-18419
▁못마땅	-18420
▁주차장	-18421
라지	-18422
▁이르케	-18423
▁반려	-18424
▁여지	-18425
▁이산	-18426
▁흥행	-18427
주간	-18428
▁마지	-18429
▁애착	-18430
웠을	-18431
▁Ex	-18432
▁남용	-18433
▁잔잔	-18434
▁독립된	-18435
▁실패로	-18436
▁효력을	-18437
▁존재한다는	-18438
▁십자	-18439
▁1968	-18440
▁다스리는	-18441
▁척추	-18442
다라고	-18443
▁전이	-18444
▁극대화	-18445
▁마련할	-18446
▁사교육	-18447
▁리처	-18448
CD	-18449
레타	-18450
▁예쁘게	-18451
▁반문	-18452
▁대표와	-18453
▁압수수	-18454
거리에	-18455
주의로	-18456
련이	-18457
row	-18458
▁오브	-18459
▁재편	-18460
품으로	-18461
인물	-18462
▁십여	-18463
만원의	-18464
제도는	-18465
현장	-18466
▁고의	-18467
▁이슈가	-18468
경비	-18469
볼게요	-18470
▁가면은	-18471
▁임진왜	-18472
▁친구들을	-18473
▁교사는	-18474
關係	-18475
▁인프	-18476
▁세워진	-18477
이치	-18478
▁Al	-18479
여대	-18480
▁농장	-18481
▁sh	-18482
▁분기	-18483
▁손꼽	-18484
▁칭기	-18485
▁진출을	-18486
▁정돈	-18487
▁되거나	-18488
▁무기력	-18489
▁정보와	-18490
▁충분하다	-18491
▁이차	-18492
▁3~4	-18493
▁감각이	-18494
▁잔인한	-18495
▁텃	-18496
▁보던	-18497
▁화제를	-18498
내서	-18499
▁가져오	-18500
▁길거리	-18501
▁당대의	-18502
▁충실히	-18503
혼자	-18504
▁석방	-18505
우스의	-18506
▁얕	-18507
▁소를	-18508
▁마음가	-18509
▁새마을	-18510
▁애정을	-18511
▁냉전	-18512
▁서는	-18513
▁의의	-18514
해주었다	-18515
▁시간입니다	-18516
남은	-18517
▁되살아	-18518
▁고성	-18519
▁지음	-18520
▁찾게	-18521
느냐는	-18522
▁보건복지	-18523
~7	-18524
▁몰랐던	-18525
▁의원에	-18526
▁냉동	-18527
▁끝없는	-18528
▁대응하는	-18529
▁있었을까	-18530
▁무자	-18531
▁Rev	-18532
▁특성상	-18533
▁회의가	-18534
▁한국인의	-18535
▁했잖아	-18536
심판	-18537
▁행태	-18538
보이	-18539
▁공감을	-18540
▁환경과	-18541
자로서의	-18542
▁조사됐다	-18543
▁한반도의	-18544
▁바뀌어	-18545
▁정체를	-18546
▁형식의	-18547
▁견지	-18548
▁길어	-18549
▁미시	-18550
▁예전의	-18551
▁모형	-18552
▁62	-18553
▁관통	-18554
▁마련하고	-18555
▁사용했다	-18556
▁아이디어가	-18557
발생	-18558
불리	-18559
▁고정관념	-18560
▁전문가들이	-18561
유산	-18562
▁단연	-18563
▁만족할	-18564
▁팀은	-18565
기능을	-18566
콘텐츠	-18567
▁쳐들어	-18568
▁부분들을	-18569
▁곁을	-18570
▁질의	-18571
▁표상	-18572
▁세력의	-18573
▁주체의	-18574
▁나열	-18575
▁경험에	-18576
▁경쟁력이	-18577
▁의구	-18578
▁수사에	-18579
▁원칙이	-18580
▁추억을	-18581
▁치안	-18582
▁호위	-18583
하시죠	-18584
▁지켜보는	-18585
회사에	-18586
▁높다고	-18587
▁그릴	-18588
자리에서	-18589
세트	-18590
▁드러났	-18591
▁가정이	-18592
▁욕구가	-18593
▁모델이	-18594
▁소통을	-18595
▁강력히	-18596
ise	-18597
▁대표로	-18598
▁보자면	-18599
▁사람들에게는	-18600
▁상이	-18601
▁토해	-18602
▁다름없	-18603
지시	-18604
▁공동의	-18605
que	-18606
▁따르고	-18607
ite	-18608
▁이소	-18609
▁어둠이	-18610
암은	-18611
▁낮에	-18612
▁피력	-18613
▁2018	-18614
▁들릴	-18615
▁피는	-18616
에까지	-18617
▁그렇구나	-18618
▁탈당	-18619
방안을	-18620
▁빠르고	-18621
▁사연을	-18622
▁유럽에서	-18623
▁비워	-18624
▁회담을	-18625
▁여길	-18626
▁주전	-18627
▁나자	-18628
대회에서	-18629
▁맞추고	-18630
▁어찌나	-18631
점도	-18632
▁가능성에	-18633
▁이때부터	-18634
▁기증	-18635
▁단원	-18636
▁방과	-18637
해졌	-18638
▁천도	-18639
▁받아들였다	-18640
▁케네	-18641
▁불교의	-18642
▁비중은	-18643
▁내주	-18644
▁셈이었다	-18645
기소	-18646
▁점과	-18647
공화국	-18648
▁생각의	-18649
▁성인이	-18650
41	-18651
대리	-18652
▁아산	-18653
▁부분으로	-18654
원장	-18655
했나	-18656
▁수레	-18657
시다시피	-18658
▁보강	-18659
▁전전	-18660
웠지만	-18661
정책은	-18662
▁대왕	-18663
▁엑스	-18664
환경을	-18665
▁극도로	-18666
▁이재명	-18667
▁저질렀	-18668
▁좋을까	-18669
▁때문에음	-18670
사장	-18671
▁시킬	-18672
▁법무부	-18673
▁움켜쥐	-18674
▁장비를	-18675
▁규율	-18676
▁캄캄	-18677
엄한	-18678
▁6·	-18679
▁십칠	-18680
▁받기도	-18681
▁완성된	-18682
▁기다려야	-18683
▁어쨌거나	-18684
▁有	-18685
▁상하이	-18686
▁조선인	-18687
▁했을까	-18688
마침	-18689
▁철학의	-18690
▁봤던	-18691
▁구성하고	-18692
▁부정하는	-18693
스팅	-18694
카가	-18695
▁타서	-18696
▁규정한	-18697
▁되었지만	-18698
공개	-18699
▁뽑는	-18700
▁과정과	-18701
이크	-18702
▁둥글	-18703
▁피우	-18704
▁차지한	-18705
▁나에게는	-18706
▁적용된다	-18707
▁주장이다	-18708
▁아트	-18709
▁장담	-18710
▁위안부	-18711
너희	-18712
▁대마	-18713
▁항구	-18714
▁됐으면	-18715
남자	-18716
옥의	-18717
▁특권	-18718
놓으면	-18719
▁걸세	-18720
▁군중	-18721
▁문학은	-18722
▁어머니에게	-18723
▁구성을	-18724
▁살폈다	-18725
▁잘못이	-18726
▁표정은	-18727
▁진흥	-18728
▁마리를	-18729
▁전투를	-18730
▁여동생	-18731
▁결정된다	-18732
▁무시하는	-18733
▁연설을	-18734
▁급식	-18735
▁북경	-18736
▁야만	-18737
▁구조는	-18738
▁다국적	-18739
▁주민등록	-18740
▁얇은	-18741
▁보도했다	-18742
OC	-18743
▁남동	-18744
▁유방	-18745
▁가게를	-18746
▁뜻밖의	-18747
놓지	-18748
▁97	-18749
▁ac	-18750
▁산정	-18751
▁무엇인지를	-18752
▁강아	-18753
▁연관이	-18754
해주신	-18755
▁쏙	-18756
▁많았던	-18757
▁정도이다	-18758
▁뻔했다	-18759
▁시신을	-18760
▁민망	-18761
▁부리는	-18762
▁들어오면	-18763
▁발생하지	-18764
배에	-18765
▁남았	-18766
▁매진	-18767
▁파급	-18768
▁휴양	-18769
▁시키고	-18770
.......”	-18771
▁유목	-18772
▁장거리	-18773
▁총무	-18774
과대학	-18775
▁호응을	-18776
▁발견하게	-18777
얼굴	-18778
▁박힌	-18779
▁살다가	-18780
▁영역이	-18781
▁통하지	-18782
▁피드	-18783
▁뤼	-18784
기간을	-18785
▁끌었다	-18786
▁좋겠어	-18787
▁실천하는	-18788
▁감았다	-18789
주차	-18790
▁원주	-18791
▁개혁의	-18792
▁동작을	-18793
▁개발하는	-18794
▁이치	-18795
▁가치에	-18796
▁부러워	-18797
▁막론하고	-18798
건대	-18799
고와	-18800
▁배척	-18801
▁외래	-18802
▁일월	-18803
왔지만	-18804
웃음을	-18805
▁것이기도	-18806
▁철강	-18807
▁위해서다	-18808
▁확보하는	-18809
▁모셨습니다	-18810
DI	-18811
내면	-18812
▁다릅니다	-18813
▁수익이	-18814
▁조정을	-18815
철에	-18816
▁열차	-18817
또는생	-18818
▁길에서	-18819
▁론	-18820
▁백지	-18821
▁경기에	-18822
▁죽으면	-18823
∼19	-18824
▁나비	-18825
▁근심	-18826
▁학급	-18827
▁활기	-18828
다녔다	-18829
민들의	-18830
▁찾아오	-18831
▁겁을	-18832
▁근육이	-18833
▁있는지도	-18834
[...]
