[PAD]
[UNK]
[MASK]
[SOS]
[EOS]
▁그
▁이
▁있
▁사
▁것
▁아
으로
▁하
▁수
에서
▁대
▁가
▁지
▁한
니다
▁어
▁자
▁나
▁보
▁다
▁정
▁기
▁시
▁일
이다
▁전
하는
었다
▁1
▁말
▁"
▁거
했다
하고
▁없
▁주
▁있다
▁때
▁않
▁인
▁내
▁있는
▁모
▁부
▁경
▁제
▁생
▁여
▁위
▁우
▁해
▁마
▁되
▁상
▁중
습니다
▁오
들이
▁의
▁사람
▁소
▁고
▁안
▁공
▁'
▁같
▁만
▁조
▁비
지만
▁예
▁무
▁2
▁바
▁관
이라
▁문
▁유
▁등
▁들
에게
▁세
적인
▁우리
▁신
▁그러
니까
..
다는
▁또
▁동
▁저
▁선
하게
▁도
▁미
▁아니
▁구
▁개
▁국
는데
▁연
▁많
▁네
▁서
▁생각
면서
▁것이
▁방
에는
."
▁더
렇게
▁불
▁분
▁성
▁알
▁결
리고
들은
▁발
▁것이다
▁당
해서
적으로
▁영
까지
▁그런
한다
▁때문
▁통
▁할
▁남
▁실
▁원
▁진
▁교
▁장
▁못
▁물
▁따
▁두
라고
▁반
▁계
▁현
▁하는
▁뭐
▁노
다고
▁3
▁대한
▁강
▁좋
▁받
하여
▁살
▁건
▁차
부터
았다
▁지금
▁한다
▁적
▁단
였다
들의
▁최
▁후
▁과
▁재
▁감
▁잘
▁입
▁들어
▁이제
▁같은
하기
▁스
▁집
▁이런
▁자신
▁요
▁된
▁것은
하지
▁역
▁작
▁특
▁학
어요
들을
▁게
라는
▁달
▁했
▁그래
00
▁그리고
▁좀
기를
▁있었다
▁행
▁배
▁김
▁매
▁가지
▁명
▁19
▁하고
이나
▁속
▁경우
▁문제
▁하나
▁새
▁때문에
▁이렇게
▁열
▁목
▁걸
▁점
▁사실
▁번
입니다
처럼
▁돌
▁회
▁필
▁근
▁설
▁다른
▁참
▁확
▁눈
▁앞
▁추
▁너
▁어떤
▁올
▁것을
▁평
▁4
▁음
▁얼
이라고
▁간
▁손
▁그러나
▁피
▁직
▁그렇
▁나는
▁데
▁변
▁5
리를
▁따라
대로
▁본
지는
▁했다
이었다
▁함
▁외
▁그것
▁있었
▁파
리는
▁처
▁심
▁맞
▁양
하다
에서는
▁언
▁누
▁형
▁민
▁아이
▁포
에도
▁정도
보다
하면
▁그는
▁종
▁사회
▁없는
▁드
▁운
?"
▁출
▁화
▁있어
▁시작
▁박
▁초
▁표
▁위해
▁뒤
▁산
▁“
이라는
주의
▁시간
▁합
으면
으며
▁싶
▁얘
▁내가
아요
▁찾
▁다시
▁먹
▁필요
▁날
▁책
떻게
▁만들
▁(
▁‘
▁한국
▁마음
▁많이
▁약
▁삼
도록
▁프
▁않는
▁청
기도
▁될
▁있을
▁아니라
해야
▁그래서
기가
기에
▁이상
이고
▁가장
▁어떻게
▁왜
자가
▁치
▁힘
▁느
▁활
▁함께
▁하지만
▁법
▁모든
되는
▁죽
▁각
리가
....
▁투
▁독
▁많은
▁줄
▁타
▁순
▁없다
▁친
▁금
사를
▁된다
▁큰
▁이야
▁것으로
▁그렇게
▁6
▁갖
▁높
▁체
▁다음
▁호
거나
▁편
지를
성을
▁식
▁채
되어
자는
▁그녀
▁증
▁환
▁씨
▁천
▁태
▁아무
▁지난
▁쓰
▁길
er
▁세계
▁에
▁여러
▁막
▁중요
▁절
지고
▁되는
▁판
▁모두
▁인간
▁창
기는
▁군
▁너무
▁이러
▁상황
▁북
▁크
가는
들에게
▁있습니다
▁버
이는
▁바로
▁미국
▁충
▁임
▁엄
▁준
▁권
▁몸
▁끝
▁검
▁말했다
▁그의
장을
로운
▁관계
다가
▁볼
▁존
▁곳
▁허
▁가능
▁돌아
▁정치
▁지역
▁논
▁그런데
라도
▁질
......
▁온
▁통해
▁떠
▁잠
▁담
▁잡
▁오늘
on
▁20
▁백
이었
▁애
▁의미
▁복
정을
자의
력을
▁취
▁10
▁넘
▁자신의
▁및
▁벌
▁보면
▁위한
▁7
성이
▁자기
▁규
),
머니
▁갈
▁사람이
▁있고
된다
in
▁대해
거든
▁총
어서
▁완
▁않고
어나
세요
an
▁보고
렸다
화를
▁가지고
▁사용
▁광
▁사이
▁머
▁이러한
▁병
통령
▁나타
▁이미
하면서
▁일본
▁인제
▁「
인이
하며
▁돈
▁부분
▁여기
▁관련
▁수도
▁사랑
▁교육
▁모르
▁8
▁모습
▁어느
▁난
졌다
▁항
▁경제
상을
▁일이
인데
▁향
▁계속
▁좋은
▁정말
▁토
▁몇
▁대통령
사가
▁용
▁『
되고
▁때문이다
장이
서는
▁정부
▁방법
▁이것
▁놓
▁대해서
▁대표
▁이유
▁몰
▁않았
▁또한
▁밝
▁야
▁기업
▁동안
겠습니다
▁우리가
▁빠
왔다
▁같이
▁즉
합니다
▁찾아
▁말이
▁200
▁나오
자를
예요
▁말을
인가
▁무엇
▁중국
▁있다는
그래
▁얼마
▁제가
▁것도
▁리
▁떨
▁말씀
했던
지도
▁연구
▁결과
▁<
▁국가
다면
장은
▁처음
▁내용
려고
▁아닌
▁없었다
겠다
시키
▁않았다
▁듯
▁9
▁이해
▁철
▁농
▁특히
▁효
▁글
▁먼
▁국민
▁당신
▁위해서
▁뿐
거든요
▁카
잖아요
밖에
▁있는데
▁프로
식을
▁않은
▁늘
▁이번
들과
에서도
▁얘기
▁사업
하였다
en
▁이후
▁새로운
▁돼
▁귀
▁존재
습니까
인의
▁얼굴
▁왕
▁혼
▁둘
▁해서
▁삶
이가
▁은
어진
▁하지
▁조금
▁없이
▁놀
▁별
▁받아
▁물론
▁하면
▁학생
ti
▁팔
음을
▁협
학교
▁됐
▁승
사의
▁커
▁당시
지가
▁서울
▁이게
▁현재
▁메
한테
▁접
므로
리에
갔다
이지
시는
▁우리는
▁해야
▁이루
▁와
▁S
▁황
▁업
▁아버
나라
▁지나
▁사람들이
▁년
▁의원
스트
▁그냥
동을
▁이름
▁첫
▁어디
▁아주
▁설명
▁되어
▁친구
▁아직
▁그리
가지
▁C
or
▁무슨
없이
...
▁결국
▁않을
▁사건
▁얻
▁보여
사는
▁되었다
▁저는
▁중요한
▁등을
▁문화
▁알고
▁만들어
나는
▁좋아
▁면
▁믿
▁그때
력이
▁뜻
▁이용
▁어려
▁수가
▁따라서
▁깨
회의
al
주는
▁이야기
▁로
es
▁A
▁또는
로서
도를
▁살아
▁199
▁합니다
▁먼저
에요
되었다
▁정보
▁울
들도
▁코
▁북한
정이
▁일을
▁육
▁자유
▁폭
▁나라
그러
▁읽
▁침
원을
▁후보
▁생활
구나
▁베
▁이를
▁웃
▁극
▁있다고
▁희
▁다양
으나
▁근데
▁역시
▁아니다
는다
운데
▁테
▁정신
ar
굉장
▁되고
제로
▁상태
▁그가
▁이어
▁직접
▁혹
▁학교
▁범
▁사람은
스로
▁여성
▁서로
▁측
르는
▁거예요
▁겁
▁준비
기로
▁듣
이며
▁자연
었던
▁능
▁라
구요
▁봐
!"
인지
▁알아
상이
전히
▁결정
▁더욱
▁일반
▁관심
굉장히
▁대학
대의
▁쉽
▁기술
▁거야
부분
▁엄마
19
▁자체
▁현실
▁축
▁성공
위원
▁선생
느냐
▁표현
▁급
he
▁진행
으로써
마다
치는
▁중심
▁내려
▁영향
대를
▁P
어야
이를
치를
▁-
▁어머니
는지
▁쪽
이란
▁전에
▁전문
▁풀
▁키
▁그것은
▁밀
▁십
▁때는
문을
▁굉장히
▁주장
▁12
▁꿈
그렇
시아
▁계획
▁싸
▁거의
▁앉
).
▁풍
려는
시에
▁가운데
났다
▁역사
▁곧
네요
▁영화
드는
▁T
▁갑
▁홍
그런
▁발생
그래서
▁요구
▁악
▁골
인은
▁전체
가를
까요
위를
원이
▁한번
▁붙
▁작품
▁역할
▁만나
▁깊
▁시장
▁이거
▁:
▁넣
지요
▁과정
더니
물을
▁변화
▁움
▁그럼
▁응
▁뛰
▁여자
▁있던
▁그러니까
▁M
▁기억
대한
▁있어서
정한
▁않는다
▁가족
▁민주
▁빨
▁밤
▁투자
▁분명
▁떨어
스를
▁패
▁올라
▁발전
기업
▁그러면
▁조선
▁갖고
▁거죠
인을
▁얼마나
▁생각을
▁흔
▁경험
▁정책
▁터
수를
▁I
수가
상의
▁생각이
▁구성
의를
내는
▁지원
▁브
is
▁맛
▁바라
도가
▁효과
▁되면
▁왔
▁그게
▁레
▁최근
임을
▁디
▁즐
▁18
제를
▁해도
▁대부분
제가
▁알려
▁술
▁상대
회를
더라도
▁숨
들에
▁스스로
▁언제
로부터
▁소리
▁있으
▁누구
동안
▁자신이
▁순간
보다는
▁t
▁문제가
가가
▁B
님이
▁번째
었고
▁다양한
▁기록
▁선택
▁속에서
▁앞으로
교육
원의
▁상당
▁개발
▁조직
▁지방
▁크게
▁참여
▁해결
▁생산
▁궁
▁환경
▁11
▁이에
▁201
▁사람들은
▁월
▁나가
히려
▁핵
▁등의
▁최고
▁땅
명을
▁바람
000
▁낮
는데요
지막
▁있어요
▁윤
▁사고
▁일부
▁운영
▁드러
▁그렇죠
대에
▁어린
▁개인
스는
보고
▁들어가
▁것입니다
자기
하였
▁확인
▁진짜
▁대상
스럽
점을
▁아마
▁노동
▁기다
개를
그램
▁하루
▁분석
▁이는
▁있기
었습니다
계를
▁꼭
▁결혼
▁끌
▁벗
▁관한
▁부모
되지
▁매우
▁30
▁흐
▁욕
▁활동
▁포함
▁마련
전에
으로서
▁것처럼
한다는
▁15
▁탄
움을
▁있지
스러
▁오히려
식이
▁움직
▁방송
▁작은
했고
▁그녀는
▁잔
장에서
국의
▁경쟁
시간
▁잘못
▁없어
아서
만큼
▁하여
리아
▁견
▁시민
▁인정
장의
▁퍼
▁가는
▁일단
▁의해
▁겁니다
▁나를
시고
▁기본
▁발견
▁목소
적이
▁속에
자들이
▁긴
▁보내
하자
▁트
▁교수
▁세상
▁국내
▁전혀
▁도시
스의
▁그대로
▁그들은
▁송
했습니다
▁맡
▁헤
▁봉
장에
it
▁저희
든지
▁마지막
▁나와
▁행동
년에
▁공부
▁운동
이야
▁경찰
됩니다
▁수밖에
ic
거리
▁높은
▁그림
로는
어가
▁평가
▁제공
▁국제
▁전쟁
▁특별
군요
사업
▁기대
▁p
▁선거
▁폐
▁한편
▁같다
선을
▁겨
근데
▁뭔
▁판단
▁L
▁목표
▁보는
오는
▁구조
▁암
▁젊
혔다
▁자리
▁이야기를
▁나서
사에
▁건강
▁만큼
▁강조
물이
사회
▁인터
금을
도의
인다
▁거기
▁있지만
▁노력
기의
▁우선
▁노래
아니
문화
▁남편
▁등이
▁정도로
▁추진
도로
만이
지역
르면
▁유지
▁옆
▁행복
▁가져
▁피해
__
▁흘
▁한다는
됐다
▁가까
지의
▁과거
전을
▁수준
잖아
▁제대로
스가
어난
리의
▁마치
▁그것을
▁주는
▁뉴
▁기준
▁죄
▁휴
중에
▁공동
▁망
리지
▁있게
권을
▁남자
▁사실을
▁것이었다
tion
감을
으니
▁싶은
▁나온
▁발표
▁있었던
▁있도록
▁탈
▁답
▁K
▁그거
서를
어도
▁충분
▁그랬
르고
▁프로그램
▁못한
▁틀
▁봤
하지만
▁있으며
▁개념
▁가진
성과
께서
▁가서
격을
▁대신
▁필요한
소를
지에
성의
▁관리
명의
▁산업
▁헌
▁걱
분이
님의
▁잃
른다
▁어렵
▁위험
▁딸
겠다는
▁얘기를
▁가슴
레이
▁198
▁시작했다
▁o
▁대답
▁소비
▁일어나
▁아래
▁사람을
시켜
re
▁모습을
▁과학
이기
▁D
했을
▁없을
▁석
▁멀
케이
▁약간
▁느낌
▁시간이
▁미래
▁지적
▁하는데
이라도
으로는
보는
▁하면서
▁이루어
대가
▁묻
움이
▁만든
▁느끼
▁못하고
▁쉬
▁아침
▁짓
시오
▁비판
▁비교
▁살펴
▁경우에는
▁형태
하거나
명이
▁고려
▁고객
▁우리의
지지
▁기능
과의
▁오래
▁민족
at
▁활용
▁마찬
었을
아가
면은
▁옷
▁사람의
▁생각해
▁아름
▁우리나라
▁힘들
▁조사
▁숙
▁하늘
▁슬
▁경영
▁않아
▁가치
▁끊
▁문학
▁그것이
▁받고
▁억
▁전략
디어
음에
▁주변
▁인생
하던
진다
▁니
▁제시
▁혁
▁나의
으니까
.”
▁문제를
▁혹은
▁수는
성은
있는
었는데
▁이와
▁됩니다
▁주민
▁당연
▁두고
듯이
▁돈을
정부
▁경기
▁사라
린다
내가
주고
▁분야
▁하나의
▁마찬가지
▁빼
정은
el
랜드
▁사실은
▁빈
▁동시에
냈다
▁소설
▁현대
▁되지
▁좌
는가
▁이것은
▁영향을
▁품
▁꾸
▁사람들
▁책임
고요
▁정확
▁적이
▁갑자기
안을
▁언론
▁예를
▁똑
▁혼자
▁만약
▁비롯
회가
으로부터
▁몸을
▁쉽게
관이
▁빛
▁갔
20
▁격
▁여기서
▁전통
ch
▁R
리로
▁실제로
▁흥
원에
▁해당
▁여행
우는
▁다르
ol
▁안에
▁공간
▁사는
자로
랐다
성에
▁E
쳤다
자들은
▁손을
▁부족
▁방식
▁젊은
▁항상
▁밖
▁단순
▁지도
▁외국
(1
▁음악
▁역할을
▁제품
▁선생님
드시
겠지만
심을
▁그들의
▁모양
▁마음을
▁페
▁인식
▁사진
▁자세
수의
트를
데요
▁아니면
시면
▁보니까
▁찬
에서의
▁압
--
▁눈을
하다고
만을
▁통해서
가지고
▁올해
▁중에
생활
▁그를
훨씬
▁서비
원은
아야
▁달리
▁회사
▁적극
▁칼
▁딱
▁밝혔다
▁나무
수록
화가
센터
▁그녀의
▁인간의
적이고
라면
도는
and
▁16
▁증가
료를
om
▁없고
▁훨씬
▁구체
▁옛
▁적용
▁위에
업을
▁위해서는
▁빌
하다는
▁앞에
경제
▁자신을
시키는
▁G
하도록
▁of
▁않다
그리고
▁플
ing
▁성장
같이
운동
▁꽃
▁의견
▁지속
▁받은
려면
▁써
▁자동
가의
▁여러분
▁가르
치고
▁착
에게는
▁꺼
스템
▁집중
▁주고
▁아파
▁보다
▁하기
▁싫
▁괜
▁따르면
▁옮
▁방향
▁반드시
▁요즘
▁익
겠다고
▁그럴
▁종교
▁달라
▁이곳
연구
am
부를
▁17
▁지난해
▁고개를
과는
▁상품
▁클
▁감사
▁아니고
▁행위
수는
▁반대
지금
▁끼
관계
▁프랑
우리
년대
부가
▁했던
▁불가
▁잊
▁했는데
▁N
▁F
정에
롭게
산을
기관
▁쓸
▁전국
자와
으면서
구하고
▁팀
▁말한다
▁까
▁13
.......
▁누가
▁연결
▁오는
▁언어
......."
▁안전
▁인천
▁보니
없는
▁일은
웠다
▁그래도
▁이르
체의
▁잠시
▁이론
▁100
▁칠
보았다
▁기간
스럽게
▁비슷
▁판매
▁H
▁마을
▁그걸
▁지켜
▁위원
▁시간을
▁아닙
▁빨리
비를
구를
▁하며
▁염
▁떠나
▁가격
경을
▁다음과
▁강화
▁쳐
▁고통
부의
▁말고
▁감독
▁주요
▁나누
▁대해서는
▁나왔
▁빠져
▁들고
정의
▁보통
▁못했다
▁밥
▁보이
▁덕
st
▁절대
▁14
▁낙
했지만
▁어려운
▁아닌가
▁전화
대는
▁유럽
▁있으면
▁타고
▁공격
▁엄청
▁대로
▁소개
원에서
▁분위
▁금융
▁경우가
▁왜냐
▁문제는
▁대구
한다고
▁독일
▁해석
▁펼
▁정당
▁사회적
▁인물
▁먹고
▁완전히
▁않으면
▁지배
▁예술
▁시절
체가
▁없다는
▁색
▁아까
문학
▁보호
체를
우고
▁머리
상에
▁쓴
▁질문
▁보이는
▁듣고
함으로써
▁중앙
▁아버지
▁필요가
▁루
ed
▁남아
이라면
명한
▁업무
▁퇴
ou
▁목적
▁사이에
이트
▁같습니다
▁뜨
▁괴
조차
제의
▁녹
▁달려
▁여전히
▁불러
어들
그렇죠
▁50
▁훈
보면
▁지식
▁기존
▁겪
▁있어야
도에
▁마음이
▁집에
▁선수
▁하게
▁지금까지
▁힘을
)'
함을
부는
세를
▁짐
이면
▁넘어
▁등에
▁밑
▁그러한
자들의
▁주인
▁다니
▁자본
▁나도
▁책을
▁것과
하기도
▁조건
▁티
▁규모
▁광고
▁파악
▁졸
il
심히
▁일으
나무
▁것이라고
▁놓고
음이
▁했습니다
센트
▁불구하고
▁못하는
▁인사
▁부정
▁확실
▁자주
놓고
자인
▁형성
▁걱정
▁아무리
▁냉
점이
▁나오는
▁아름다
▁신문
▁하였다
▁말하는
▁단계
▁상당히
리스
자에
▁던
et
▁하다
▁한다고
▁부담
세기
산업
▁앉아
▁그만
▁수행
▁것에
▁인터넷
말로
▁뭔가
▁예상
사와
▁길을
더라고
▁다가
같은
제는
▁뿌
▁보인다
▁앞에서
지로
▁약속
아버
▁예정
▁혈
▁측면
▁반면
하라
▁등장
▁그리스
▁받았
▁넓
▁아닐
(19
간의
▁섬
▁핵심
▁방문
▁197
▁제일
▁지지
▁0
▁차지
▁실제
▁워
스러운
관을
▁고민
ation
▁늦
▁관심을
정책
▁왔다
▁이전
▁반응
십니까
▁찍
▁것인가
▁원래
▁정상
▁시대
▁W
▁입장
▁놈
등학교
▁이십
▁쌓
▁통일
▁의한
▁불안
▁이때
▁확대
▁이날
단을
▁만드는
▁희망
▁아내
▁확보
▁the
해요
간에
▁건설
▁탐
▁맥
▁각각
▁만한
▁있겠
▁따른
▁가능성이
▁괜찮
▁그건
▁이익
▁러
▁그니까
기고
일까
▁영국
인들이
▁있다면
▁설치
시장
이에
렀다
회는
▁묘
▁실패
▁눈에
▁향해
한다면
했다고
신을
하는데
하신
▁대체
▁나타나
▁독립
화의
▁실시
▁굳
▁[
▁받는
▁많다
▁재미
▁사무
▁그렇지
▁없습니다
as
▁보였다
▁해외
▁앞서
▁의사
▁돌아가
위에
학생
▁그다
▁철학
나요
▁아는
▁대중
▁푸
▁다만
내고
그런데
▁d
▁이천
▁그동안
10
▁아니었다
▁씨가
▁불과
했다는
▁휘
▁저녁
▁아빠
▁인해
치가
한국
시설
▁검찰
▁없었
씨는
▁의식
▁그곳
▁되는데
약을
▁경우는
▁뒷
▁캐
감이
▁25
상은
▁중심으로
시킨
▁정리
▁일어
님은
▁말해
▁집단
▁결코
▁같아요
질을
▁사례
▁과정에서
▁거래
▁벽
▁과연
▁논의
▁제기
▁습
이의
을까
▁열심히
▁주로
▁자동차
▁수익
어버
하셨
와의
했는데
▁기초
▁이유는
▁이끌
▁엘
▁」
▁둘러
▁같애
기술
구가
요일
게요
▁출신
▁느껴
▁변호
이런
이에요
법을
▁근거
섰다
▁뇌
▁창조
▁누군
개월
▁그들이
당이
le
▁놀라
▁1.
▁국회
▁사람들의
▁말은
▁작업
▁성격
▁비용
▁치료
▁여기에
▁해주
▁시스템
▁배우
그러니까
주를
▁알았
▁ᆞ
▁전달
▁원칙
▁음식
▁받을
▁어찌
▁들었다
(2
실을
였던
▁명의
▁주식
▁전망
르게
ent
▁특징
그럼
▁오후
▁뒤에
도시
▁안녕
▁스타
▁접근
▁충분히
▁대단
▁물었다
▁지금은
▁이동
▁텐
▁능력
지게
들어
어를
▁대하여
▁좋다
▁갈등
▁든
▁솔
▁군사
▁기자
구의
겠어요
▁히
▁and
▁삶의
▁컴
▁물건
▁말이다
하려는
행을
십시오
▁그래요
▁직원
▁이것이
▁살고
개발
▁지키
▁때까지
하세요
▁내용을
▁아파트
▁위하여
▁얼굴을
▁점을
▁그렇다면
과를
이게
만의
▁두려
▁네네
▁곡
▁통합
▁영역
▁공개
소가
▁왜냐하면
▁J
▁40
un
▁규정
▁후에
▁자체가
▁s
▁바꾸
라이
▁위치
수한
▁정치적
원으로
관리
▁관련된
부에
▁혜
일이
▁개선
▁꼬
고를
▁자료
▁어쩌
겼다
▁했지만
▁상승
▁가정
▁되게
켰다
▁모르는
▁소유
누리
많은
해주
이지만
론을
▁말에
▁걷
▁작용
▁식으로
',
▁굴
일한
▁제작
다니
▁와서
▁이들
▁행정
▁어떠
▁거는
▁소리를
▁가득
▁낳
▁점점
▁정의
▁생각하는
▁미국의
▁안에서
종의
사로
계의
,000
문이
▁삶을
▁비해
은행
2)
▁최초
았던
▁신경
근혜
▁짧
▁물어
▁갔다
▁196
▁같았다
▁2.
▁촉
▁없다고
민주
위가
▁그러므로
분을
▁주목
▁개혁
▁말할
하시
준다
▁21
쨌든
▁시각
것도
▁대통령이
▁부동
▁가능한
30
▁맺
정으로
자에게
▁관광
리기
▁깊은
디오
▁납
▁심각
▁청년
』,
가에
▁도움이
대학
▁평균
▁《
▁보험
위원회
지기
▁단지
▁이름을
소한
▁공연
적을
▁마침
▁각종
장님
▁c
▁공급
▁점에서
▁처리
▁싶어
ro
▁바다
퓨터
▁개의
▁별로
기와
일을
▁택
▁끝나
▁이건
▁되었
▁상호
네네
하나
▁언급
▁입을
▁상상
신이
▁척
보다도
▁있었고
▁긍
비가
▁뭘
▁도입
▁은행
▁징
▁실천
▁하셨
▁장기
해도
▁관계를
▁대상으로
▁시험
▁도착
물의
▁강력
▁때마다
어져
▁의미를
▁이들은
▁담당
▁부산
▁만족
▁잡아
면서도
▁시행
▁훈련
▁경기도
50
▁안정
▁셈
독교
▁작가
▁쏟
▁프랑스
▁것이고
▁반영
사람
▁멈
▁훌
▁블
지어
▁포기
▁추가
이터
시를
스터
▁생명
▁아들
▁혹시
▁않습니까
.'
장과
차를
▁출발
▁상징
▁그녀가
이자
▁됐다
되었
이제
▁만에
▁바뀌
보자
단체
두고
▁그렇습니다
▁멋
▁상황이
▁제한
▁부르
▁차례
▁분명히
거운
락을
대표
▁들어서
점에서
▁받아들
▁궁금
정치
력의
▁전해
▁에너
▁쓰는
▁종합
▁자녀
겠죠
시킬
▁돼요
▁알게
고는
▁청소
▁저도
▁이상의
시가
ac
▁옥
▁나중에
▁아프
▁다섯
▁관계자는
1)
겠습니까
장으로
▁뽑
시다
▁중에서
▁할머니
아이
▁명이
▁보기
▁위로
▁장애
▁썼
▁받았다
드리
▁벗어나
드를
▁대응
▁등으로
포츠
▁전환
리적
▁재판
▁다음에
▁간단
▁삼성
▁내게
▁수용
▁행사
▁학습
인과
▁유리
▁들여
▁짜
▁때도
▁필요하다
▁둔
▁옛날
씨가
▁이른
▁도와
▁가고
심이
방을
▁며
조건
▁남북
▁24
▁모른다
▁언제나
▁벌어
▁나이
쪽으로
▁전문가
▁제도
▁오른
▁주택
▁매일
지면
리와
▁자리를
▁수많은
▁기관
▁뿐만
▁컴퓨터
▁교회
▁같은데
해를
▁보이지
▁정보를
▁객
계가
주가
하고자
▁방법을
까지는
▁체험
▁대비
▁○
▁일이다
당한
▁우려
▁듯한
▁아직도
▁당신이
▁공공
▁기울
이었던
▁떠올
화된
▁하자
▁봄
▁범죄
권의
시키고
▁오늘날
▁러시아
.1
개의
▁소리가
▁맞는
▁자기가
불어
▁경우에
가고
환경
▁in
▁이처럼
▁나머
▁당연히
되어야
▁오랜
▁여름
면을
▁콘
▁끌어
▁씨는
▁나타난
▁해요
▁신뢰
▁불가능
되기
▁반복
▁홈
▁너무나
▁회의
____
만으로
되면
▁하더라도
이어
만은
만원
▁세월
레스
▁흘러
▁강한
▁부탁
▁제외
▁서비스
자들
▁그날
▁있었는데
▁새누리
▁수출
▁벌써
▁인도
▁있는지
▁걸어
이기도
▁맨
▁미리
▁않을까
▁된다는
군의
하려고
ur
▁수입
▁끄
소에
▁둘째
▁수사
▁있었습니다
든가
리며
▁들려
더라
▁흔들
▁이제는
학적
세가
▁참석
▁이유가
▁대한민
▁박근혜
활동
▁쓰고
▁거기에
▁신청
리라
간다
류의
▁문을
▁겨울
▁조성
▁계약
당의
뿐만
▁상처
▁법률
▁예산
래도
▁교통
▁곤
▁통한
▁게임
계획
하기로
술을
인들은
us
▁더불어
▁분이
량을
▁바탕
▁원하는
▁거부
▁영어
해진
▁흑
▁머리를
▁상황에서
▁홀
▁대화
▁뛰어
▁쪽으로
▁않게
다른
구조
▁어쨌든
형을
▁먹는
선이
년이
가요
▁뿐이다
▁그저
▁기독교
▁선정
▁높아
▁사람들을
▁못할
▁부동산
▁실현
▁비슷한
▁밝혀
▁리더
었어요
▁시설
▁칭
▁헌법
▁힘이
▁스트
재인
세계
▁건데
치지
▁정부가
이라며
일에
▁일에
무를
▁논란
▁어제
▁증거
▁새로
▁상황을
▁하나님
▁하나는
▁혐
▁O
▁구분
품을
▁냄
자리
적으로는
▁부여
▁곳에
▁3.
▁설립
▁보자
▁아름다운
▁도덕
▁조용
관은
▁셋
▁아무런
바로
▁구축
▁그에게
▁생각하고
생을
▁텐데
▁집을
▁철저
지와
년부터
량이
▁시청
▁달러
▁청와
▁시도
율이
▁거짓
▁차이가
절한
▁올려
▁도로
라마
▁돌려
▁검토
▁평화
▁브랜드
▁컨
전의
▁생긴
선거
▁임금
▁부분이
되면서
▁결과를
▁엉
▁비록
력은
마트
▁보도
책을
▁있죠
국이
▁어깨
id
상으로
▁본격
▁요청
대체
▁없어요
▁아이가
▁엔
▁자꾸
▁균
▁글을
녀석
겠지
▁n
▁U
다란
하겠다
위는
▁과정을
▁잠깐
▁직업
▁것들이
▁때가
▁쫓
▁쥐
▁회복
▁건물
▁경향
▁근본
▁긍정
▁복잡
▁무시
과학
▁b
▁경우도
위의
▁동물
단이
리게
▁그것도
▁정도의
▁거쳐
▁있을까
시죠
▁으
텔레
▁낭
▁합의
▁기분
▁보았다
목을
▁사망
군이
▁묵
시의
정보
년의
▁다루
▁주인공
제에
당은
▁첫째
와는
▁지급
▁기반
▁무엇을
들로
▁실험
길을
안이
3)
▁모여
▁있음을
▁널
이렇게
▁대부분의
▁모델
마디
▁세상을
▁맹
서가
재를
▁사상
▁훌륭
▁저희가
지원
▁멀리
▁눈이
▁죽음
▁녀석
트는
em
전이
더라고요
히는
▁특별한
▁22
▁마음에
▁f
▁요소
▁비밀
▁쇼
▁근대
▁형식
년간
사실
▁참가
▁●
하니
했으며
▁맞아
▁지구
▁이걸
.2
▁활동을
스크
규모
▁덜
▁최대
권이
▁극복
인들의
인으로
▁쳐다
▁게다가
▁탁
▁몰라
▁열린
▁사람들에게
▁내부
업체
▁나아가
▁상담
▁기회를
▁추구
▁완전
▁자네
만한
▁싶다
케팅
▁털
▁주도
▁거지
증을
----
▁보수
놓은
0%
▁밖에
▁자식
이스
▁m
▁오빠
▁하나가
▁몽
▁그에
▁속으로
▁졸업
▁아닙니다
▁건축
▁본다
번에
인데요
▁최고의
▁떼
▁챙
였습니다
▁쏟아
▁개최
학을
화는
▁된다고
▁지하
▁한국의
치게
하려
호를
▁나올
리카
▁일상
▁가야
▁했고
▁슈
회에
▁영업
▁전개
냐면
문의
▁모습이
▁삼십
펀드
▁나오고
▁것이라는
적이다
로서의
▁죽은
어주
▁퍼센트
▁a
▁공식
나가
▁내일
리면
▁물을
았습니다
▁탓
으므로
조선
르크
▁가입
▁엄청난
▁언니
▁젖
키는
▁조심
에만
▁이뤄
이죠
▁거라고
▁국민의
기까지
▁바닥
▁광주
마저
▁단체
▁생각한다
▁상관
▁나왔다
▁23
력과
▁보장
다시
▁케이
신의
▁늘어
▁의료
▁아무도
조의
▁마찬가지로
▁흐름
▁당신은
▁가게
▁주었다
가락
▁옆에
ess
18
▁국회의
▁운전
▁말씀을
▁매출
야말로
▁가까운
▁물질
▁많아
인에
▁발언
학의
▁정부의
▁명령
▁말도
▁완성
▁말이야
▁먹을
▁계산
▁특정
별로
ter
▁무엇인가
▁공무
▁사람도
▁자리에
▁이번에
▁그러자
▁힘든
▁기사
▁갖추
▁서서
저는
▁사태
했기
▁깔
▁흡
▁좋을
15
▁고용
구는
▁냄새
▁나머지
▁불편
▁스포츠
▁문재인
▁예예
▁사항
▁기획
▁소득
어진다
▁좋아하는
▁w
▁않습니다
까지도
▁건너
단의
함이
▁나타났다
▁깜
▁생각했다
▁활성
▁당장
었지만
스타
이로
ra
▁TV
▁어떠한
▁국정
▁봐야
▁발달
▁아니에요
▁이하
▁집안
보험
기만
▁이래
▁어른
▁다행
▁심지어
▁도움을
▁아무것도
지면서
▁아니냐
▁어린이
▁말았다
▁민간
그니까
화에
▁의해서
▁커다란
ec
▁입장을
▁V
▁분들이
▁생기
▁이사
▁그만큼
▁체계
▁그다음에
▁외교
▁유치
▁펼쳐
▁26
▁선물
▁돈이
끄러
▁나쁜
군은
옵니다
낸다
▁붉
봅니다
▁세상에
▁하나님의
▁들어오
▁전부
▁가까이
▁대전
▁몸이
속에
▁중소
▁선언
▁고향
이었습니다
▁손에
트가
숨을
▁남성
▁곁
▁잡고
▁의심
스에
▁일찍
분에
▁근무
▁그렇다고
▁위협
명은
▁있는가
▁전투
▁시작한
▁불법
로를
▁부인
트의
▁숲
입니까
워서
국을
▁사회의
학과
▁낮은
▁기업의
▁27
▁한다면
▁생겨
▁그렇지만
▁화장
▁가면
억원
▁가리
▁관심이
서에
▁한마디
▁28
▁대형
▁문제에
▁따뜻
▁메시
▁이유로
▁당신의
▁일본의
겠어
.5
의식
▁교과
▁집에서
▁따로
미터
방송
▁그룹
▁덧
▁2000
▁처음으로
ig
▁전반
▁물러
▁뒤로
▁이것을
▁제안
▁밖으로
▁사람에게
▁겸
▁감정
▁아예
중한
▁빚
학년
▁만일
당을
▁만난
▁어울
▁지니
▁같아
▁나름
▁동생
▁재산
▁가끔
▁대선
▁지닌
하시는
히고
▁흔히
▁여론
▁로마
▁맞추
ers
12
방의
▁인간이
▁누구나
▁떨어져
▁옳
일보
▁주의
▁전자
▁쪼
▁194
▁유명한
▁무너
▁전화를
금이
▁능력을
▁사이의
▁느꼈
▁최종
▁뜻을
주의의
▁사랑을
▁글로
▁영원
쪽에
▁무서
그게
」,
력에
▁자랑
▁걸쳐
받는
▁길이
▁진실
▁본질
▁토론
했어요
'(
▁그려
▁아이를
▁끊임
▁도전
%)
받은
▁값
▁것인지
▁모두가
▁호텔
▁하시
▁네가
▁진정한
란다
▁자극
비에
바닥
▁통과
ce
님을
▁전시
점은
▁차별
▁새벽
회에서
▁간의
▁배경
▁△
▁신앙
▁찌
▁캠
▁아이들이
조사
▁덮
▁끝에
▁비난
▁마침내
▁곳이
▁사업을
▁60
점에
▁적은
▁태양
▁무엇이
▁들면
였고
▁나에게
▁했을
▁도망
▁받아들이
▁얼굴이
▁의미가
▁행동을
▁주체
▁않으
월에
▁예수
주택
미를
조를
거리는
배를
뮤니
▁며칠
서의
▁조정
표를
▁되기
류를
비는
▁저기
거래
오늘
▁섞
▁보지
▁듯이
대학교
회사
▁마케팅
당에
▁거기서
줘야
국가
▁아닙니까
▁했어요
보며
▁가로
▁때에는
▁관찰
▁꿈을
▁보면은
▁작성
▁깊이
▁결합
▁시기
▁욕망
▁쿠
분의
▁미안
▁사실상
▁보이고
▁설득
▁마주
관의
▁변화를
▁유형
시대
▁옷을
▁수요
▁아시아
▁이른바
▁파괴
▁액
▁가난
위로
▁세워
▁커피
▁것이며
무리
▁말로
▁그녀를
▁흉
▁섭
▁숫
▁드라마
▁발휘
ul
▁마이
▁획
▁지금도
▁받지
라인
▁재정
셔야
▁의원은
▁의무
도와
▁관계가
▁중요하다
▁준다
사한
▁심리
▁책임을
▁인한
용을
▁입고
▁영혼
▁그들
민의
▁소속
▁방법이
▁어쩔
▁참고
▁효율
봐야
▁깨달
▁진출
▁집으로
▁의혹
면에
▁틈
▁부분에
▁유명
년을
▁맛있
▁찾는
▁만들고
▁있잖아요
▁갖는
▁공포
▁의하여
▁말씀드
16
부모
▁홍보
▁끓
▁등은
연합
연히
▁안타
▁생활을
나게
▁자리에서
▁솔직
▁감소
실에
▁떠오
수로
th
▁예측
▁보면서
▁남은
▁전형
기간
▁우리에게
▁방식으로
▁생각할
▁그와
▁띄
os
차가
투자
4)
▁가치를
년에는
▁효과를
▁주지
▁꺼내
그렇게
▁분노
자들을
▁여자가
▁싫어
▁우주
▁보아
▁제거
▁비행
▁비롯한
계에
▁오늘은
▁꽤
.3
▁의견을
▁가만
▁잇
▁왼
▁근로
▁할아버
단은
부로
니아
▁도대체
▁검은
▁첨
▁낯
▁들이
▁부분을
▁실질
드가
▁팬
▁대한민국
▁제조
▁아무래도
▁가을
▁수상
17
▁엄마가
▁화가
▁현상
▁변호사
▁보유
▁일정
▁벤
케이션
방이
▁말한
또는
률이
▁동네
해서는
▁묶
져야
▁내용이
▁제출
▁없었던
▁같애요
▁하겠습니다
구려
▁열어
구에
▁처벌
▁간에
▁오전
자들에게
▁부드
화와
▁케
려야
▁뉴스
▁시간에
▁여유
▁못한다
만에
▁텔레
▁강력한
ag
▁콜
▁보여주
▁사실이
▁것들을
천히
▁하니까
▁얘기가
▁전기
이거
주의적
▁있으니까
▁일도
랫동안
▁옮겨
▁싱
말을
▁라고
▁점이
시켰다
▁이외
인에게
▁적극적으로
▁그러니
▁구속
▁때부터
▁맞춰
▁장면
▁동료
▁동의
워크
마자
▁아저
▁신고
원과
평가
거렸다
▁혁명
▁일반적으로
▁무렵
▁업체
▁겨우
진이
▁완벽
신은
발을
▁맞아요
▁구체적인
▁좁
역을
▁희생
▁고양
▁오십
▁폴
▁경제적
유의
▁추천
▁올라가
▁머물
▁안녕하세요
▁중국의
ri
▁개인의
▁데리고
지에서
▁다녀
▁감각
▁현장
▁출판
셔서
▁초기
▁적어도
▁아마도
▁등록
▁거리
▁대표적인
▁아버지가
▁말하고
▁저항
▁좀더
증이
▁바탕으로
프로
▁쌍
▁달성
니스
문에
▁통하여
▁오랫동안
▁단순히
소득
km
과정
▁협력
일부터
▁혼란
소리
▁천천히
▁점이다
진을
ity
겠는가
▁똑같은
▁예정이다
▁수업
산이
▁직장
▁구입
▁햇
질이
▁진보
▁위에서
우스
대에서
라며
려서
▁기타
▁통제
14
으로서의
노동
립니다
보니
관에
▁아닐까
선의
▁소통
▁공통
▁중간
▁날아
▁내는
▁한참
▁깨끗
▁이웃
▁틀림
림픽
▁장소
ew
일까지
▁◆
▁뚜
이오
▁기념
▁감사합니다
▁차를
▁쉽지
▁그들을
산의
▁외부
▁사용하는
▁상황에
▁생각합니다
▁우리를
실에서
권에
▁평생
▁≪
▁고맙
▁훌륭한
?”
▁이내
▁쌀
받고
이니
▁몸에
셨어요
%,
▁풀어
해가
았고
▁오르
성으로
▁이탈
달러
국은
▁뻔
▁일어난
예예
세의
▁청소년
하자면
▁느낌이
▁효과가
▁The
▁Y
▁구매
▁명확
여서
▁지혜
▁참조
▁노력을
▁모르고
마를
▁원을
전쟁
컨대
▁뭐가
▁다소
▁어쩌면
▁객관
▁인터뷰
▁권력
um
그룹
▁좋지
▁있었지만
▁정부는
od
ad
▁대출
드의
공사
25
▁못해
▁커뮤니
▁흰
▁방법은
집을
▁낼
로소
▁났
▁의하면
율을
▁어디서
셨다
▁판결
▁춤
▁얻어
▁29
▁오직
▁새누리당
oc
그러면
하다가
제도
▁연속
▁사랑하는
용이
▁생각은
▁대립
▁성적
▁유통
▁있는데요
져서
▁수원
▁하던
연을
(3
▁곳에서
▁안으로
법이
▁결론
▁꼽
▁모아
▁할지
와서
▁나눠
▁역사적
▁있거든요
하면서도
동이
▁점차
▁매달
마는
▁계속해서
▁투쟁
▁닫
▁서양
복지
▁선배
▁튀
13
▁하겠다
스런
▁설정
▁아니야
▁내년
▁기능을
▁일종의
.,
▁기여
▁한반
▁분류
▁낸
주로
▁내지
▁만약에
▁강조했다
▁덧붙
▁이야기가
군을
▁단순한
나마
문은
▁술을
▁/
조가
▁느낄
기지
조는
▁이번에는
▁병원
▁얻을
▁들은
▁수학
국에
▁창출
물에
▁걸로
▁기분이
▁떨어진
마을
▁바꿔
▁계획이다
리한
▁닦
▁돌아오
아주
▁표시
▁당선
▁공유
경이
▁거대한
방에
가로
번째
에게서
▁않도록
▁쇠
▁끊임없이
▁개정
들이다
▁설명했다
▁샤
하십니까
▁자아
▁국가의
▁쫌
▁성과
▁심각한
▁그러고
▁입장에서
▁정체
어로
▁어렵다
▁손으로
▁이해할
▁기운
법에
▁제주
이었고
하여야
▁이상한
었어
▁무릎
▁검사
▁혁신
▁인간은
직한
▁연락
.4
호가
▁늙
▁벼
▁차이
▁목소리가
▁하느
▁대통령의
▁넣어
▁발행
예술
▁쓰러
▁이후에
▁나라의
▁평소
▁의존
안에
해졌다
▁믿고
▁허용
▁만들었다
점으로
▁금지
끼리
▁짧은
▁동일
정말
▁키워
하의
▁봅니다
▁차가
▁이름이
▁연습
▁이혼
▁그러면서
▁민주당
▁■
▁이천십
▁엘리
▁내세
▁갖게
▁선진
▁생존
▁자는
▁즐거
▁때문이었다
▁모른
▁기회
▁것만
소설
실로
▁거듭
▁제목
▁번역
▁안내
▁드리
▁멈추
▁질문을
토록
▁하락
▁기쁨
▁소녀
▁중의
▁비중
▁불교
op
▁사내
식은
▁상태에서
▁사건이
동의
▁금액
법은
▁내고
사에서
▁차원에서
께서는
iv
미가
류가
▁이념
▁일이었다
▁지정
▁대변
▁프로젝
▁부분은
▁방법으로
▁글로벌
ir
인들
og
▁보편
▁유대
▁무언
▁어둠
단계
사랑
▁계획을
▁몰아
▁하여금
▁시즌
▁라이
▁속의
▁소재
자치
셨습니다
▁미디어
▁너희
▁내리
▁인상
▁개별
석을
▁잘못된
▁자기의
복을
▁의원이
▁기계
▁여자는
판을
▁긴장
im
▁말하면
▁새롭게
▁인구
랍니다
▁편안
▁자금
▁돕
트워크
▁어서
에선
▁뚫
▁박사
▁공산
▁무조건
▁고정
원들이
▁합리
▁지역의
▁끈
의가
▁물리
▁자격
전자
▁시대의
그냥
▁창업
▁경험을
▁셈이다
▁세계를
▁위반
▁195
▁근처
▁마지막으로
함에
▁수립
▁없지만
▁복지
▁텔레비
▁나갈
▁대책
▁위의
지털
▁넘는
(4
보를
▁끝까지
▁빠른
▁여섯
어는
▁에이
11
사고
개혁
▁데려
▁없게
▁몰랐
경영
▁깨닫
▁않아도
▁조금씩
▁교육을
시민
임이
▁분리
▁북한의
▁내놓
▁수단
사건
▁목표를
담을
▁동원
식으로
▁4.
▁집행
▁개입
▁점은
▁해방
▁탄생
연한
▁명예
이한
▁1,
▁중소기업
▁투표
▁배치
▁기존의
발전
?'
▁l
세대
ame
았을
▁통신
▁열고
▁아들이
▁충격
그거
하지는
▁것일까
이요
▁펀드
▁신용
호는
▁맞습니다
▁어두
▁대통령은
▁헬
▁나면
▁등급
▁늘어나
리오
▁없기
▁대해서도
▁꾸준
▁사장
▁In
▁세종
▁미술
조합
이익
▁해보
름이
▁준비를
▁않았던
▁교사
▁동아
▁권한
▁실행
▁이들이
▁공부를
▁만났
▁중단
▁형태로
▁매년
제와
▁결국은
권은
▁아버지는
▁정확히
▁조각
▁비로소
▁수술
▁이거는
들었다
▁규칙
▁높이
▁후반
석이
▁예방
▁유일한
▁셋째
▁닿
▁선발
▁예비
▁때에
▁융
▁님
▁장관
▁h
▁자신에게
냐고
▁연합
▁거고
▁날이
▁처음에는
▁나타나는
▁민주주의
성도
▁있으니
▁잠재
니까요
▁사과
경기
▁있으나
▁찾을
▁마시
▁없어서
▁익숙
▁투입
▁울산
▁이슈
▁낫
▁대상이
지자
▁분양
▁그럼에도
부와
▁끄덕
경찰
▁구별
▁차량
▁아이디어
▁신체
▁자가
▁빼앗
▁밟
▁조합
▁보낸
1.
오고
▁항공
▁뛰어난
▁지향
▁장난
▁태어나
▁남자가
▁싸움
▁정신을
▁나가는
▁의미한다
-2
거리며
조직
▁들여다
전략
▁지휘
▁나아
▁눈으로
▁쏘
▁이익을
부장
▁사유
▁뒤를
렸을
▁알지
▁|
▁*
ow
로의
▁스마트
너무
음은
▁맑
▁취업
▁그리하여
▁역사를
▁부딪
5)
▁1)
에서부터
▁방향으로
스와
▁무척
▁뭐라고
년까지
살을
여야
수에
하죠
대전
라리
▁운동을
▁저렇게
▁본인이
▁이기
▁이들의
▁붕
▁무엇보다
▁읽어
▁반대로
버린
▁굳이
▁이렇
▁구체적으로
▁하나로
▁부처
답니다
▁번도
라가
▁미친
▁쉬운
▁춘
▁하이
▁회사의
가족
소의
▁특수
촬영
▁펴
▁사실이다
▁청와대
▁어머
국민
▁결과가
▁소송
인트
▁어머니가
▁확실히
상과
▁등과
▁어머니는
▁논쟁
▁백성
▁않기
▁쾌
▁죽을
해지는
▁아우
▁학생들이
▁놓은
▁이리
▁생겼
▁정확하게
▁인근
▁확정
▁바람에
▁원내
해지고
모를
▁소위
형이
이션
▁되돌
▁살짝
▁깜짝
▁기준으로
▁처음부터
물은
였는데
▁절반
졌고
천만
음에도
▁마무리
단에
▁씻
상태
설을
▁임대
ot
"(
▁김정
▁대표는
▁걸려
명으로
▁아가
▁않아요
▁봉사
▁붉은
▁나온다
▁식민
▁물이
▁기도
▁이승
서비
하겠다는
되며
식의
▁금방
받을
▁보여주는
▁콩
▁음식을
▁민중
▁회장
▁남녀
민족
주에
▁수십
자고
▁거다
▁대답했다
영화
로가
▁보며
▁대화를
▁땀
▁보게
▁70
▁듣는
▁문자
▁꼼
▁넣고
60
▁그러다
력으로
▁능력이
법의
지방
▁워낙
르지
서울
▁아이는
공을
▁것보다
계는
▁1990
▁시원
▁기회가
실한
▁아이들은
름을
▁칭찬
▁성립
▁확산
.?
▁체결
▁몰려
스토
▁연기
▁공감
▁생각에
▁증명
▁지내
▁편집
▁경남
▁상당한
▁현재의
▁측면에서
▁내용은
▁일정한
▁멍
▁주장했다
▁자율
▁없지
짜리
▁고등학교
▁아니라는
▁독자
▁여겨
▁가능하다
▁에너지
▁한쪽
▁을
▁계급
▁받게
스라
▁드는
▁입은
▁정도가
▁내에서
서도
▁그렇다
▁같고
▁나름대로
▁기다리고
체는
▁이끌어
치의
▁넌
▁아르
▁느낀
▁요리
▁노인
▁멸
▁사전
▁중인
▁화려
▁만날
비의
사항
▁설계
▁가만히
마가
통신
하고는
▁외국인
▁최소한
▁있었기
▁웅
▁김영
연이
스코
▁무역
▁라디오
▁겉
▁세대
라서
▁주장을
▁최대한
▁텍
어의
금융
▁온갖
텐츠
▁2002
▁집어
▁(1)
▁이유를
▁고대
▁분들
▁그린
▁가질
일의
▁웬
▁둥
▁필수
▁친구가
▁뼈
▁농민
▁풍부
▁불행
▁예전
▁자신들의
ut
▁최초의
▁빗
▁이로
▁정도는
▁지니고
▁때의
러운
▁다르다
▁의도
▁마라
▁좌우
▁넓은
▁아버지의
▁거를
▁열었다
명에
드로
▁어리
▁방침
▁국방
▁아이의
▁우승
▁것이라
▁회원
▁디지털
▁북한이
절을
▁적합
▁남의
▁때문입니다
▁이성
소는
▁버리고
▁자세히
▁싶지
어떻게
▁고구려
▁언젠
▁봐요
▁짐작
▁대기업
▁80
▁목소리로
▁St
▁커뮤니케이션
▁당사
라의
▁위기
▁닮
▁끝난
▁계시
해보
ve
▁손님
▁읽고
어지는
▁수정
▁않는다는
▁시대에
▁2)
▁숨을
전거
온다
▁사십
▁사건을
▁했다고
자도
▁공천
.7
▁들어가는
▁띠
6)
주민
▁에스
▁초등학교
그때
씨의
▁만남
▁대개
▁대표가
하기를
어떤
▁영양
▁지속적으로
▁혐의
▁모르게
ay
▁지시
▁정확한
▁까닭
물로
▁저지
▁지난달
▁부부
이상
200
▁일주
▁사람과
▁동일한
집니다
▁곳은
▁내에
프트
▁자연스럽게
▁재밌
▁빙
▁레이
저히
▁마음으로
▁느끼는
▁위대한
▁경북
색을
▁들어갔다
▁노래를
▁하나를
렸던
병을
의회
▁있다가
▁짚
▁흥미
▁먹어
▁(2)
▁생태
▁타이
▁전부터
▁확장
학자
재가
▁네트워크
▁싶었다
ap
▁작품을
▁변화가
▁프리
▁칸
▁달아
렸습니다
▁불을
▁프로그램을
▁참으로
▁일치
했으나
▁꼴
에게도
▁계신
이와
▁후보는
란히
▁뭐야
하였고
느라
▁시는
▁많고
▁나섰다
들고
선에
론의
▁알려져
▁이중
▁곳으로
▁말인가
▁데는
▁정책을
▁말라
▁v
▁세계의
해져
되었고
진은
▁독특
▁없애
▁눈앞
▁최근에
▁평가를
▁쟁
xx
▁바이
건설
전문
▁나이가
(5
▁도서
▁침묵
았는데
세에
▁관점에서
▁의지
경에
▁창의
시기
▁관객
▁비교적
이번
▁농업
무슨
인도
격한
▁하다가
.8
▁적응
▁경계
▁보일
▁가르쳐
사들이
▁정권
▁내면
ist
금은
철수
▁법칙
.6
▁김정은
▁일제
망을
▁테이
▁알겠습니다
했어
▁당시에
▁주관
▁인사를
▁뒤집
▁학문
상에서
▁가능성을
석은
▁우수
▁뉴욕
▁선교
자유
▁모를
▁공정
율은
호의
▁당황
▁흙
▁여성의
▁누군가
▁나선
수도
▁조사를
었다고
▁후보가
▁때로는
능을
▁배가
",
▁연극
▁아쉬
▁족
▁공사
▁시켜
▁부르는
▁적절한
▁무관
▁하나도
▁to
▁많았다
대회
하실
▁출연
▁기업이
▁아이들
▁너는
▁자산
40
화하는
▁류
▁감정을
▁끌고
안은
▁사회주의
대요
▁앞두고
▁거주
▁덩
▁겁니까
▁193
아의
이었는데
▁주문
목이
▁고마
본다
리그
직을
▁가슴이
리라고
▁점검
▁옹
▁상대적으로
▁물고
▁혜택
시키기
▁pp
건을
▁지어
해질
▁대처
하니까
▁연계
바람
▁향후
▁무기
▁규제
▁하니
▁자원
▁아니지만
선생
▁없는데
▁서구
▁닭
▁조용히
▁크리스
▁2003
▁손가락
▁연주
실이
▁다름
▁만들기
▁줄어들
▁정말로
▁곳을
▁그리스도
▁교수는
80
▁소년
▁남편이
.)
▁했다는
▁강제
▁존재하는
▁남겨
▁처음에
▁절대로
▁논리
▁지역에
주었다
▁못하게
▁목소리
▁말하자면
▁촬영
▁대규모
▁빠르게
▁나라를
▁무료
▁밀어
▁소련
▁저런
상품
▁덕분에
선은
▁특별히
▁대리
▁사이에서
▁층
▁응답
살이
▁마디
퍼센트
▁대단히
▁두려워
통을
림을
▁변경
▁한데
▁마리
▁탑
▁높다
식에
▁아니라고
관계를
▁간다
▁고생
』(
▁설명을
▁뻗
▁새끼
▁할까
▁거두
▁바깥
통합
▁올바
▁가라
▁측정
▁곳곳
심한
▁인용
▁마음의
되게
▁편지를
▁넘어서
량의
▁진지
▁들어보
7)
▁내내
▁데이터
어머니
▁지금의
▁말입니다
트로
률을
▁목숨을
트남
▁자료를
세는
령을
▁스페
▁맘
▁알려진
▁종종
▁머릿
자본
문제
럼프
일은
▁버렸다
▁고통을
▁지원을
▁않지만
▁기술을
▁활성화
▁물건을
▁생각하면
BS
▁끝내
로서는
▁눈물을
▁솟
저기
▁강하게
롯데
십니다
▁리더십
▁신기
부터는
▁영상
하기는
자마자
▁무한
▁공장
시켰
tic
례를
▁모순
하려면
▁주말
▁활발
안전
▁진정
▁그야말로
색이
된다는
▁몇몇
▁공무원
▁줘
▁본래
미는
한데
수와
▁성과를
▁단일
▁분위기
▁땅을
▁명을
▁지나치게
▁삭
▁일곱
이든
▁색깔
▁어떻
▁대법
▁즉시
빨리
▁1980
우리가
▁이탈리아
ev
▁미치는
▁재미있
▁편의
▁비롯해
차피
▁모르겠
▁시선을
▁근육
▁유도
생산
▁아울
▁웨
▁크고
▁그릇
하에
▁토지
▁채택
▁죽음을
▁표정을
▁서비스를
▁강의
▁지나지
관광
▁나한테
함과
▁이루어진
▁상대로
▁골프
8)
하라고
각을
▁입장에서는
▁도달
ia
▁얻은
▁500
▁해소
▁말씀하신
았지만
범한
▁그렇기
▁횡
▁그들에게
▁두드
.9
▁권리
▁이럴
하기가
▁특성
▁아냐
▁라는
였지만
▁주세요
▁청구
▁일로
아는
▁없으면
▁자본주의
▁빵
▁목적으로
▁통치
형의
개가
▁벨
▁아나
▁짝
▁베이
졌습니다
▁연관
▁팽
고가
▁사로
▁놓여
▁남한
해지
▁성격을
▁서술
▁치열
▁▲
▁연장
▁배려
▁작년
▁부족한
▁생각하지
▁들어간
▁목소리를
단다
▁얼굴로
▁성향
제품
▁이명
▁버린
▁이전에
▁최소
대중
▁자전거
난다
▁기원
▁있었을
▁강요
▁미소를
▁찰
▁주차
▁의미에서
트에
경은
▁비서
전은
크를
▁발을
▁사진을
령이
▁눈빛
▁승리
▁추정
동에
▁있습니까
기준
달라고
듭니다
▁존중
▁호흡
▁빠져나
▁몹
▁들을
▁행복한
ff
보기
▁아침에
▁생각도
▁평양
▁정기
▁다니는
졌던
씨를
▁그렇고
▁신의
▁사용할
▁들어와
▁대회
▁동양
▁인수
▁당시의
▁취급
▁허리
▁가치가
(199
▁내밀
▁폭발
▁일반적인
▁쓰지
▁사랑의
그림
▁있고요
▁드디어
▁느낌을
그다
▁플라
정과
▁아름답
▁알아야
이드
체육
활동을
원도
감은
체에
▁뿌리
▁피해를
이었지만
▁이르는
▁채권
▁안보
▁가볍
▁책은
▁그림을
▁맛이
ion
기보다는
▁적절
심으로
▁문제로
▁잠을
▁시골
▁마시고
▁들었
▁표준
▁잉
시스템
▁거절
▁남자는
지구
▁추억
▁크다
▁선보
▁축구
▁붙어
들한테
▁차라리
▁개방
▁따뜻한
▁향상
▁이재
▁배제
▁기억이
▁널리
▁데서
▁성취
▁붙잡
▁읽는
▁전제
일본
하겠습니다
▁관념
▁센
었다는
고자
영은
▁이상이
▁안고
▁당연한
심의
▁브라
▁Ch
▁입학
▁카메
▁진입
으려고
▁바른
▁뜨거운
ie
▁배를
▁표정으로
──
가루
▁인기
▁2004
▁식품
▁있었어요
시킨다
▁밀려
▁결정을
▁귀족
고한
교의
모가
▁접촉
▁면에서
▁이스라
올로
▁태도를
▁꾸준히
▁있느냐
▁니가
▁대기
▁이스라엘
▁전공
▁다를
보지
▁담배
언을
▁논란이
▁헛
주시
▁포함한
계약
희는
▁임명
▁교수님
▁자라
▁바란다
▁바라보았다
▁씨의
▁들어갔
▁모자
▁줬
나고
▁둘이
▁올림픽
전에서
성한
▁무려
▁텍스트
▁1999
▁턱
▁돼서
▁눈치
▁강남
ber
▁상업
▁답변
▁초대
▁선호
▁디자인
▁교환
▁누워
▁뚜렷
길이
박한
분은
▁살아가는
▁싶습니다
▁일하는
▁죄송
▁웃었다
여기
야만
▁되었고
▁사회에
▁갖춘
▁나누어
▁수백
▁비상
월부터
▁영화를
▁35
치에
▁사로잡
▁살인
▁노출
▁농촌
ard
▁모습은
▁뭐냐
서로
▁1997
▁시사
▁미래를
▁그까
▁다스
그건
▁이데
▁시기에
▁인권
생활을
▁눌
▁답답
협회
▁그렇군요
▁비즈
화로
▁건지
포를
▁주거
에다
▁바람이
▁무리
▁주제
상황
▁찾아가
▁굽
티브
▁경향이
▁아울러
▁정착
후의
매를
▁시의
겁게
________
금의
론은
▁유기
침을
▁원인
▁곧바로
작을
▁일어나는
▁이해가
▁이야기는
▁학부모
▁뮤
▁또다시
▁웃음
▁더구나
▁어머니의
신문
▁스승
▁나타난다
▁절차
▁재료
▁나갔다
▁좋고
릅니다
년도
▁용서
▁거울
▁방어
▁말이에요
▁빌려
▁자체를
자리를
▁현실을
▁31
▁것인데
▁종류의
럽게
▁벗어
둘러
▁다리
▁발생한
견을
내기
▁앨
밀한
▁식사
▁곰
액을
ill
라를
▁부하
▁우울
시로
▁얼굴에
▁방향을
▁질병
유를
▁최초로
▁잊지
▁슬픔
▁대체로
장애
공간
▁돋
▁노무
작용
▁최선을
▁만나는
▁아동
▁버스
러스
집에
▁갚
▁충돌
▁넘어가
70
▁간주
▁심한
▁한두
▁봤을
▁스토
▁300
▁영웅
▁앞의
▁감안
▁가지는
공동
▁박정
론이
리면서
▁태어
분석
▁여자의
▁앙
행이
▁적지
▁하얀
학은
▁어디에
▁작업을
▁여야
▁확신
▁충족
▁오고
▁조절
▁수능
▁생물
▁일자리
▁야당
단지
우가
▁도저히
▁푸른
버렸다
▁컸
▁잃어버
▁시간은
▁아픈
▁일관
▁다르게
▁호소
▁득
▁인공
▁증권
▁초반
▁최저
▁1998
▁요구하는
▁치고
ge
▁불리는
▁쭉
▁만들어진
▁방해
▁경험이
▁인생을
로지
▁인류
▁세력
란드
▁수수
▁국토
▁노예
▁이슬
▁태어난
▁하거나
▁딴
▁채용
▁정신이
▁몹시
▁되니까
▁유사
▁그거는
▁주시
▁초래
박을
연의
운드
전한
▁바랍니다
▁하시는
▁고급
▁e
산에
진의
▁들어갈
기에는
▁핸
대와
▁좋겠다
▁과거의
▁이틀
▁맞이
쁘게
▁땐
해진다
만으로도
▁솔직히
▁무엇보다도
마의
▁예외
▁외에
▁이용해
▁2010
론적
▁적극적인
아무
리어
관에서
▁있어도
▁현지
약한
▁베트남
하기에
▁가시
▁멋진
▁묘사
▁되겠
▁반발
보호
도에서
▁보조
▁방안
▁살펴보
▁훔
▁롯데
음의
▁않았지만
▁협의
▁여행을
비용
과도
▁취득
구역
▁제품을
▁구멍
▁허락
▁숭
▁모임
▁월드
▁화를
▁런
▁오지
▁기본적인
▁주저
중앙
▁평등
금으로
▁길게
▁제정
▁견해
▁있으므로
▁공동체
▁카페
▁폭력
았어요
소리가
▁홈페
▁믿을
▁예컨대
▁봐도
▁내렸다
▁있나
교통
리즘
▁인민
▁트럼프
어지고
▁빠진
▁이젠
▁긍정적인
▁협상
보가
▁연출
파의
▁직후
영의
▁필요로
산은
▁않았고
ht
▁복합
시하는
▁제공하는
▁보완
▁뭉
▁국무
▁달라고
▁소식을
▁.
층의
▁땅에
▁생기는
▁경우에도
▁국회의원
▁사람들도
▁192
▁아내가
▁엄마는
▁취재
▁불어
속을
왔던
▁보상
▁죽어
하러
▁배출
▁걸음
▁손해
▁공항
▁얼른
▁비가
▁안철수
양을
▁통화
▁쓰레
▁name
--------
▁신비
▁소식
▁머리가
uc
▁독특한
받아
▁온몸
▁마르크
우를
▁충분한
▁해가
▁기본적으로
▁계열
그것
▁90
친다
▁사람들과
▁개념을
▁종류
▁느끼고
▁보존
적ᆞ
나의
영이
크는
▁어차피
▁&
사회의
▁거짓말
경의
▁앤
▁일으키
▁어려워
▁다이
▁여기에서
▁넷
▁반응을
▁떡
▁들어온
왕의
▁것인
▁Pr
▁있어서는
▁맞지
▁것이죠
▁자살
▁이름으로
국제
▁않았을
생이
▁테니까
▁형제
▁빅
▁절망
▁상태로
▁발생하는
▁법을
▁물에
▁말이죠
▁억압
▁밥을
▁다들
▁내린
▁웃음을
▁깃
자동
▁획득
구로
▁궁극
▁국립
▁움직이는
▁복잡한
▁갖다
▁LG
▁사법
사무
▁혀
주의를
웠던
되었던
▁하였
▁썼다
▁시작된
석에
▁것이기
량은
▁꺾
▁자신도
▁문득
▁붙여
있다
▁장악
▁무게
▁중에는
장한
치기
▁어떨
▁하면은
▁시키
▁스트레
▁발전을
▁누구도
▁상실
▁한때
종을
하를
▁발굴
▁모습으로
▁거리를
▁흩
▁신규
병원
▁느꼈다
▁사회가
▁부지
TV
▁나라가
▁고백
>,
▁않았습니다
▁선생님이
▁향한
▁살해
쪽에서
▁엠
▁주기
▁초월
▁구경
▁마땅
결을
▁단기
▁파견
-3
▁찢
▁일방
▁창작
▁카드
진짜
▁똑같이
속도로
500
▁2012
BC
▁신분
▁해당하는
쟁이
▁총선
렬한
▁질문에
풀이
들에게는
▁유전
▁지자
▁썩
▁먹으면
가능
서야
교를
터를
해주는
all
▁확인할
르트
▁보관
▁이데올로
재판
▁이행
▁윌
▁매매
▁주먹
▁한정
▁부모님
▁비극
시와
est
종이
지며
▁사회를
▁당신을
▁인생의
▁윤리
▁나갔
▁안타까
▁이상을
▁190
▁행위를
▁놀라운
▁챙겨
▁하죠
비아
9)
▁책이
▁어우
▁―
▁출입
가격
▁뿐이었다
▁방안을
▁미국이
qu
▁2008
▁자존
인간
드릴
▁마음은
▁환자
▁무서운
▁닥
▁점심
▁되어야
▁곱
욕을
▁지불
관과
▁입증
▁지식을
랑이
▁감추
▁태도
▁형사
▁인재
▁면접
▁소비자
▁전면
감한
▁명백
▁보냈
▁밑에
스티
▁2005
▁형편
▁체제
▁부정적인
▁시달
▁등에서
▁목적을
▁임시
▁비정
▁오늘의
▁국민들이
주지
▁고전
▁주장하는
▁원인이
▁유혹
▁바라보는
▁돌아온
고도
▁차이를
▁주신
▁미사
▁좋게
희가
▁주어
▁나오지
ell
▁하신
▁불평
▁하늘을
▁보세요
▁유행
▁사회에서
▁세상이
▁털어
으려
▁분위기를
▁조치
▁시내
▁2001
더군요
▁목표로
▁한가
리라는
부에서
▁대단한
된다고
▁소화
차는
▁쇼핑
▁체육
겠느냐
성장
렸고
▁담아
형은
▁감동
규직
내지
▁대륙
▁것일
▁부러
▁시장의
청은
▁못했던
▁부서
선으로
▁재무
▁붕괴
▁힐
▁세포
▁중학교
▁보내는
건이
▁지은
▁팔을
▁회사가
적이며
▁다음날
북한
▁성공을
▁결과는
▁고유
ab
▁학생이
▁운용
는데네
사이
▁냈
▁순수
고의
▁충남
인들을
▁시가
▁마는
▁맞은
~3
▁만든다
▁이미지
▁나와서
▁지적했다
▁현상이
▁안녕하십니까
▁신속
ork
▁사기
네가
~2
▁말씀이
▁결혼을
▁연예
▁규모의
▁담겨
▁세상의
▁되었습니다
정신
하느냐
▁아이들을
▁형태의
으신
▁육십
▁5.
▁연애
▁단단
▁알았다
▁숨어
킬로
▁온라인
▁편지
▁말해서
엄마
▁부활
▁뜻이
!'
졌을
▁진술
▁회담
▁거거든요
▁상처를
▁표현을
주세요
▁하는지
스키
님께서
▁되자
▁있었다는
나도
▁보냈다
▁세계에
▁날카
▁방식을
▁방지
▁이미지를
물론
▁빛을
르의
▁가격이
속에서
없다
▁말씀하셨
▁제국
바이
▁보여준다
소에서
었기
▁모래
면으로
▁번씩
공항
▁전쟁을
▁존경
▁곤란
▁피곤
▁한나라
당에서
▁g
▁것들
▁살아남
훼손
▁출근
▁역사의
하라는
▁이름은
▁인지
▁특성을
▁세우
리다
위와
속으로
생의
▁예전에
▁...
세한
▁받아야
▁바라는
학이
▁어려움을
▁단어
하겠다고
그만
our
▁문화적
리즈
▁영광
▁아시
▁실망
▁종목
▁수집
회담
▁출마
▁보건
▁일어났
▁양반
감에
으로도
▁합격
니가
게도
▁전체를
▁이르기까지
명과
▁떠난
▁통계
▁연구를
▁중얼
▁영원히
▁가벼
▁학교에
▁체포
스레
▁전략을
일로
질의
▁세운
구백
▁걸린
▁담고
테크
▁눈물이
▁연간
ep
▁생명을
▁유일
▁과거에
▁휴대
시험
▁그중
▁진단
▁눈물
하게도
▁자유를
▁36
▁김종
▁관련해서
하고도
▁센터
▁덧붙였다
▁어떡
▁젊은이
▁바라보
▁소중한
▁모집
실의
▁아프리카
▁던져
▁났다
ran
▁어깨를
경쟁
▁한국에
▁수도권
▁유엔
▁3)
겠소
수준
▁병사
▁올바른
▁여자를
▁상태를
▁어릴
▁관계에
▁선고
▁1970
▁폐지
▁살려
▁개월
▁미국은
치며
▁33
▁검색
▁배운
▁오면
▁모르지만
▁몫
▁깎
▁동기
▁그나마
▁보인
▁지상
▁섹
무는
▁하려고
▁독서
세로
지사
장도
▁콘텐츠
기능
자료
▁중이다
▁아닌데
▁종이
▁투자를
소로
▁일부러
▁전후
▁1995
영을
▁귀를
▁보여주고
▁가볍게
▁험
안의
▁극단
▁과정이
그다음에
▁반면에
공업
▁주어진
▁겹
▁맥락
▁간호
The
▁매수
▁건립
▁매입
▁서서히
ment
▁놔
률은
롭고
▁프레
국에서
▁2014
스러워
▁문제의
▁받아들여
▁조작
수익
▁본격적으로
이건
▁바보
▁되면서
▁휩
▁문화를
르며
▁하라
▁믿는
하듯
▁이명박
프를
▁자치
▁오로지
▁싸우
비로
▁나간
▁시장을
’,
▁좋습니다
▁싹
▁한동안
▁◇
▁삶에
르기
▁노무현
▁않다는
차례
▁맞게
▁관광객
후보
▁가슴에
▁목을
▁다리를
▁모색
▁무사
▁법적
▁자기를
▁드릴
▁가슴을
▁인간을
▁중심의
▁테러
▁됐습니다
▁되도록
▁무섭
▁끔
▁호기
▁─
▁르
▁채워
▁철저히
▁신념
▁아저씨
청이
지난
........
▁꿈꾸
그렇습니다
▁신경을
▁마치고
▁과도
▁축하
▁같아서
▁전망이다
▁SK
긴다
▁동반
▁정비
▁고위
▁켜
▁>
▁저를
▁부채
았다고
▁억울
▁질환
▁영국의
▁흠
▁피부
하지도
▁집이
▁갈수록
▁서울시
▁지역에서
▁인격
판에
▁소외
ip
감과
대책
▁대사
▁그러면은
▁일단은
두에
▁왜곡
▁시를
머리
▁심사
-1
▁흥분
▁많지
야지
▁남을
결과
▁주변에
▁사냥
▁유권
이므로
▁떨어지는
ate
▁위험한
행정
▁내려가
▁시장이
(6
더라구요
▁분열
▁아무튼
▁어디로
가와
▁가난한
▁그거를
▁언덕
2.
▁했어
▁얘기는
백만
▁부끄러
▁분들은
이라든지
▁간접
art
▁여성이
▁도움
▁성공한
연은
▁xx
▁상반
적의
▁공화
90
▁2,
▁받는다
▁지출
▁김성
▁북한에
▁얽
▁공직
▁중반
▁불렀다
▁이용한
▁서둘러
▁분야에서
련의
▁다행히
▁시대를
었죠
▁듭니다
▁입주
▁기름
▁45
관으로
방에서
▁일어날
▁입에
▁38
선수
▁조금만
▁흐르는
▁주제로
▁사람으로
▁약속을
▁개를
▁검증
▁특정한
▁유발
재의
▁샘
▁방금
분야
▁표정
▁균형
▁잎
▁모으
▁반갑
나다
▁다녔
했는지
자나
카드
▁분위기가
▁썰
▁가깝
ud
▁무엇인지
▁엿
▁보급
▁파리
▁한계
시한
▁아이들의
▁감옥
▁앓
▁이벤
▁올리
▁무덤
▁권리를
이니까
▁짓을
▁비유
▁담긴
위에서
▁데이
▁웹
ich
▁가지가
봉사
▁공중
6.
▁화학
다운
할까
▁시인
▁가수
▁육체
▁늦게
▁낡
크로
▁자의
▁정작
▁회장은
았다는
▁확실한
▁어딘
▁적도
따라
▁시장은
▁율
대상
▁2007
▁스마트폰
▁사고가
▁세계에서
▁(3)
▁2011
자금
▁신라
▁공격을
조정
▁텔레비전
▁어려울
히지
▁살펴보면
▁더욱이
▁아픔
▁괴롭
▁부를
▁전통적인
타민
▁시장에
이라든가
▁둘러싸
▁낯선
▁전용
▁런던
치로
▁황금
▁여덟
▁촉진
▁칠십
자연
▁김일
사상
▁평범한
주와
▁움직임
문에서
▁교회의
▁전에는
▁드러나
고에
▁이곳에
▁관람
▁메이
불을
▁막을
놓았다
▁디자
파가
▁매력
▁바닷
▁아끼
혁명
▁전했다
▁죄를
▁추구하는
▁이정
조에
▁대장
▁바람직
해야만
▁기뻐
▁살피
▁확립
품이
▁아줌
▁된다면
지않
▁혼자서
ub
▁감히
▁생길
▁가려
▁호남
▁그때는
▁밤에
왕이
았어
▁지었다
▁냈다
파를
▁홀로
교회
▁모르겠다
▁올랐다
▁길은
▁해양
자리에
▁자고
보세요
▁그녀에게
▁쫓아
▁개가
▁열리는
▁필요는
▁내다
▁갈아
봤다
개로
소리를
▁정서
▁갇
▁요렇게
▁노릇
▁거잖아요
식과
숙한
▁갈라
▁끝나고
▁가자
▁파는
▁알려졌다
조로
▁32
▁잃고
▁포도
▁이룬
해온
▁붓
▁이해를
망이
▁밝은
▁마법
▁대학교
▁고등
자로서
▁신이
▁되었을
▁들어왔다
▁계기로
감독
▁원내대표
▁중에서도
,"
▁신선
▁남자의
▁희망을
습을
▁할인
▁걱정이
▁시에
실은
▁미국에
▁때문에네
▁바라보고
▁골목
▁굶
하므로
리스트
향을
▁=
▁거론
▁되죠
행위
▁유용
▁있을까요
▁끔찍
액이
▁웃으며
▁여기는
▁이케
▁경우를
▁비평
▁어지
태를
▁일시
▁앉아서
▁점에
▁바와
▁업무를
▁바닥에
▁선출
▁스피
▁여기까지
▁우린
▁2015
거기
▁정신적
▁채널
▁둘러싼
▁섭취
치면
댔다
▁종사
▁부상
▁구조를
▁씨를
▁없으며
겠지요
▁이해하고
나라는
▁충실
▁나타났
▁헤어
▁의지를
▁시작한다
▁우리나라의
▁듯했다
▁과제
▁요새
▁자신은
▁그러다가
▁없었고
▁II
▁좋아요
▁서민
▁회사에
▁미국에서
▁제발
▁연대
상적인
제한
▁육성
▁엎
▁이슬람
▁개인적인
작은
구와
▁대안
▁하나씩
4.
▁배달
화되고
방법
▁이들을
▁세계적인
(200
문으로
▁관련해
▁마르
▁말아야
▁인상을
▁의미하는
▁왠
무역
▁공약
ine
▁죽는
▁회사를
▁초점을
그래도
▁권력을
▁분명한
▁사나
▁상황은
비와
로워
▁......
▁부각
▁손이
▁두려움
▁같은데요
▁사람이다
화점
▁멘
▁어느새
▁결심
이던
령의
cm
▁이겨
▁원의
▁무대
▁간단한
▁쪽에
운동을
▁이루고
이것
▁공을
▁않아서
▁있었다고
▁찾고
▁외에도
으시
▁삽
까지만
▁상태가
▁대가
▁사람에
▁우리도
▁기다려
▁건강한
▁계기가
왔습니다
위원장
▁자유롭게
▁얻는
추어
졌다는
▁부과
▁외면
훈련
▁당한
▁바가
▁국가가
▁해가지고
화하고
▁줄어
▁자연의
▁묻는
▁건가요
▁노동자
셔도
▁시집
▁세상에서
▁구성된
▁아들을
▁않는다면
하이
▁헐
▁장군
▁가지를
맞아요
당히
▁없었습니다
▁신학
▁든다
▁신중
아직
▁한반도
▁대항
▁얼마든지
체로
이도
▁어렵게
▁작가의
▁대답을
▁식의
▁담은
물과
▁보내고
▁세금
▁있을지
▁그분
▁그다지
▁생각한
▁뜯
으러
▁꽂
▁원자
▁어때
▁이것도
인들에게
▁아기
▁밝힌
▁이주
언이
▁타당
▁침해
ore
▁은혜
▁빨간
▁넘겨
▁학교에서
▁월급
▁잃은
책임
▁2013
▁측은
▁어두운
▁명칭
▁되며
악한
▁핑
▁th
▁불가피
톨릭
▁뜻이다
▁관료
▁취임
▁수석
병이
ure
▁몰랐다
면이
▁건네
▁하루에
.!
간을
▁Un
▁초청
▁공간을
현대
▁홈페이지
공원
▁늙은
수수
▁그곳에
▁없다면
▁삼아
▁후원
▁현금
▁탄핵
이지요
▁1960
적은
자원
▁문화의
나를
▁오래된
되기도
▁돌아와
▁처녀
▁심장
▁입술
예를
▁이끌고
방은
유럽
▁〈
~19
▁셀
▁책의
▁비즈니스
▁느끼게
▁축소
종은
▁한마디로
▁오염
본부
▁껍
▁2006
▁보입니다
▁여부를
▁삶이
서비스
▁재능
연구소
▁들지
▁읽을
▁완전한
▁구원
▁압박
ov
▁장식
▁판단을
▁아내는
▁몰래
▁번째는
▁하나하나
아시아
▁서류
이사
▁집착
▁분은
이너
졌다고
▁긴급
▁전체의
▁상품을
▁왼쪽
▁잔뜩
함은
▁지방자치
▁아하
▁눈길을
▁꿀
▁후회
▁실업
의원
▁발표한
▁배워
▁아니었
▁흡수
▁이분
3.
▁목사
▁수준의
우리는
▁냄새가
▁줄을
▁의식을
우의
음으로
▁찾기
▁공기
▁나쁘
▁이자
체계
쳐서
▁화려한
▁찔
▁정답
▁오늘도
▁미군
회장
▁사랑이
▁그럼요
▁부모가
▁인물이
▁편이
▁관련이
▁병원에
건축
요한
▁대접
▁가라앉
▁심판
▁전남
▁뽑아
▁핀
▁이어서
▁나타내는
▁인기를
▁식민지
▁감독은
▁식사를
▁캐릭
▁천구백
▁관하여
olog
▁이어지는
▁거리가
▁출현
▁말하지
라든가
▁보증
▁일어났다
▁잡은
▁고맙습니다
등을
절로
하였으며
▁현상을
▁부대
▁테니
론에
▁자리잡
▁존재를
▁취소
▁보라
%),
국으로
▁고집
▁한미
주의는
▁조치를
▁단독
▁이용하여
▁사고를
▁되돌아
는데도
▁방에
▁기가
▁정도를
▁경찰이
▁그러는
▁코스
▁구현
▁학생들의
▁청취
하더라도
로도
설이
화되어
▁한숨을
▁월드컵
여행
▁사장은
일으
▁이해하는
여성
▁담배를
▁가져다
▁음악을
심에
라든지
▁입법
▁법정
민이
꺼번에
왕은
방으로
▁아홉
▁경비
▁대학생
▁숨겨
▁세우고
▁비타민
▁정도였다
프라
▁똑같
▁소리로
▁치료를
▁인하여
▁요약
▁소프트
▁이루어지는
▁뒤에서
화한
▁많습니다
미의
▁지역을
▁짙
▁각각의
피아
▁기자회
래요
▁사라져
▁않는다고
▁양성
▁낚
man
▁기사를
▁글쎄
이면서
평균
▁(19
▁적어
▁내리는
▁현장에서
▁대목
▁계층
이랑
EO
▁밭
승을
받침
▁해체
▁억제
▁끌려
▁거친
?!
처리
음악
▁펜
▁테이블
▁교체
어디
▁스위
증권
▁노후
▁그래야
크가
▁재벌
니즘
들로부터
▁아래로
▁촉구
였어요
으셨
▁성격이
터가
▁이집
▁소중
외로
▁기호
▁막아
▁후배
▁보겠습니다
▁불리
▁생생
▁for
▁생각하
▁대외
▁세월호
▁차단
▁뛰어나
▁끝났
비에스
▁직무
▁무의식
▁자발
▁실무
발이
▁스물
절이
▁본격적인
▁메시지를
▁주머니
란을
▁왠지
▁있구요
▁내려다
▁역사가
▁놀란
▁얘길
▁불러일으
▁한꺼번에
▁격려
▁맛을
▁볶
색의
▁지하철
▁저축
항공
▁싶어요
▁이르러
▁아빠가
▁작동
se
▁선수가
▁나은
▁부패
▁개성
▁지극
▁언젠가
▁교류
▁학생들은
▁황제
▁도둑
▁소수
탄을
환을
▁밖에서
▁삐
▁규범
▁경매
▁교육의
약에
▁오해
▁민족의
▁들어가서
▁옆에서
▁감정이
▁즐길
달라
차게
▁되어서
▁돌아가는
인가요
▁유사한
▁변화에
▁키우
▁들어오는
▁곁에
▁싶어서
▁소방
▁해주는
▁살이
▁스스로를
av
▁견디
사업을
▁알아서
▁한편으로는
▁양도
2,
산물
▁제도를
▁시작하는
▁도덕적
▁구십
▁본다면
▁운영하는
▁신화
com
▁꽉
들과의
▁미래의
▁반짝
▁위치한
▁곽
▁집권
▁가지로
?)
사도
▁갖추고
▁이거를
▁기재
▁사건의
▁탈출
▁패러
...."
▁근본적인
▁직접적인
▁이용하는
▁가구
▁X
두는
아아
▁드러내
▁못하면
▁될까
두를
▁외환
림이
▁요구를
▁비용을
크의
▁아버지를
▁차지하는
▁멜
)’
▁대북
중국
점과
▁원천
▁만나고
버스
▁일본에
▁즐거운
und
역사
플레이
▁의견이
▁과정에
▁이용할
▁너무도
▁오른쪽
▁다짐
▁군대
▁연령
▁수치
▁그곳에서
▁교훈
▁잠이
▁신호
미술
▁관해
전으로
▁프로젝트
▁맡은
점의
▁야구
▁염려
▁그토록
▁2009
▁안의
▁한창
시하고
▁앞장
프는
▁글쓰
▁34
▁버려
등급
스턴
▁일주일
어머
▁결정적인
기구
▁시장에서
오를
ism
▁대고
어졌다
▁수익을
▁도는
▁않나
중의
▁되찾
▁성인
재로
르르
24
서와
▁감당
학습
스탄
▁우연히
▁기부
▁추측
범위
▁끝이
▁밝혔
양이
▁걸고
▁불가능한
받지
▁마음대로
」(
▁관련하여
▁동맹
니는
운영
하긴
▁장수
▁주식을
▁교황
▁지각
▁써서
▁관계는
까지의
▁존재하지
등록
▁가족이
▁않으며
▁나고
ak
▁누군가가
▁제외한
▁사정
▁있겠지만
▁사실에
21
▁상태에
▁피가
결정
▁내보
▁포괄
민은
▁핸드
▁나지
▁남편은
심은
▁즉각
아마
▁점령
▁내용의
▁등도
▁피를
던가
▁잡지
약이
능력
▁국어
▁죽고
무가
▁성남
▁뱃
▁초과
▁씌
▁한결
▁알렉
파는
▁먹은
for
▁걔
▁차지하고
▁왕이
▁즐기
▁딸이
▁영토
▁얘기하는
군에
▁이루는
▁마구
관련
▁기다리
▁삶은
에이
당과
▁소요
9.
▁분야의
▁매체
▁시스템을
▁맛있는
▁사건에
▁지속적인
▁재미있는
▁빛이
▁노력이
였을
▁길에
▁솜
▁일본은
▁정해
▁팔십
▁채로
거리고
▁앞으로도
▁미루
▁파고
▁원리
▁불이
▁전쟁이
ial
▁살아가
무지
▁촛
▁입장이
▁가능성
▁10%
▁잡는
▁개편
▁습관
▁상위
▁파트
▁주력
▁친구들이
▁때면
▁미칠
하루
스테
그걸
▁경고
양의
▁과장
▁실수
식품
론가
빛이
▁여기저기
▁국민이
▁정치를
▁돌파
▁어르
이야말로
중을
속의
겠네
▁마찬가지다
체제
▁위치를
▁re
▁가령
▁잊어버
▁하는가
▁아니겠습니까
드라
▁감싸
▁비싸
▁뮤지
▁약간의
이었어요
▁샀
▁얹
▁엑
▁잘라
▁김대중
▁37
▁비싼
돈을
재는
▁새겨
▁한계를
▁지키는
▁전날
▁이전의
▁부른다
▁북한은
▁수사를
동은
되자
▁뭐라
▁넘게
▁것들은
▁개척
▁어디까지
▁비례
▁하는데요
▁자신과
▁애를
▁블랙
▁자신에
▁좁은
▁것이냐
▁맡고
판이
▁쌓아
거를
단과
▁듯하다
인한
진흥
▁건가
▁시간과
주인
▁가요
▁훈련을
세포
▁궤
달을
▁겪고
▁축제
(18
▁장사
▁소멸
모델
청을
쾌한
▁사건은
▁써야
▁_
▁남편의
▁시대가
▁터뜨
ond
▁달에
▁패턴
이냐
▁고기
▁수천
▁즐겨
일단
▁방으로
▁거냐
▁어렸을
▁패배
▁훼손
▁고발
▁전세
주의와
▁+
▁결론을
더라면
특히
통이
▁소금
▁너머
다리
적이었다
▁할아버지
▁너도
▁우수한
중심
▁피고
▁환경을
▁불렀
▁지고
▁돌렸다
▁기다리는
아리
ence
마한
미한
ung
▁있잖아
마스
▁무거운
버려
▁독점
강을
효과
▁밀접
▁열쇠
▁규정하고
▁벌어진
▁윗
고기
일자
▁중독
▁미국과
▁들어올
문과
▁존재가
시장의
▁권위
▁거니까
거리를
▁위기를
▁며느
▁뒷받침
▁동안에
▁토대로
늦게
▁얼굴은
▁튼
ort
▁짓고
▁괜찮은
▁사퇴
▁함부로
소서
▁용인
▁주장한다
원들은
▁덤
▁인력
▁임신
▁스트레스
▁폐쇄
▁마세요
▁너를
▁안심
▁압도
조차도
▁회사는
계급
료가
▁운송
독한
▁했기
▁필연
▁것이지
▁마련이다
▁과목
가에서
▁올랐
▁댓
▁공모
줍니다
▁길로
▁나타나고
▁만화
종합
▁밴
▁재산을
▁부모의
체험
▁감수
▁거라
▁저렴
▁관여
▁나란히
▁기업은
쪽의
MF
▁원이
▁것이니
하가
▁시나
급한
▁따져
▁그리고는
▁조건을
▁조국
▁속이
▁1996
해의
▁다시는
▁잡았다
구성
▁좋다고
▁뱀
억원을
end
▁풍부한
린이
환이
▁고객의
막을
▁몽골
▁회계
▁갓
각이
되거나
▁얘기도
▁정도에
▁칼을
eg
집이
▁후에는
식간에
▁결과에
▁속을
음과
▁올린
▁나가서
님께
밀하게
▁해결할
▁많은데
▁흐름을
▁직면
▁그로
▁클럽
▁조선의
▁되면은
▁쑥
▁천안
▁양념
주의에
▁주인이
하네
▁차이는
▁군데
▁이상으로
▁보았
TA
거라
찰을
▁대결
▁박정희
▁터져
▁그제
▁꾀
▁사업에
▁작품은
▁학교를
▁사전에
▁낮아
7.
▁대충
채를
▁식당
▁본능
▁탁월
▁대다
▁계약을
▁어째
▁꼼꼼
▁뭐냐면
으세요
▁힘으로
고맙
5%
▁갈등을
▁역설
자들과
션을
▁지나가
차에
▁본인
▁신설
▁맞서
▁보안
▁주면
▁약한
▁전체가
▁보낼
▁비율
▁맞고
▁하기도
모든
▁걸까
▁구름
협력
▁망설
▁문장
▁부담을
▁뛰어들
▁일본이
▁없으니까
▁주장이
▁철저하게
▁바라보며
▁푹
▁대량
▁인쇄
▁주가
▁서로를
▁찾아볼
▁환영
▁목적이
공이
연구원
어질
▁번이나
묘한
23
kg
기록
▁어려움
▁보시
▁관측
였다고
되었을
특별
관계가
말이
▁버리
워요
▁하실
물관
현이
▁작곡
▁침략
▁사랑은
▁품질
▁바퀴
▁리가
▁은퇴
▁출범
▁들었습니다
8.
소년
▁기술이
▁않은가
▁몰라도
▁떨어뜨
▁조직의
▁사이로
▁슈퍼
▁혜택을
▁내어
▁피할
▁방법이다
▁실내
▁관련한
멤버
▁충격을
▁부엌
면에서
▁가기
▁거요
▁굵
▁연설
▁아이들에게
역에
▁원인을
▁눈앞에
▁확실하게
▁드물
▁미세
▁조기
출판
▁기록을
주의가
▁연방
▁정지
▁올렸다
▁온통
▁무릎을
▁저장
▁복귀
▁생애
▁잘하는
돌이
▁체크
▁189
▁이민
▁놈이
법으로
▁난다
▁곳이다
▁기준을
상한
▁r
▁석유
할지
▁그런데도
대고
▁정복
▁폐기
▁예쁜
▁전의
니를
▁등장하는
러진
1,
학에
르몬
▁6.
▁왔습니다
oh
▁심하게
▁피로
▁자유한국
▁살아야
▁승리를
▁무력
▁말했
권과
▁분야에
▁개설
▁오리
투를
▁지붕
▁아나운
▁각자
▁식물
소와
프가
▁식구
리트
▁똑똑
▁쓰레기
▁갑작
▁대부분이
▁매도
▁부인이
▁An
바일
▁반도
▁배당
▁말했습니다
킨다
▁출생
▁Q
▁다이어
하자는
▁고쳐
전과
▁규모가
▁장르
▁반성
▁함으로써
▁버티
▁비틀
▁돌이
너는
위기
▁종업
▁촌
▁완벽한
▁기대를
▁자세를
▁갖는다
래의
▁목숨
▁만나서
▁앉았다
▁혐의로
▁몸은
▁쪽에서
되었다는
▁따르는
▁많을
▁물론이고
이십
▁순수한
▁같지
▁되풀이
▁당초
▁공작
▁남긴
▁아내의
▁▶
▁형태를
이었을
▁건강을
▁보십니까
ob
▁50%
피스
▁서울대
차로
▁물려
▁개인적으로
폭력
겠네요
모는
▁경상
▁애초
▁완료
패를
▁샌
▁연금
▁구석
▁데가
▁나이에
▁재빨리
심과
▁자세한
▁영원한
▁150
▁쪼끔
▁Com
▁내의
▁세부
▁총리
▁씹
마에
래를
▁논문
▁역대
▁보아야
▁1000
26
여러
액의
라스
▁마친
▁이따
▁불쌍
는지도
▁대학에
즈는
▁행복을
▁일행
▁기어
▁거나
▁서로의
▁정부에
▁데에
▁순식간에
교육을
▁그것에
▁쏠
▁실정
▁피아
▁주가가
천여
▁다루는
▁그쵸
▁등이다
범죄
▁화성
하시고
린은
당신
되는데
▁범위
▁한국에서
▁만다
악의
▁못했
▁청문
웨어
▁Press
▁그러지
숙이
▁집은
▁지표
~4
강의
▁거칠
▁장애인
로그
▁머리에
중이
▁도모
▁돈으로
▁일요일
▁들어왔
▁안타깝
▁휴대폰
나와
었으며
▁참여하는
아라
▁법이
▁필요할
년대에
▁광역
드립니다
▁영향력을
▁일으켜
▁달린
▁유의
▁생명의
▁각기
황을
게임
▁운명
▁철저한
▁결의
ok
▁사용한
▁의뢰
▁사령
▁바위
저도
▁골라
▁채무
▁1994
당하게
던데
▁학년
▁동북
if
풍이
▁될지
▁그죠
▁돌아왔다
▁엄청나게
▁즐기는
니와
▁주변의
▁걸었다
▁몸의
▁내리고
▁잡을
▁자유로운
일에는
▁행사를
렸다는
▁교수가
▁의사를
▁포장
그래요
▁경기를
▁찬성
우와
▁낡은
▁일일
▁일들이
▁준비가
▁막상
▁지지를
▁있겠는가
▁싶은데
▁출시
▁퇴직
구만
▁특허
▁머리카
진한
▁최근에는
시켜야
▁브리
▁전설
▁발생할
현의
▁시간의
월까지
교가
-4
▁앉은
▁있거나
tive
▁방을
▁좌절
▁고수
▁앵
미디어
선과
▁스크
▁건데요
▁예로
▁결과적으로
그러나
▁결정하는
iz
▁위험을
주기
▁항목
받았다
▁시절에
▁독재
▁실질적인
▁차려
형으로
▁사용하고
▁이종
▁요인
ory
치면서
▁독일의
치료
▁선전
▁주위를
▁갖지
너지
이라서
▁생성
하곤
▁했지
▁철도
▁전파
▁예언
▁애들
▁우려가
▁지금부터
▁모른다는
대통령
▁끄덕였다
▁다수
▁형님
▁중간에
▁홍콩
▁가짜
▁상속
연하게
들여
▁노조
▁적합한
그라
▁고추
▁아직은
하늘
더러
청에
ant
▁접수
▁번에
▁현행
▁사물
▁만나게
에서만
▁연상
▁나오면
▁기소
▁모시고
▁듣지
▁부드러운
▁십이
▁경찰은
▁됐어요
▁지키고
아하
▁비판을
▁설명할
▁출산
▁맞춤
▁발자
▁on
▁날씨
메리카
▁지리
아지
▁탐구
사인
▁여지가
▁의미는
족의
▁간부
▁되겠다
▁옛날에
아를
▁급히
▁약을
셨는데
28
인제
▁떠올랐다
▁얻고
▁서른
▁자칫
▁수를
▁걸친
▁사업이
▁패션
▁버리는
일과
▁자부
▁일대
▁택시
▁다음은
▁요즘은
봤습니다
▁동작
돼야
▁이순
자동차
▁미래에
반을
▁있듯이
▁쉴
ass
다니는
▁통상
▁대통령을
▁이백
했다면
▁전력
▁시작할
▁댄
만큼은
▁IT
▁유학
▁그대
▁지옥
▁높여
글쎄
▁최우
▁가공
▁투명
▁보충
스카
▁정보가
▁수영
화될
▁등등
▁지났
▁모르겠지만
먹고
▁새삼
▁소용
분간
▁유럽의
저리
▁법무
▁그리스도의
▁바꿀
▁정통
▁앞을
▁수필
령은
▁의문
▁다가가
물질
▁초등
연금
▁년이
▁유리한
▁추적
아버지
5.
▁소장
▁→
▁돼야
간이
▁버릴
▁밝히
ational
▁스페인
렸지만
▁지방선거
▁진화
크라
▁왔던
▁저작
란한
조금
▁데도
▁개념이
ont
▁먹지
▁안을
▁좋겠습니다
감사
▁이달
어라
▁후보를
▁반가
▁감시
공단
베르
액은
▁다룬
▁돈은
트와
ww
러는
▁조금도
▁꿰
▁링
▁당뇨
나라의
▁김태
▁안다
▁짐승
▁특징을
▁발표했다
▁부자
▁있나요
▁이곳에서
▁부적
▁종일
▁야기
▁파티
▁나라에
▁의사가
▁괜히
▁두는
참여
▁알아보
▁불과하다
▁축적
▁행동이
▁춤을
현실
▁나눌
▁무지
▁CEO
▁아직까지
▁것이오
▁간단히
▁표정이
▁다음의
저런
▁동화
▁만만
www
산으로
▁가능성도
▁점포
▁형상
▁절차를
원들의
▁분석을
미국
▁의미로
▁의미의
27
기기
▁이윤
가구
▁상대가
다듬
▁여의
▁한글
▁전적으로
거는
기관의
▁이후의
▁법인
▁작품의
▁대표하는
▁했으나
감하게
▁별다른
▁대우
인지를
▁대략
▁문이
건의
힌다
었지
하였던
▁고무
(7
선에서
▁한층
▁웃고
▁가해
!”
▁시점
▁자신들이
드리겠습니다
▁정한
▁형이
▁냉장
▁대폭
▁말야
▁멤버
유가
▁담보
▁선택을
▁컨설
▁탓에
그럴
▁New
▁반대하는
현은
▁성실
출을
렸는데
▁대학의
가며
▁수련
▁성장을
▁협조
처를
▁엄격
▁계승
▁실은
▁번의
▁카메라
▁보여준
▁병을
▁뜬
석의
▁않았다는
스럽고
는지를
▁부담이
기자
▁모험
▁마늘
▁벼슬
▁장을
▁단위
▁내포
▁상대방
▁항의
▁작품이
둥이
▁넷째
▁기억을
▁충청
▁답을
▁배우는
▁기운이
수원
▁매각
▁넉
▁어머니를
▁명령을
리자
기업의
뿐이었다
▁김치
▁않다고
▁퇴근
▁십오
▁옆으로
주의자
▁귀국
▁높이는
▁찍어
▁왜냐면
정부의
▁들렸다
라우
▁짓는
브리
▁떠날
▁놀이
▁하도록
갑니다
▁현실에
▁높게
▁de
▁배우고
▁강조하는
▁고스
▁배울
되었으며
▁바뀐
▁유머
▁단호
▁염두에
▁첨단
▁아주머니
▁그보다
▁착각
▁남자를
▁보시면
등한
▁조항
로에
타는
화할
▁됐는데
▁위를
▁이만
▁대통령에
▁기준이
기획
▁당해
▁풍요
▁고령
프로그램
▁말과
거리가
▁방침이다
▁조심스럽게
희의
봐요
▁계곡
▁찾은
▁방식이
▁39
▁줘야
▁친박
▁유효
먹는
▁힘들어
▁년에
▁캐나다
▁순간에
▁예산을
▁알리는
▁중요성을
내야
▁엄마의
▁책상
▁이상은
▁고민을
란이
▁"......."
그까
느니
▁창원
▁십일
▁왕의
▁놓았다
셔츠
▁주부
좋은
▁수비
▁탕
▁주의를
▁다해
▁얻게
건강
층에
겠나
왜냐
끄는
▁화폐
▁했죠
▁종교적
▁풀이
▁비교해
▁순환
》,
▁이가
▁토요일
▁억지로
▁받기
싱턴
▁달래
▁싶다는
현재
동생
▁상대방의
▁살기
▁상황이다
▁믿지
▁가능성은
▁치는
▁위원장
▁거라는
차별
▁차원
▁몰고
▁벤처
▁뚝
▁알기
이네
▁앱
▁재배
▁제약
▁맑은
▁점도
▁모두들
▁사랑에
▁대대
▁여인
지나
▁달하는
▁바꾸어
터는
▁소리쳤다
뚱한
▁필요하다고
시대의
소송
▁기록했다
입을
▁원칙을
▁수리
즈음
▁발사
▁자를
▁맡아
▁받아들일
군과
▁회의를
▁열려
▁사라진
▁제법
▁캠페
▁유교
면의
▁풍경
▁꿇
▁효과적인
▁20%
▁중국에
▁인종
▁중국이
▁동남
▁경찰에
▁관리를
▁애가
▁이라
▁침대
▁늘어난
▁걸음을
▁가벼운
집에서
▁연말
감의
▁명에
초를
▁도내
민주당
해왔다
오지
재단
▁추세
▁불만
꾸로
▁급격
▁예상된다
▁도구
협의
▁이같은
▁상식
▁파이
▁상임
▁치열한
▁밖의
▁할지라도
29
▁천연
▁못하
▁컬
▁비디오
편에
▁동아시아
▁퍼져
▁눈은
▁나빠
▁자금을
▁다닐
▁엉덩
림의
▁이렇듯
시티
쪽을
▁하세요
▁인정하고
▁됩
했다가
▁광범위
▁유동
▁지나면
▁선생님은
▁나라는
▁책임이
▁지루
으면서도
oun
추는
▁교육과
▁미소
▁입시
▁분명하게
▁하느냐
프의
▁말라고
▁데다
길로
▁수준을
▁두루
▁나누는
▁사소한
▁최대의
▁댓글
▁완벽하게
▁남는
가락을
▁극히
▁계절
▁나타날
▁아이디어를
▁시리즈
▁400
▁내야
▁급속
정책을
움과
도서
월에는
▁적대
▁모범
일까요
▁메뉴
▁감상
▁김경
▁것이나
▁갈등이
격이
▁그늘
▁천재
▁없으니
용으로
▁케이블
로로
per
▁원에
길에
조리
▁고난
▁벽에
▁선포
▁품고
청의
▁부문
▁보살
▁토끼
▁작가는
▁속도로
▁사라지고
▁날짜
▁대상을
▁에너지를
▁올리고
▁유지하고
▁많아요
▁대부분은
ld
▁팩
▁전체적으로
▁적게
되었다고
업에
▁노려
▁방송을
▁노란
▁개헌
▁병이
▁분쟁
▁오페
였다는
▁죽음의
▁문제와
렸어요
▁한계가
▁목적은
▁뒤집어
용의
▁쉽다
▁되기도
으라고
▁떨어졌다
계에서
▁포착
▁저절로
▁편성
▁사서
아빠
테면
▁나중
▁위기에
▁받아서
▁어색
▁전까지
임금
▁용기를
▁오랜만에
▁거에
▁말의
▁손바닥
▁제시한
▁만들어서
질러
▁귀찮
즈를
▁티비
▁정치적인
▁뛰어넘
▁모바일
▁쫓겨
▁전하
▁나섰
▁주주
층이
▁신부
▁조언
▁짐을
▁낱
▁돌아갈
ary
▁쓰여
일수록
▁大
▁준비해
▁사례를
단으로
▁부장
▁찾지
주면
▁출간
세기에
▁친환경
▁분산
▁맡겨
▁인식을
▁속에는
▁기능이
▁분할
시코
열을
.5%
▁웃는
▁대신에
▁극대
▁특유의
▁튀어나
▁후보의
▁하늘이
▁참석한
친구
오십
리나
▁떼어
▁차가운
킬로미터
▁감염
▁어르신
▁정상적인
▁요소가
▁완화
▁수준에
▁해줄
▁새정치
▁일련의
▁지극히
▁없죠
▁솟아
▁용어
▁지자체
▁불확
▁대책을
자산
▁작가가
▁스님
▁상관없이
▁York
커녕
▁많았
▁뮤지컬
▁진실을
▁한국은
과정에서
▁언급한
▁위험이
내려
▁저의
▁효과적으로
▁그러니까요
▁김동
▁잡혀
▁잦
▁지나친
▁깊게
▁근본적으로
돌아
▁설탕
▁지연
▁현실적으로
▁않았습니까
▁세계가
▁태평
▁고객이
▁타는
▁아이에게
▁적당한
▁놀랍
▁당부
▁비율이
▁울고
▁도시의
변을
▁주위
임스
▁합병
▁스테
해줄
그렇다면
▁특검
방울
ith
▁건의
그렇지
▁기반을
▁가족의
▁존재한다
주도
법과
▁속하는
▁얻기
▁바람을
▁찾았다
타를
시장에서
▁원활
▁이끄는
▁즐겁게
▁내릴
▁장례
작가
▁쓰기
▁보기에는
▁치유
▁폭행
(198
▁전형적인
▁예의
▁너의
▁안겨
▁변동
▁애플
▁몬
▁도요
나가는
국과
▁이해하기
ne
▁출신의
▁st
━━
▁나누고
▁사연
스피
사적
▁융합
▁낭만
▁적을
▁동참
▁응원
▁사회는
지인
▁평소에
아파
▁구제
임에
▁싶을
뿐이다
▁성을
우지
▁내쉬
▁선행
지라도
▁더듬
들만
▁산을
▁영화는
▁선도
▁점유
▁모니
▁지는
▁프랑스의
▁아가씨
▁먹어야
▁나가고
▁활용할
▁면역
분기
▁친절
ust
였기
▁유지하는
▁나뭇
력도
▁조화
▁눌러
▁가격을
▁마른
▁중국은
▁차원의
방식
운동의
답게
▁운영하고
투쟁
▁인적
▁콧
▁4)
▁이의
▁거슬
▁단백
▁자리가
▁피해자
▁KT
▁쓴다
후에
▁저한테
하하
▁비용이
취를
▁남부
▁아랫
▁무상
▁엮
▁산책
▁때문이
▁인내
▁조그만
롭지
▁편하게
▁힘들다
▁문화가
▁간신
법인
인천
▁베르
▁혈액
▁농담
▁쌓여
▁직전
▁경주
▁플레이
ly
▁튼튼
▁최순
▁돌아오는
으론
31
▁본인의
속이
▁행동에
▁분의
▁해명
▁소개해
ens
▁뵙
▁쪽을
▁딸을
▁방치
▁표현하는
정하게
▁느껴졌다
▁공주
▁행운
▁장면을
에스
▁놓인
▁쪽이
▁북미
시키지
▁않느냐
▁다음으로
▁것의
▁동굴
▁포스트
▁는
차의
▁이윽
▁친구는
▁원망
▁정성
▁흘러나
▁가까워
▁호주
▁개인이
▁회장이
▁심리적
▁이로써
▁삶과
▁지경
▁틀어
▁선택한
▁수준으로
▁간섭
▁내재
▁일하고
▁소문이
▁보내주
▁번째로
age
ib
▁입원
▁소홀
▁부품
루를
▁아유
▁허가
▁린
▁정부와
▁따르
▁인정하는
▁일입니다
▁양보
▁갱
모의
역의
어리
▁세월이
▁친척
▁밝히고
▁싣
보게
▁주십시오
우며
론과
▁대학을
ain
직원
한이
▁입에서
니어
졌지만
▁건조
▁슬픈
당하고
▁비대
▁문학의
▁생겼다
▁피아노
된다면
▁위치에
▁공간이
ang
▁멕
▁페르
▁갖춰
▁애국
▁발명
▁갔을
▁꽃을
▁진심으로
▁검찰이
▁문제도
로스
▁다물
▁간절
▁됩니까
▁증언
▁포항
▁그것이다
▁열정
매가
▁정치권
▁변해
▁않았기
▁조카
▁연구가
▁한강
▁기업을
▁정치가
▁발언을
▁하고요
든다
▁거에요
▁밤을
▁긁
▁문명
락이
▁끼고
▁발견할
▁하긴
▁목격
감으로
▁시작으로
라니
▁뒤에는
▁친구를
서에서
▁조례
▁소설의
▁보러
▁믿어
▁지원하는
▁때를
▁인기가
산화
▁틀림없
▁쳐다보았다
▁막기
사들은
▁지방의
100
버리
▁바쁜
▁세웠다
▁대법원
▁개인적
▁의지가
▁세금을
녀가
▁삼고
▁번쩍
▁없던
공무
바다
▁불꽃
▁딱딱
▁마감
▁클래
▁서울에
▁이윽고
영업
▁친구들
적으로도
▁1993
▁넘치는
허가
▁바르
교도
▁위안
▁구해
(?)
▁영화가
분한
▁달이
▁예쁘
편의
▁아니요
▁세탁
▁알렉산
▁확인해
졌어요
▁떠나는
▁있었으며
▁녹색
▁양이
▁온다
▁소리에
는지는
었는지
▁k
방향
▁드리고
▁이룰
▁십자가
ph
▁귀에
▁장학
▁사무실
▁포인트
▁사귀
▁이후로
▁출전
▁때문에예
▁짧게
▁주된
인터
▁속에서도
연맹
▁편리
잔을
▁주최
오가
▁부실
▁논의를
신과
▁지위를
▁나라에서
▁IMF
아도
▁데뷔
▁참을
박이
조사를
▁끝으로
22
▁부인은
▁것이므로
무성
▁꿈이
▁에어
스포츠
▁法
▁실용
▁것임을
▁상기
▁활동에
▁올리는
▁하반
▁소설을
ivers
▁경쟁력을
▁핏
▁조지
▁가졌다
▁느끼지
백을
들인
▁딜
▁일일이
▁일과
이고요
▁학원
▁많아서
▁일부를
▁양의
ex
사령
▁나눈
▁속도
가서
그는
▁좋겠
▁가져야
지역의
▁스타일
▁똥
개념
▁묻고
▁조금이라도
고맙습니다
▁애들이
담한
▁있소
버리는
▁지나가는
▁뭔지
▁수의
▁푼
▁봤는데
평을
▁규정에
▁48
▁되거든요
▁고소
▁추가로
해라
▁의학
▁말투
▁어음
CC
▁끝날
▁부유
▁트럭
▁떴
▁고찰
▁열두
▁첩
▁예배
▁의원의
▁주장은
▁역할이
▁경제가
하기만
▁아니지
▁떠났
▁잘못을
▁있단
치와
▁나왔습니다
▁잊고
▁파란
▁빈곤
검사
▁마시는
목으로
▁작전
▁그러던
이거나
▁3,
▁고요
▁심의
▁재현
▁가톨릭
▁견딜
▁내용에
▁조직을
슨은
▁넥
▁쥐고
▁대통령과
▁키우는
▁감독이
▁제공한다
트리
▁강경
천의
로써
▁반응이
▁신은
▁운행
▁셰
▁무엇일까
▁발걸
▁목이
▁집어넣
▁일어서
▁게임을
▁파트너
▁됨
▁프로세
▁이대로
▁돼지
▁마사
▁도쿄
▁이르렀다
▁윌리
▁양쪽
하듯이
▁연구는
으로서는
▁모르겠습니다
원칙
▁국민들의
교는
▁당의
놓을
▁사정이
▁구상
소비
▁사례가
▁로봇
▁중대한
▁성숙
▁펀
스틱
▁사막
▁이어졌다
생각
▁드러난
▁당신에게
▁걷는
▁높고
▁식탁
▁쳤다
▁인류의
▁현장에
▁상대의
▁만났다
올림픽
부지
▁바꾸는
정도
▁실수를
▁유력
기에서
들이었다
누가
파이
▁비중이
▁감지
▁무언가
▁대조
월의
▁금강
▁설명해
여섯
▁타협
▁신뢰를
▁변화는
▁되지만
▁여러분의
kr
▁소극
▁인간과
역이
▁유아
으려는
▁재난
▁현실의
mer
▁거꾸로
▁음주
즈가
▁목표는
대장
▁고스란히
▁가상
▁승인
▁188
▁소문
▁사이버
▁정리해
▁모양이다
▁피의
▁얘기할
앞으로
▁선택할
▁왔는데
구에서
▁운명을
▁미처
▁과일
▁수만
▁접어들
▁일어나고
▁7.
적일
밀히
▁유니
▁아내를
▁거느
▁누나
▁배신
▁전제로
▁히틀
▁선임
▁의식이
▁진행되고
▁나서는
▁얇
▁헤아
▁국내외
▁떠났다
▁촛불
이었다고
▁참여한
▁不
▁주민들이
▁가속
▁부근
갖고
▁되었던
▁그런가
▁만들어야
공의
▁1950
▁설마
경북
▁윈
▁우유
웨이
철도
즈의
▁매니
▁개념은
▁합리적인
▁30%
▁일본에서
▁기후
▁사라졌다
▁죄송합니다
▁오르는
ts
▁알아차
▁43
▁바울
ry
▁환경에
▁기업들이
▁세력이
▁안에는
▁한국인
▁여유가
▁실제로는
▁사랑과
▁변형
▁네덜
했었다
▁입장에
나지
▁읍
결이
▁질서
▁경쟁을
▁과정은
▁향했다
레를
▁수면
▁후에도
▁취약
▁드러났다
▁뭔가를
▁수준이
▁크기
▁없도록
▁고문
▁했더니
줬다
▁절실
▁사장님
▁명은
▁때문이라고
▁이론을
▁표현이
▁안전한
▁말미
▁여학생
▁애써
▁필리
▁불만을
파에
▁스케
졌는데
▁툭
▁받으며
▁해설
▁없었을
▁의회
▁사장이
고등학교
▁당시에는
▁남편을
EC
락한
버리고
▁실질적으로
익을
▁주저앉
이미
▁와이
그랬
▁여부
돼서
정부가
▁뜻으로
놓는
통일
ern
▁마련해
르가
▁되잖아요
▁이를테면
▁외로
▁생각보다
내어
▁있었어
먹을
▁특수한
▁가스
▁인해서
▁실로
▁연락을
선생님
▁악화
▁선물을
에겐
▁심지어는
▁바람직한
▁리얼
이었기
시간이
침에
문제를
▁중도
▁문헌
▁될까요
▁신하
▁어긋
▁그런지
들보다
▁했는지
▁신입
▁차에
▁단편
▁법원
▁영화의
▁치명
▁제안을
▁찾아온
▁허리를
▁모양이었다
음음
▁탔
▁살던
▁엇
▁놀랐
스럽다
▁같기도
▁수술을
됐던
45
▁처분
▁생각했던
▁소식이
▁문의
▁합쳐
▁학술
▁제공하고
▁준비하고
일반
▁이외의
▁간신히
▁정해진
리도
▁진학
▁살면서
만원을
드려
▁논술
▁기사가
▁여러분이
▁제조업
▁날카로운
▁깨어
▁되나
▁틀림없이
▁년간
▁46
▁구두
▁노사
▁몸으로
▁막대한
▁외쳤다
▁각자의
▁생활에
)』
▁모양이
▁일찍이
▁삼촌
▁그랬다
▁현상은
▁아랍
▁있긴
이러
▁반해
▁근거로
▁스튜
▁예고
▁관습
▁조명
럽고
▁사이를
이하
표가
▁청산
시지
▁경기가
문화의
▁자체는
▁아쉽
▁앞세
▁남쪽
▁해볼
▁증대
▁회사에서
pp
▁입술을
▁하나님이
▁입각
▁자제
~5
▁성적이
▁야권
▁사업은
▁측면이
▁승진
▁지도자
판매
▁영역을
▁시야
시청
피를
▁강원도
▁사도
아까
렸다고
▁아니죠
......"
▁착한
니깐
만큼이나
지다
▁대의
▁밑에서
▁날은
하였는데
▁균형을
▁같으면
왜냐하면
클럽
▁구사
▁실려
▁발견한
▁이번엔
타운
▁명시
▁끝나는
▁부르고
▁경쟁력
▁치러
▁인식이
▁필요하다는
▁조상
드와
▁경제의
▁상대를
▁무의
▁실존
▁눈동
▁(4)
▁무용
▁선을
ss
▁두어
▁광고를
수지
▁낭비
▁동서
▁실적
▁부분도
▁안팎
▁자체의
다섯
▁바쁘
▁느낀다
▁했으면
▁입맛
▁그도
▁시민들이
쓰고
놀이
▁유출
▁멸망
▁늦은
신다
▁올해는
▁수시로
손을
대구
▁수업을
▁훗
소통
▁버릇
▁자네가
▁직접적으로
결에
형에
혹한
▁응급
75
▁중요하게
구니
▁□
▁학생의
▁파악하고
▁강원
작품
▁분들도
▁들어가면
▁설명하는
▁쏘아
있게
▁국가를
▁환자의
면서요
▁기반으로
▁여기에는
거의
▁환자가
▁오를
▁권한을
다나
▁역사는
▁느껴지는
▁기꺼
배가
터리
▁간단하게
▁업종
▁캔
▁내며
▁징역
▁멈춰
실험
▁모인
수사
▁적의
▁도무지
▁갤
케인
▁몰두
▁스무
▁천주
▁세상은
▁부추
▁공원
▁발로
▁지낸
▁과학적
▁가죽
이라니
괜찮
ach
▁조건이
▁지역사회
▁55
▁있는지를
▁근원
▁무소
▁가동
▁하늘의
으니까요
▁나설
호와
▁정규
▁헌신
-5
ical
▁울려
▁팔아
▁모의
▁빼고
▁활동이
▁책에
▁달랐다
시간에
▁이었다
▁군사를
달아
▁서울에서
▁워싱턴
▁사흘
▁시작해
▁궁금한
눈에
▁비단
▁사안
▁생각으로
요즘
태가
▁전술
▁별도로
▁싸움을
시장이
▁피어
▁국회에서
▁여기서는
▁혼합
호텔
시간을
▁강조하고
터의
▁언어를
▁움직일
▁하여튼
▁보람
▁걸어가
▁사이트
▁가능하게
진보
▁반박
▁오픈
▁이하의
▁구체적
▁기원전
해는
▁코너
▁필자는
ark
▁만드
▁대꾸
▁65
안녕
층을
▁문제점을
▁시작되었다
▁컵
▁일자리를
연대
▁할머니가
적한
▁왕은
▁유지할
가게
했지
회사의
▁하거든요
▁지냈
▁포르
▁때만
▁없이는
▁부분에서
▁모습에
▁미워
▁확충
▁2016
인데도
▁어려움이
▁애니
▁44
▁급증
▁100%
▁뚫고
사실은
▁이야기하는
▁방사
스에서
위원회의
▁아버지와
▁아니기
사진
▁가르치는
▁돕는
부인
▁씨앗
시장은
했으면
▁1992
▁때에도
▁건국
▁비정규직
혁신
▁강도
▁주셨
▁은근
▁뒤늦게
▁공존
▁제재
▁매장
▁▷
▁상을
뭡니까
▁꼼짝
자네
화학
▁이모
▁오토
▁둘은
▁진료
▁추진하고
▁마리아
▁한가운데
▁내뱉
▁시나리오
▁무장
▁부사
▁Th
▁세일
키로
▁한일
▁해라
▁필요도
공화
▁활짝
▁못지않
▁중시
▁속도를
▁영구
▁주장하고
▁곳곳에
▁뜨고
▁유일하게
▁변화의
▁스웨
▁민주화
▁직원이
▁복원
▁위축
▁주제를
▁조달
▁가면서
ast
▁현재는
▁어떨까
▁원인은
건으로
▁유입
나이
▁장치
▁보유하고
▁감독의
▁중국에서
▁주무
▁말대로
▁내외
▁책에서
▁퀴
시장을
베이터
▁기둥
▁알았어
으리라
▁확인하고
▁발전에
▁부정적
▁개막
▁때였다
▁아니며
▁행위는
▁고속도로
룩한
합을
▁밤새
맞은
▁다수의
코올
▁연구에
▁여성은
▁기간이
▁여당
▁세계는
됐습니다
▁뺨
보라
▁빛나는
tern
▁나무를
▁것이지만
가스
▁견해를
▁끌어올
▁메모
▁생긴다
▁복수
▁학생부
▁전략적
▁싼
우기
▁겪는
체와
▁미사일
▁의외로
▁맺고
▁지능
지기도
▁성공적으로
영상
성적
▁깨닫게
▁얻었다
▁호르몬
▁행위가
▁그것의
▁헨
▁영남
▁패러다
▁서방
하에서
▁조금은
▁목욕
ons
약의
▁살았
▁걷어
▁전쟁의
카오
▁합류
관계에
▁성공할
▁요소를
▁시범
위원회는
▁다양하게
▁,
▁산출
동으로
▁공연을
▁멕시코
▁재활
▁이른다
▁달고
▁구성하는
▁넉넉
록을
자면
▁베풀
책이
▁사업의
▁거짓말을
해하는
▁자세로
▁종료
교수
▁교육이
디가
▁돌아올
▁설명하고
▁끔찍한
님과
오빠
▁도와주
▁때보다
▁되었다는
▁노하
협의회
▁학생들에게
버릴
한의
▁좀처럼
▁모릅니다
▁루이
▁명심
사기
▁뜻하는
▁시민들의
▁가족을
▁나타내
▁묶어
▁이길
▁구성원
▁성적을
▁바다를
▁전체적인
언어
▁아줌마
▁가로막
▁활약
용은
▁고작
▁저희는
▁존재의
최근
▁강연
세이
▁주민들의
.0
▁있네
▁사람이었다
▁뿜
▁일들을
▁같다는
ian
35
산과
▁사이에는
대출
▁행동은
수요
명하게
▁취한
역에서
건은
▁구할
▁선박
▁길러
▁키가
▁롤
▁죽여
▁소리는
▁관할
▁벗겨
보겠습니다
빈은
▁군대를
드에
▁중립
색으로
▁협박
성에서
▁1,000
▁특이한
//
▁중세
▁고교
▁결승
▁살아온
적이라고
▁들려왔다
▁펄
향이
관념
작업
곡을
▁기꺼이
▁트레이
▁세계적으로
▁귀여
▁사모
▁떨어질
36
▁옹호
▁늘고
▁자체에
미래
▁사용되는
▁싱가
▁나뉘
▁연봉
▁오늘날의
▁부른
ear
▁전북
▁믿음
▁없었지만
시즌
▁탁월한
였으며
정당
▁성경
▁추상
▁같다고
▁도착한
버트
다시피
▁글이
▁방법에
▁어렵지
▁개봉
▁어이
▁해답
▁아들의
랗게
▁하나만
마이
▁다투
만여
(20
ey
▁텅
▁캠프
▁진행되는
▁그러기
▁받으면
기념
▁깨달았다
▁않았어요
76
▁1989
▁밤이
▁그랬더니
▁자신감을
▁사태가
▁우리들의
▁보좌
▁바꾼
▁해봤
▁살게
▁김진
▁우스
▁백화점
▁시키는
▁다리가
▁표출
▁누구에게
▁신발
▁장관이
하시면
▁들어선
▁보기에
▁시점에서
▁삼성전
▁읽은
▁가지의
▁인하
함으로
▁미치지
▁전도
오르는
ue
▁흥미를
▁수록
▁나서서
▁다르지
구멍
▁기업에
우면
▁매주
▁이쪽
봅시다
▁지역은
신에
▁근처에
많이
▁부부가
▁경선
▁되살
▁용이
▁왔어요
▁있어서도
▁이득
▁뭡니까
▁조종
▁하나인
감도
▁결과로
▁하위
미나
했죠
▁했었
일세
▁평택
▁금리
▁꾸며
▁휴가
..."
▁속한
▁맞추어
제도를
▁전화가
한테는
▁저하
▁분배
▁일상생활
으로만
▁·
▁전원
▁피해가
창조
▁협동
▁떠오르는
▁귀가
▁훗날
▁생각하며
▁화장품
(8
▁성질
▁속삭
▁간직
▁비핵
그리
▁y
▁비행기
목적
능한
금리
▁다음에는
진에
▁가지게
▁인디
▁벌이고
▁갔다가
▁나가야
▁어쩐
▁운동이
▁정당한
▁손님이
산에서
▁하잖아요
▁캘
포인트
▁주목을
▁수확
▁태도가
바닥에
▁논의가
▁전문가들은
계획을
▁이루어지고
한을
▁현실적인
lic
러가
세기의
됐고
▁스카
하잖아요
년은
▁얘기해
▁부드럽게
▁모은
▁입지
▁어째서
▁유래
▁비해서
▁실력
난히
이라고도
▁단정
사에게
▁Pro
▁있지요
-0
▁시험을
계와
들처럼
태는
파크
터에
▁마약
▁여가
▁스티
▁거대
▁아이템
▁비웃
▁감고
▁어휘
▁쓸데
▁애매
▁정식
▁반갑습니다
▁부자가
▁달콤
▁부친
리에서
▁김기
상공
알겠습니다
증은
브라
삼십
▁병행
중인
▁윌리엄
▁놓아
▁백제
▁120
▁안타까운
▁근까
▁소음
▁내버려
▁뜻밖
▁공략
적이지
▁하라고
▁포함되어
▁한국을
▁학생들을
IA
▁어울리는
과에
과정을
▁이루어질
▁선진국
세와
▁수고
▁언론의
▁겪은
복이
하되
)"
일간
▁교과서
▁역사에
인인
▁공동으로
상담
▁음성
▁선수들이
투표
▁있으면서
매일
▁사항을
▁합의를
▁월요일
▁뿌리를
하는가
▁의정부
▁총체
▁위주로
▁현장을
▁정원
▁생각하기
▁방에서
▁보고서
▁사찰
▁손해를
▁진주
▁지켜보
▁심어
새가
▁명문
줄이
▁때와
▁테스트
▁일할
▁위헌
▁뭐예요
▁녀석이
시장에
▁여성들이
▁허위
움은
▁근거가
▁소나무
회와
▁구성되어
▁PC
▁사용한다
▁납부
▁해안
고객
▁더욱더
▁하려는
▁사정을
▁이리저리
▁믿는다
바라
▁지칭
자라고
토를
▁부천
▁비참
▁표현할
▁신문을
길래
산업의
슈타
▁시청자
▁엄격한
▁힘들게
▁오스트
▁땅이
▁분명하다
▁일으킨
▁지으며
▁위원장이
▁정교
▁살펴볼
▁제시하고
▁밀접한
▁편견
▁산다
▁찾아야
장인
▁이원
▁어떻게든
▁진지하게
메이션
▁뚜렷한
▁해마다
행위를
▁관점
총을
▁이어질
▁제품의
▁지켜야
▁진정으로
개인
▁쏟아져
▁순서
준비
▁이유도
▁체제를
▁49
편을
▁갇혀
평화
창을
▁전당
▁제도가
풍을
▁기록한
▁할까요
▁양식
▁테크
▁아이고
▁하도
줄을
▁감탄
▁장비
불이
▁핸드폰
교육의
들에서
본을
약간
▁얼음
▁교섭
▁됐고
▁많다는
▁정책에
▁막내
▁아내와
▁참여를
~6
▁상세
▁겸손
이어서
▁상의
문학의
!!
가장
▁페이
▁굿
저희
▁방식은
▁맨날
▁침입
▁유독
▁씁
▁정책이
ies
▁호응
▁하시고
▁양자
▁돌아다니
리포
▁이별
▁고객을
▁기쁨을
▁끝나면
매는
빛을
▁연수
▁의자에
여자
▁인자
▁해주고
타의
▁찌푸
▁살아갈
사리
▁고독
진과
▁정하는
▁준비하는
▁넣은
▁깨끗한
▁정도면
▁일으키는
▁그놈
▁명품
▁해야지
te
림은
▁응용
▁옳은
▁이외에
갑을
▁화재
▁벗어날
▁세력을
왔고
▁과학기술
▁걸릴
▁실시간
▁찾아서
움에
▁오락
▁귀한
▁수단으로
췄다
▁주어야
공급
▁특징은
▁부풀
▁했는데요
▁말이오
▁있겠죠
▁브로
▁역량을
▁모르겠어요
인당
.3%
▁소형
▁있다라고
미안
▁넘쳐
▁박사는
▁할머니는
▁뜻한다
▁강의를
▁상장
▁말씀드린
▁언제까지
48
란의
면적
▁승객
▁요구했다
▁근거를
▁손수
▁생일
▁떨어지고
▁전사
되던
▁듣기
누구
▁한국이
▁배고
▁편이다
포르
▁설문
황이
안보
▁지점
▁모호
▁불안한
ord
▁태어났
▁큰일
▁스트레스를
규칙
▁양육
▁짚어
▁되었다고
▁캄
▁생활의
▁금메
▁정보의
▁배웠
▁들으면
iss
▁미치
▁시위
임은
▁접속
해에
▁일이라고
등이
▁겨냥
▁위탁
▁마음속에
업무
동적인
증에
의의
▁승용
▁소규모
▁있었으나
▁이상하게
▁탱
마저도
셨습니까
▁불필
▁시작을
▁잭
▁게시
▁분을
담이
▁뺏
iversity
▁제자
베이
▁권력의
▁아카
ost
▁없었기
▁중국과
여름
▁김현
▁일러
▁깔끔
▁관계로
.1%
▁가계
▁그만두
▁불편한
▁이태
▁싶었던
▁인식하고
▁꽃이
▁대해선
▁하러
▁걸리는
▁집중적으로
구리
▁깡
기게
▁가리키
▁먹기
▁쓸쓸
▁말까지
▁티비에스
▁놀랄
▁저희들이
▁돌고
▁적발
▁명확하게
▁말없이
만으로는
▁잃어버린
▁목표가
▁일의
▁문제다
와도
▁우월
▁화장실
▁파워
집단
▁부합
▁장성
▁하려
▁고립
▁커지고
▁수습
▁괜찮아
▁단어를
▁들어요
▁몰라요
▁검을
행에
임에도
되지만
▁콘서
▁규정을
▁동안의
▁시선이
▁비중을
대문
코는
▁둘러싸고
▁녹음
▁교수의
▁도출
▁유산
▁의장
▁어렵고
):
▁一
▁서사
▁마르크스
▁언젠가는
▁인삼
▁차츰
▁일기
▁자문
▁그로부터
▁신성
▁어마
▁단속
▁갖다가
▁공산주의
▁그제야
▁안양
▁면이
▁가정을
▁뜯어
▁부지런
▁움직임을
선언
▁일어나지
▁수없이
▁본부
▁놀랐다
▁진영
▁대학에서
다녔
▁입찰
시절
챔피
▁자식이
▁것으로서
▁사람들에
▁스스로의
▁시민의
▁좋은데
사나
애를
▁실험을
▁톤
▁계몽
▁47
▁되고요
▁상가
▁것보다는
▁합법
▁태도는
▁껴
팔십
▁생활이
▁글은
▁생기고
▁이곳은
▁수행하는
▁렌
▁올릴
▁시정
▁얼어
▁점수를
▁중심이
▁스탠
▁자란
는다는
▁필요성을
▁말씀드리
▁묻어
▁죽이고
▁착수
▁그때부터
타이
▁기록이
군다나
▁저지른
▁숨이
▁일환
▁노래가
▁시간도
청구
▁전락
▁가득한
▁후손
IC
었으면
▁국민을
였어
▁국한
들이나
▁사용하지
▁연구의
▁있는데네
▁씨도
▁생각된다
▁펠
▁발효
▁좋았다
생에
▁작고
드리고
▁허리케인
▁두뇌
▁수요가
▁측근
▁알코올
▁유익
▁추석
▁김포
▁납득
▁날을
▁사마
▁포기하고
▁언어의
▁질투
공은
▁테마
▁물어보
▁것이지요
▁싶다고
▁않았다고
▁복용
▁위장
▁목소리는
▁있겠다
▁장면이
▁대표팀
98
▁신을
할머니
▁서명
▁선생님의
▁일차
▁씨와
ight
드레
▁화물
▁적혀
냐는
▁KBS
▁하늘에
처음
▁왔을
▁통찰
보건
▁반찬
▁國
▁똑바로
▁알아요
▁싫은
▁어떻습니까
NS
▁만하다
역시
린의
법상
▁서울의
때로
▁미세먼
▁줄은
▁청약
▁지워
▁이해하지
▁아들은
▁휴대전
▁유연
▁원시
▁주변을
▁성공적인
▁실종
▁돌아서
▁요인이
▁한숨
▁예민
▁뉘
▁대만
▁사랑하고
▁배경으로
▁이용해서
▁절감
바지
▁정립
▁정도다
도덕
▁베이징
▁보아도
▁행복하게
납니다
▁1987
▁유태
오의
▁달걀
▁쓰게
▁고기를
축을
▁물류
▁위원장은
대사
옷을
▁아닌지
위험
에다가
▁물은
▁1991
재산
▁경쟁이
월드
▁비하면
▁직원들이
▁○○
▁금속
어쨌든
어느
▁충성
▁질서를
▁그다음
드릴게요
▁동시
인지도
▁없잖아요
쯤은
▁검사를
▁󰡔
pr
데이
▁증상이
▁사회적으로
▁수렴
▁장점
▁해서는
▁의아
▁같고요
▁이런저런
▁씩
들끼리
어서는
▁이익이
▁전세계
▁타인의
▁사립
▁시기를
▁해준
단위
병의
▁도심
▁상담을
▁현존
▁의원님
항을
▁정치에
▁몸과
아니면
▁내부의
순환
▁무죄
▁개혁을
▁끓여
▁소망
장기
▁싫어하는
▁해결하기
▁해를
▁공적
▁사내가
학회
▁낳은
▁청취자
▁요구하고
tp
▁주목할
.2%
▁가족과
계속
▁중얼거렸다
지식
▁지명
▁열렸다
33
▁포함해
구청
▁급여
▁생기면
▁준비한
▁벗어나지
혹시
▁오일
▁줄여
▁응시
▁경제적인
▁상대방이
어어
하네요
▁과잉
▁컨설팅
로만
▁북쪽
▁숫자
▁욕구를
▁이루어진다
되도록
철이
▁첫번째
락의
▁무작
▁위성
...,
▁취해
▁국정원
▁금요일
▁농사
▁말하며
▁일방적으로
▁형식으로
▁관계없이
▁우리나라는
▁간혹
쇼핑
ect
▁살았다
▁웃음이
▁문서
인사
▁엉뚱한
▁협상을
추진
▁내용으로
.4%
▁공부하는
▁쇄
▁외에는
▁증여
▁조화를
▁인정하지
보증
운다
▁얘긴
천을
▁이놈
▁1988
68
▁곧장
▁작업이
▁소매
au
▁브라질
벌이
▁관리하는
▁뜨거
애가
▁교도
────
▁섰다
▁인간에게
▁하려면
▁검찰은
▁하나님을
▁읽기
▁욕망을
▁여태
어와
▁대동
▁제시하는
아들
▁파악할
▁출석
ohn
▁사후
▁실재
▁음료
▁두었다
신으로
▁경제를
어지
▁죽었다
벽을
▁앞둔
화되는
▁갔는데
▁의무를
의로
▁고려해
▁실력을
▁친구들과
▁힘은
▁후보자
▁의논
▁금세
▁받아들이는
▁이번에도
리우
▁결국에는
▁않았는데
그쵸
▁기자가
독립
▁걱정을
▁의혹을
질환
▁교육에
▁평화를
▁서해
▁혼인
▁회피
▁머물러
▁들어와서
▁우물
던지
▁자유의
▁참여할
하였으나
셨을
son
▁절대적인
오면
▁다닌
▁중요하다고
▁죽음에
▁사람이라면
졌기
사회에서
▁이루어져
▁걸리
▁커피를
▁국가에
▁여성을
종교
▁마리가
▁맞을
▁폭넓
▁마찬가지였다
년째
정상
▁아니라면
▁만나면
▁구간
▁한잔
▁가능할
▁거기에서
해양
ind
▁등장한
계로
처분
▁달리는
래곤
기며
▁이방
▁중개
시피
▁역량
단체의
▁떨어지
▁했었는데
▁진로
▁백작
▁살았던
랑은
▁공업
하구
▁과도한
기야
▁괴로
▁이내에
▁알리
▁찍은
▁쓰면
▁눈치를
▁트렌
▁좋아서
▁99
ology
침이
▁당분간
▁환경이
▁투자가
▁이들에게
너스
▁설사
▁주위에
▁세계로
추를
▁잔을
디는
▁베를
▁기대할
날이
▁미터
ik
강한
▁했으며
▁의자
▁못했을
▁사상을
▁사태를
▁명확히
▁나눔
하기보다는
뉴스
▁가중
▁인정을
▁기술의
지수
▁김재
▁식량
▁사회적인
열이
손으로
▁훑
▁동부
ong
▁이벤트
▁얘기하고
▁싸워
되었는데
▁유치원
▁가져온
▁180
철학
부족
움의
▁憲
가야
▁방문을
겨울
항의
▁사형
?」
병에
▁대거
▁한편으로
NA
▁관절
었으나
78
▁차고
▁거리에
온이
▁후의
▁계획이
복합
▁걸까요
▁원으로
기본
▁오바
▁기억하고
▁회전
▁봉건
▁맛있게
혀서
▁Sch
▁이데올로기
▁발표를
▁칼로
▁브리핑
▁흥미로운
▁김상
▁표면
▁해군
▁선사
▁수반
▁휩싸
▁질렀다
벌을
▁비어
▁당내
▁인문
▁임무를
▁굳게
▁게이
▁막고
▁수직
▁통보
▁벌떡
▁현황
▁싸우는
▁프로그램이
▁일제히
▁나폴
▁힌
▁봤다
▁정권을
▁사람처럼
▁모방
▁현재까지
▁리듬
▁뜰
▁여러분들
▁않겠다
▁좋다는
▁상황입니다
운이
▁익숙한
▁최순실
▁두드러
▁연기를
▁김용
▁양을
▁경력
▁붙은
▁초조
▁메시지
▁번은
▁일부는
▁매번
▁적립
▁역사와
▁교회는
▁빚을
▁벌어지는
(0
▁이후에는
셨던
▁걷고
▁임차
▁Ar
▁그러고는
▁경제학
▁열린다
▁가운데서
교육청
▁소송을
▁개개
리아의
▁노인이
▁앞선
▁올라가는
▁생강
▁저녁에
▁돌아왔
건에
▁예수의
지능
▁내용과
▁대표의
▁손상
▁유료
ement
▁뿌려
▁어리석은
IS
배우
▁평가가
통에
▁나타나지
▁어디에서
▁한나라당
▁삼백
▁오만
니의
▁처한
ll
▁회장님
▁시작하였다
▁실린
▁시급
▁역사상
▁친구의
사회적
분들이
▁무리가
▁자연을
▁최악의
동맹
▁비롯하여
▁언제든지
▁덴
▁말미암
▁무효
르면서
▁되기를
▁엘리베이터
지대
▁환율
pe
▁수신
민을
▁그쪽
▁그랬는데
▁눈부
▁되겠죠
▁결정이
▁이곳을
▁이외에도
________________
사용
리학
▁수령
▁신도
생명
수입
▁서두
▁흑인
▁남기고
▁감동을
이었으며
리티
준은
공장
▁환상
▁이렇다
▁욕심
▁저술
▁1930
나갈
▁합동
달라는
▁밀고
위원회가
▁우주의
▁원리를
야구
▁○.
▁마당
▁것이라면
▁함께하는
▁울음
▁트로
▁후퇴
▁스며
녀의
오게
▁습관을
▁사과를
축구
▁음식이
▁증거가
▁일자
되었습니다
▁앨범
▁이어지고
▁되는지
▁체질
라구
▁꿈은
▁댁
▁모두를
▁있기는
▁자원봉사
귀를
▁아나운서
▁정직
시설을
79
▁권유
제국
혈압
▁이루어지지
▁잃지
억원의
▁서울로
▁인구가
▁드러내는
거야
▁활용하는
▁단절
편으로
▁민주통합
▁마인
▁가맹
▁맞다
▁날마다
▁장의
▁이집트
▁줄일
▁탄압
막이
▁is
기보다
▁핫
▁도박
년과
▁보다는
▁작용을
▁상태다
▁42
▁누구를
▁거세
하거든요
▁성찰
▁의문을
▁학생은
▁지배하는
▁결여
▁발간
▁캐릭터
65
▁젓
▁속도가
▁자꾸만
값이
▁김무성
▁전반적인
▁마음껏
▁팀이
▁활용한
▁구역
나서
▁손잡
합니까
▁두지
▁변호사님
▁내지는
▁결정할
▁저마다
▁진리
▁보이기
▁최소한의
▁있음
▁유난히
▁높이고
▁시어머니
▁정책의
▁제외하고는
맞습니다
부대
▁공헌
▁묵묵
▁해석을
▁구미
▁어쨌
▁실패한
루가
▁벗어난
▁수험
▁편입
▁남자와
호선
▁재테크
▁바를
자라는
▁형성된
기나
레는
▁박영
▁세련
▁드나
▁종속
▁건물을
조와
▁삼각
▁혐오
▁저자는
▁흉내
▁욕구
결한
are
▁아웃
시고요
▁사이가
▁선생이
튜브
▁굴러
▁움켜
결혼
▁이듬
▁관심과
▁태극
▁아빠는
▁무언가를
38
가치
▁두꺼
▁체계를
39
▁하겠다는
▁빨라
▁아아
▁기생
▁미국을
해주고
▁움직이지
측은
▁때려
▁초기에
의료
▁성서
▁웃어
▁일만
▁줄곧
▁깔려
▁목에
▁취미
▁안동
▁지식이
▁동성
▁지나고
▁잣
▁교차
장에게
▁고양이
후가
▁기구
▁첫날
정책의
보통
▁미쳤
▁불가능하다
▁자기는
밥을
▁됐을
▁거고요
▁컸다
▁주에
트라
▁있다라는
▁비공
시까지
사옵니다
▁심각하게
레가
▁기분을
----------------
▁개발을
▁노인은
행사
언론
▁문제점
://
▁화면
국인
▁간과
시스
▁정치인
구십
▁수평
▁살펴보자
▁안정적인
▁프라이
▁승부
▁전통적
▁진리를
담당
▁be
▁해결하는
▁원고
천이
ack
▁기를
▁거북
동물
프리카
▁중동
▁친일
IT
▁예금
번호
."(
▁가도
▁들리는
가들이
▁지적이
▁활용해
▁반사
▁없었어요
3,
34
▁조직이
▁페이스
▁오페라
▁요구에
▁기간에
▁언론에
▁쳤
▁돋보
▁경향을
▁지시를
적이라는
▁합리적
▁죽이
▁당하고
▁참모
ice
▁민생
▁차는
러리
▁다듬
▁공익
▁깨끗이
▁영향이
▁업계
▁상태였다
▁기상
▁않겠습니까
▁주민들은
▁수시
▁일각
▁텐데요
▁선택하는
▁유승
박근혜
▁아이디
▁운동의
ations
▁집필
▁2~3
▁담당하는
▁다시금
▁학생들
하였습니다
▁모두에게
▁발견했다
▁정신과
▁까다
▁앞장서
▁차분
됐다고
▁재건축
▁헌법재판
기사
▁백만
인지는
▁600
▁오빠가
▁흘러내
▁생각과
▁띠고
▁해결을
▁나오는데
작용을
▁Z
▁낳고
▁오기
▁이영
▁화해
▁관해서
▁바짝
▁에드
▁발의
▁늘어나고
▁다니고
▁소프트웨어
che
▁라틴
뿐만이
▁계시는
▁제공할
▁모양의
목에
▁초에
▁판단이
▁맥주
열에
▁쉬는
▁비추어
▁베스트
▁견제
형태
▁북부
▁죽인
▁이후에도
▁샐
시킴
개선
▁중대
▁소환
자들에
▁벌어지고
37
▁도서관
▁동행
▁봐서
▁쉬고
▁이어져
▁톰
▁물품
▁블루
▁멈추고
▁못하다
▁프리미
▁혐의를
▁흔적
ood
▁그들과
▁연습을
반의
문화를
▁감초
▁철수
챔피언
▁정상회담
▁얘기다
세력
▁한국과
▁연결되어
르다
▁8.
▁받았던
▁)
련을
관계의
▁보석
▁섬유
광고
▁휩쓸
▁2017
▁교양
총리
▁되겠습니다
▁넣었다
▁무인
▁있어서의
▁말만
▁교육은
▁팔상
▁풀려
▁무서워
▁치매
▁분포
▁고유한
▁나중에는
▁하면서도
당하는
▁직업을
공연
종일
▁지식과
▁각오
▁먹었다
족을
▁구절
▁바에
▁건강에
▁외모
부르크
전화
초가
▁오신
▁귓
▁75
▁선거를
▁자식을
aw
▁만만치
▁어렵다는
▁줄기
기관이
▁못하도록
ah
▁영입
▁창립
▁밑으로
▁돌아갔다
▁든든
▁때나
▁왜요
▁평가하는
▁말이지
▁지킬
▁초록
▁가격은
▁실정이다
▁먹는다
▁생각해요
상승
▁믿음을
▁조만
▁University
▁70%
▁시계
▁범위를
▁일본인
▁토마
가면서
▁달라질
▁되었는데
▁현실이
▁안된다
▁내기
▁핵심은
ire
비도
▁MBC
▁안산
▁이야기도
개는
▁때때로
▁확률이
차이
▁산업의
▁세기
In
▁톡
경제의
▁기도를
▁효과는
▁슬퍼
날을
▁듀
▁리스트
▁보도를
▁시기가
▁서정
▁요리를
셔널
▁다가왔다
ct
▁노벨
새를
▁머릿속에
▁버렸
님도
▁추진하는
▁뱉
▁것이란
▁했거든요
ere
ook
▁조리
느냐고
▁요거
맞아
▁이론적
사람이
지금은
▁드리겠습니다
▁재발
▁재생
▁정부에서
▁병원에서
▁어머니와
▁인과
mm
▁창고
▁크로
▁움직여
’(
▁유해
길은
▁여긴
▁엽
▁틀린
▁증가하고
교사
▁당하는
▁터키
▁어디까지나
▁침착
.」
례가
순간
변에
폈다
▁벽을
창한
▁요금
▁여러분은
▁참된
▁주제에
재정
▁것과는
▁많기
안고
▁이르렀
▁국경
▁세무
▁여론조사
▁움직임이
▁있겠습니까
▁일체
일랜드
▁미스
▁기억에
▁편안한
얼마
▁년을
▁내놓은
▁뻗어
▁세속
▁재능을
▁기자회견을
▁라인
▁기숙
▁박수
시부터
▁양산
▁훔쳐
▁저거
게는
▁습득
▁통하는
공산
해볼
▁간담
▁임진
▁달러를
▁결성
▁명절
▁하얗
▁이메
▁정수
▁단계에
▁조세
▁흐르고
▁무시하고
64
▁그후
▁아리
▁실패를
▁잠깐만
▁방울
프랑
▁스키
▁위임
▁주인공이
▁전년
▁or
파로
▁재단
▁쳐다보
▁화합
▁날씨가
▁달라진
▁전반에
▁취하고
▁맥락에서
▁총괄
▁비전을
근대
▁시작된다
▁계단
▁우리와
▁말아
▁살림
▁신인
▁단위로
▁적당히
▁9.
▁군인
▁임무
▁우연
▁누릴
회의를
▁무료로
▁공사를
▁폰
co
겨운
▁감자
▁사대
▁시절의
천은
▁코를
▁편안하게
▁대치
▁운동은
▁전통을
▁바둑
▁인증
▁노력하는
네는
▁한복
부동
▁그러는데
짐을
▁비닐
▁횟
▁그해
▁설교
▁우아
▁오피스
▁평창
오던
그마한
▁지내는
금지
▁안정을
▁있었죠
▁따름
▁북한을
ci
▁유전자
▁늑
인데네
▁중국을
스러웠다
▁형식을
▁기차
▁장미
▁플라톤
▁나옵니다
▁친노
씨와
었을까
▁보고를
▁집단의
▁강력하게
▁알면
▁육군
▁전인
▁만성
▁허물
▁마지막에
▁톱
▁객관적인
▁4,
▁남편과
▁현대의
▁헝
▁배상
▁유인
잠깐
▁입사
▁현관
축제
▁극단적인
▁않는가
오일
▁마실
집으로
녀는
▁파악하는
깁니다
오면서
▁아리스
▁입으로
▁짙은
주식
내며
▁인터뷰를
▁록
▁긍정적으로
▁최선의
▁해고
▁하나에
이었다는
▁급한
위원회를
▁이루어졌다
류에
▁동의를
정부는
▁무사히
▁유가
▁던졌다
▁보육
▁마루
▁同
▁사내는
그레
▁이어진
▁가정의
락에
▁대두
▁실시한
▁같지만
▁다루고
▁기운을
▁정신의
▁발생한다
▁됐어
▁대학원
▁명확한
▁마스터
▁김정일
▁남성이
▁반도체
▁앞으로는
공학
반이
준이
▁En
▁리그
▁프로그램의
ver
▁묻지
▁서너
삼국
행복
하기에는
▁사회복지
▁하필
▁낯설
▁사건으로
▁거기에는
롭다
▁낮추
▁호랑
▁신청을
▁안전을
▁진행하고
랫폼
▁어마어
▁자신만의
선택
타가
▁등산
▁제의
▁불과한
▁무엇인가를
▁물가
▁우는
▁이수
▁의혹이
▁대원
▁계단을
▁보도록
▁국내에서
▁중심에
청년
▁학과
▁내적
▁한양
란은
▁이라크
▁너무나도
끄럽
▁입이
▁것만으로도
▁했었다
.6%
▁급격히
▁별도의
능력을
▁마이클
▁도발
▁꽁
▁땀을
▁휴식
▁정리를
▁거래를
▁문학적
▁후진
목표
▁포인
▁선거에
해가지고
▁인천시
▁정부를
예산
▁일종
매매
74
▁높아지고
▁단축
▁저질
▁불확실
▁씨에
▁제사
년대의
▁확인한
▁이승만
▁지도를
료는
먼트
했듯이
▁고조
당신은
▁우리들은
라고도
▁국가와
▁아래에
▁동요
▁하기로
▁입장은
▁우리나라에서
▁젖은
▁미끄러
레옹
▁시원한
ult
▁상인
▁만들어낸
피해
(15
▁낮게
됐다는
▁Pol
▁정치적으로
왕을
▁무한한
▁영혼을
하면은
▁교회가
▁신고를
▁조사한
▁놀러
▁하버
▁본질을
하는지
▁債
글로
기다
▁따라서는
내에
▁전두
▁주요한
량한
▁더더
▁동지
▁기술적
▁넋
▁전진
▁부재
▁레스토
러의
▁"......
▁올려다
▁의원을
골을
▁노트
▁무더
▁규명
▁물러나
▁고사
▁시ᆞ
▁존재로
▁차지했다
▁포트
▁상관없
▁기대하고
95
이론
▁모금
▁필리핀
시게
▁닮은
▁좋겠어요
말씀
▁처방
▁모델을
▁정치의
▁현명한
▁인터넷을
▁목회
▁지체
▁앞뒤
▁그치지
▁전달하는
▁하룻
쉽게
▁변신
▁전하는
히게
마켓
▁당일
▁저자
▁오세요
▁불거
▁심화
▁행위에
기름
▁신혼
▁이랬
▁자유와
▁사드
▁싶으면
▁동해
▁남에게
▁드러나는
▁흔들어
▁임원
▁곳도
▁유형의
~8
▁되는데요
▁섞여
▁신장
▁삼성전자
변의
▁자기도
▁부분들이
▁다문화
▁깊숙이
▁판결을
▁왔어
▁저서
▁모양을
▁지주
가량
▁술에
▁다다
지역에
▁an
▁젖어
▁대표적
▁요런
▁연락이
▁나타낸다
▁편찬
류는
▁들어가고
▁모여서
▁아닌가요
대기
▁확인을
▁화살
▁혀를
▁플로
▁해상
▁대한민국의
▁정권이
▁신선한
▁노동조합
족이
▁평상
▁스스로가
▁소모
▁않았다면
▁비롯된
.7%
▁슬로
보니까
사십
주일
ual
▁극장
▁힘입
▁더해
▁빌딩
▁훌쩍
저것
▁종말
▁파업
▁요즘에
▁들었던
▁어깨에
▁확인하는
▁취할
▁엄마를
▁청춘
▁소비자의
됨에
▁선거에서
▁모니터
▁를
▁선생은
▁마을에
▁생각하게
▁분단
▁동경
▁구조가
▁단단히
▁이야기할
▁무대에
리던
▁1/
▁장소를
▁증오
▁지가
▁벌인
▁분도
▁세균
▁드문
▁하하
▁;
▁국가는
무엇
▁좋아하고
▁보도가
▁해당한다
▁시작했습니다
신고
▁제갈
통의
▁강조한다
▁중요하지
▁보리
▁제국의
hy
▁햇볕
▁암시
▁권리가
▁손실을
▁지친
국적
▁효율적으로
검을
맛이
▁프로그램에
▁안은
▁의원들이
.8%
▁지역이
32
▁휘두
▁팔고
▁얘기한
▁특이
▁매스
▁중년
▁않았을까
신경
▁뚜껑
▁회장의
키지
▁표기
▁쓰이는
▁최근의
ton
▁재촉
▁서부
네시아
▁다큐
▁전쟁에
▁예약
▁표를
▁놨
▁철거
▁말처럼
▁인문학
양은
▁차마
▁고개
용품
▁채소
▁황제의
▁가리지
▁마음도
▁인맥
▁정반
▁철학적
▁커플
▁묻혀
▁검찰에
동과
▁스코
▁그지
▁오게
▁기다렸다
▁아이들과
▁덥
▁불쾌
▁마흔
▁수호
▁햄
▁마땅히
▁부가가
▁문제이다
병은
▁부수
▁여는
▁인접
▁비밀을
탄이
▁단행
▁제주도
▁즐거움을
정하고
▁네이
▁1920
▁장래
▁강렬한
▁정체성을
▁제시했다
▁발라
▁하나님은
오염
▁가리키는
▁시선
▁단계에서
▁절약
그렇기
DP
▁야간
김없이
▁심상
운을
언제
▁노력하고
▁대지
▁선생의
▁구하는
▁실체
▁商
▁주간
▁스웨덴
▁않았나
경험
▁약화
▁지키기
▁그림이
학적인
하오
▁변하지
▁보여줄
직에
▁56
▁진상
▁언니가
▁진지한
▁Re
프레
아이고
미널
▁싣고
있고
▁합니까
▁요한
▁허무
법적
▁때네
▁조용한
내용
▁나보다
▁땅의
▁정신적인
버섯
▁장점이
▁신흥
▁갸
▁광명
▁나서야
▁중산
▁지을
▁치우
▁형은
▁und
▁시작되는
▁몸짓
▁무거
▁법안
제도의
▁명분
▁야생
으려면
▁질문이
육십
▁기간을
▁때문일
시도
▁악마
발의
▁세우는
▁의도를
서부터
▁뿐입니다
▁민정
▁과거를
oci
▁세계대전
▁여느
▁그리는
▁폼
▁짐작할
▁두렵
주에서
측의
▁상환
▁산에
▁80%
▁개념으로
▁성폭
▁자각
▁주한
▁自
▁네네네
결국
▁총을
▁드래곤
▁타임
▁놓치지
▁땅에서
▁뭐지
▁고도
▁맞았다
▁지혜를
▁짠
▁시인의
▁땜
장관
▁도시를
▁무기를
▁인생은
▁곳곳에서
▁사용하여
▁레닌
▁네덜란드
▁지역으로
▁어땠
▁바로잡
○○
▁축복
▁이제부터
▁처벌을
me
▁주장에
인민
▁거슬러
▁젠
-6
▁취향
어가고
▁내밀었다
▁54
▁돌입
▁집계
▁델
▁위원회
건만
시즘
▁끊어
▁애니메이션
▁일깨
▁벌이는
▁하드
Ch
▁연구소
▁막는
갔습니다
었거든요
▁들러
▁래
보장
▁무심
▁버는
▁카드를
▁오이
▁하루를
▁붐
▁복종
rom
▁거둔
달이
▁부당
▁걸렸다
▁넣는
소유
▁상관이
▁무산
▁용납
▁있구나
▁그리워
▁닦아
▁쉽고
▁과제를
임대
▁고구
▁일년
운동에
▁나머지는
실과
이걸
▁전염
▁일원
▁부의
▁먹어도
▁관계에서
▁이듬해
▁개발에
▁장로
▁제이
▁사진이
▁불쑥
▁전직
이었어
▁법이다
▁용기
▁지분
▁웰
▁줄이고
▁김지
▁설명이
이었으나
▁돈도
▁획기
▁나오게
▁혈압
올랐다
▁내려와
▁역할은
적에
▁해제
)>
▁존재할
II
다음
▁낸다
▁진행된
편이
형과
▁매월
▁올라갈
▁계좌
▁인정할
▁입는
▁충북
▁이미지가
▁띤
새로운
▁자격이
▁폭로
.’
▁강을
▁울타
사들의
사업에
▁항복
▁확고
구조를
▁사원
▁남지
▁놓는
▁용의
듯한
▁안돼
▁법에
▁냄새를
▁가사
▁회수
회의에서
▁잤
▁정권의
▁기업들은
앉아
았기
▁원숭
가들은
St
▁추락
▁증거를
▁도의
▁투기
▁지식의
▁공식적으로
권도
▁기성
▁눈에는
▁여자들이
▁시설을
▁그르
▁높이기
▁저게
▁해산
▁크리
▁음음
전시
▁늘려
▁봤습니다
▁빈번
▁가지만
▁일으켰다
집행
▁강대
▁끝을
▁많다고
▁감성
tis
▁섰
▁맞춘
▁붙인
▁전과
▁강릉
▁드러난다
▁지난번
들에게도
▁알았는데
de
▁대표를
▁대화가
▁시작해서
▁쉰
▁깨어나
▁58
▁한눈에
▁징계
토가
▁계십니다
行爲
▁짜증
ish
▁나랑
▁맞춤형
▁지나간
바탕
▁사고의
▁토론을
▁이지
▁변화와
미디
하느라
▁여인의
▁수송
공에
▁박탈
▁지사
▁줄이
▁일이야
▁노는
▁달려가
▁더군다나
올라
▁자유로
▁전수
▁표명
▁고속
▁적고
▁게재
▁성직
▁문예
▁차기
▁고객에게
심사
▁불구
버그
견이
부문
고사
▁전교
▁국제적
▁자녀를
▁도중에
▁산이
▁서운
ED
▁내각
▁객관적
▁경과
▁투자하는
▁그간
하더니
나갔다
▁말합니다
▁발이
▁역사적인
▁수염
▁의도가
▁그러면서도
▁크레
지는데
.9%
생은
▁선택의
▁빠질
▁장이
▁전송
▁교통사고
일곱
▁메르
▁알파
▁틀을
▁발견된
▁집안의
▁들어간다
돈이
▁인연
▁스크린
▁디자이너
동아
▁미만
▁이보다
▁증상
▁사람에게는
▁장교
▁스쳐
▁소리와
▁알아볼
▁누구보다
층으로
▁한자
▁선두
▁늘었다
▁주자
▁가치는
▁궁극적으로
77
어에
▁배에
▁주재
▁상품의
▁김일성
▁가진다
▁속한다
▁어린아이
▁자립
▁시작했고
▁사용을
▁의문이
▁머무
▁적정
▁클린
▁김수
느라고
▁보이지만
▁이병
▁탐색
▁협약
▁교회를
▁꿈꾸는
▁단계를
됨으로써
그러니까요
밤에
▁일본을
▁행동으로
고리
체제를
▁독자적인
▁상호작용
▁있겠습니다
▁개발한
▁보름
▁들었어요
▁전체에
▁평생을
▁크리스마스
▁주사
▁인생이
▁EU
▁전담
▁타고난
역으로
▁찾아와
▁운영을
▁즐겁
▁보호를
▁비전
단한
▁부탁을
▁제도적
▁의욕
▁하루하루
▁총장
노조
버렸
▁자연스러운
▁신음
▁잠수
▁없어도
▁주변에서
▁임기
▁준공
▁이은
▁당할
▁적절히
아웃
셨죠
▁동쪽
▁선비
▁관계의
▁러시아의
▁열정을
▁생산하는
으실
▁말하기
▁심심
그것도
▁드라이
▁봤어요
▁소설은
▁남북한
방지
▁재개
▁만들어내는
집은
~20
▁이란
▁일인
▁아메리카
▁싶고
오기
물이다
귀한
▁슬프
▁빠지는
▁아쉬운
▁상징하는
▁하겠다고
루는
▁동정
▁실감
▁날려
체계를
확인
▁주류
▁짝이
뭔가
▁성분
방식을
▁없음을
▁문화와
▁조선일보
▁측면을
▁돌을
▁안개
당시
▁가끔씩
▁로스
▁집합
▁10.
▁매개
급을
▁자연과
라미
▁스토리
▁영상을
주의적인
▁아버님
▁톨
▁작품에
mun
▁움직이고
령에
duc
▁흩어져
카는
▁여인이
▁드리는
契約
▁지쳐
▁눕
▁살다
▁사우
▁암살
▁워크
▁영어를
▁옮겼다
▁효율적인
▁몰입
▁하시면
▁by
▁오백
▁'20
▁못해서
▁생각해서
▁"(
▁의거
▁그것으로
▁인재를
웠고
▁알레
▁말라는
▁보편적
▁자유한국당
▁짤
에게로
느냐에
스포
처가
▁도중
▁소주
▁끝내고
▁뚱
▁실어
▁않으려고
▁진행된다
제작
토의
▁죄가
▁고장
지배
▁세계적
▁분노를
랄까
▁데에는
▁임금이
ace
▁경호
▁줄이는
금에
▁후기
▁두번째
▁반항
▁관세
▁끝없이
▁넣어서
▁신사
▁방법도
▁최후의
▁이제까지
졌으며
▁뉴스를
▁대하는
커니즘
▁멀티
▁쓰다듬
활동에
▁장관은
▁추운
▁핵심적인
수산
▁꺼냈다
보도
▁금액을
▁정하고
▁64
▁독창
겠는데
▁5)
크라테
▁대안을
이었죠
▁그랬던
비평
▁갑니다
▁골짜
▁장점을
▁비판했다
▁지목
▁위와
▁님이
▁시상
▁바뀌었다
▁핵무
▁표현한
리니
▁섞어
농업
▁구청
▁어른이
▁라이프
머리를
▁학교의
▁쇼핑몰
ann
▁벗고
▁초상
▁한의
▁주체가
tit
▁나왔는데
▁상한
▁논리를
하십시오
▁사천
나라를
▁대상은
▁최신
조선일보
▁글자
이익을
▁간이
▁비춰
▁예술의
▁존재하고
권으로
▁비난을
질서
▁민원
▁에스엔
계산
▁운반
▁부모는
▁섞인
▁현안
슨의
후는
으흠
▁인물을
▁경험과
▁않더라도
노총
-8
▁아저씨가
▁결제
아래
▁상해
▁처음엔
▁모조리
▁요컨대
▁그라
▁다가오는
▁잘해
▁하반기
워진
운동이
▁잘하고
▁헤매
▁소용이
▁가늠
▁어리석
▁열을
▁친한
▁인생에
전기
원래
▁데이비
▁남양
▁보려고
▁사무총
▁i
▁피난
▁보편적인
▁카르
▁서기
▁교장
▁높일
▁호수
▁생명이
▁승려
▁이인
▁나폴레옹
▁상처가
主義
▁아끼지
▁카카오
▁와중에
▁집의
▁길고
▁타격을
림으로
▁경계를
▁마다
▁정의를
▁의식의
▁좋아한다
아이가
▁침대에
-19
▁틀림없다
▁내걸
▁단어가
중은
▁아테
▁장차
▁형태가
▁힘에
보의
어린
▁이야기하고
ance
▁감사의
▁저렴한
▁다니면서
▁유한
▁태워
기면
두리
▁야외
▁불만이
▁기준에
린다는
▁갖가지
범이
(10
▁생선
▁살펴본
▁어때요
▁시스템이
▁잊을
▁지위
▁ch
▁발음
▁예전에는
▁싸움이
▁행사가
▁드러내고
▁있었는지
ᆞ중
토는
프리
▁불행한
▁여기가
▁뿔
▁아파트를
▁포위
▁화제가
▁조건으로
발로
▁상대방을
▁전반적으로
▁부부는
▁이르게
▁죽일
들지
걸음
▁가는데
▁맴
▁매달려
con
▁그녀와
▁데이트
▁숫자가
▁날로
▁여쭤
▁벌였다
▁작년에
근한
개국
▁접어
▁외출
▁녀석은
▁달라는
▁아픔을
값을
▁보이며
하냐
테이션
▁상반기
▁신문에
▁체험을
▁안주
▁가져올
▁번만
▁크지
▁합성
▁체계적으로
▁부가
더군
▁에피
▁우두
▁손해배
▁지원이
▁1985
▁묵묵히
파와
호에
▁소집
▁강제로
▁한화
▁학교가
음으로써
▁증가했다
會社
료로
▁서쪽
▁대가로
▁조만간
층은
▁의사소통
▁자질
▁풀고
▁병원을
▁한참을
▁마당에
▁무섭게
▁힘의
▁규모로
검찰
▁관해서는
▁주름
▁콤
▁귀신
으로의
▁바뀔
▁1986
▁두세
▁군사적
▁해준다
▁이상적인
▁다운
▁비교할
▁와인
(9
▁뒤덮
▁잃게
▁시작하면
먹은
▁규정이
▁죽지
ᆞ이
▁입력
▁팝
yst
ign
▁pro
▁설명한
▁힘들고
순위
하진
▁내부에
좋아
▁레스토랑
▁땡
▁FTA
▁진행하는
▁돌리고
................
▁나무가
▁관심은
금과
▁더러
▁마누
▁치켜
▁통일을
▁추출
▁불빛
▁여신
법원
▁안성
▁긴장을
워드
▁역임
▁욕을
역은
▁쪼금
살렘
▁희망이
▁모셔
▁않던
▁킹
▁KB
▁사각
▁묻자
줘요
▁있기에
▁새벽에
▁이룩
▁견뎌
▁끌어들
▁재고
▁침투
▁말씀은
변이
름한
▁59
여덟
▁멀쩡
▁긍정적
전도
▁비판이
▁방식에
▁주장한
▁직장을
▁연구하는
▁권위를
▁자들이
▁알았어요
▁어머님
▁일어나서
▁방문해
▁아기를
▁바빠
▁주인은
▁李
▁갔던
▁녹아
▁김병
▁주시면
▁金
▁어둡
▁사촌
▁중고
▁엘리트
▁원장
▁상영
▁유감
ition
사님
▁받아들이고
▁전신
손이
▁답변을
었나
보에
▁가방
▁개통
▁다툼
▁의결
▁후보로
함의
▁차례로
▁der
▁밝히는
▁모으고
▁살지
▁치솟
▁발견하고
생활에
pl
▁담임
▁기대된다
▁객관적으로
채권
▁맞물
▁능력은
▁임금을
▁특혜
▁자연히
▁한없이
▁묘한
▁활동은
겠냐
▁모스크
조치
▁위태
▁아리스토
칠십
▁저소득
▁옵
▁불균
▁미안해
▁쌓인
▁입장이다
▁일으킬
▁가꾸
▁12.
▁남성의
▁하느님의
▁가방을
▁답했다
▁박물
▁스파
▁얻지
그럼요
▁40%
▁문화에
라야
▁삼국
▁우리나라에
▁올라갔다
빈의
삼성
▁알면서도
루살렘
질적인
▁양상을
▁학생을
▁못한다는
)」
▁때로
▁됐다고
▁낀
▁소리도
▁그때까지
New
들까지
나라에
▁무선
▁단백질
▁괜찮아요
▁내놓고
▁뽀
▁덕분
간다는
작이
▁대인
인터넷
▁생략
▁바이오
▁판단할
가리
지던
하다면
▁계획은
▁오라
▁원정
▁세일즈
격으로
▁위해선
▁들었는데
▁일상적인
▁탈북
석에서
▁정규직
▁시시
▁자국
▁com
▁쓰러져
......,
중에서
▁고민이
공정
▁마을을
▁기자회견
▁놀고
시대에
▁퉁
▁함유
▁베어
▁육아
노라
▁던진
▁날아가
▁당당하게
▁복음
메이
▁설명한다
▁시작하여
▁릴
유는
▁기득
▁초등학생
노는
▁마신
▁유성
▁있냐
비한
▁농협
▁이완
되었지만
▁시작합니다
▁신축
▁능력과
▁사용해
~18
▁성의
그러다
ER
▁일고
▁첨가
▁시각을
▁경제적으로
▁임상
▁분석한
경제적
▁잠겨
자들도
▁5%
▁모른다고
▁재판을
▁부인의
▁물리적
▁국민들은
바퀴
준표
▁보복
▁중요하지만
▁운이
▁팀을
▁따라가
▁물고기
4,
보수
▁숭배
▁해독
▁지향하는
▁사람이라고
▁당이
▁찻
▁불과했다
▁지켜보고
▁것뿐
▁삼는
▁정보는
▁우러
▁더불어민주당
생태
▁기대한다
▁살펴보고
▁굉장
▁정보통신
ous
추가
제일
덩이
기독교
미로
▁이마
▁안전하게
▁좇
▁플랫폼
▁못했습니다
저축
하자고
▁결정했다
▁알아듣
▁스튜디오
집의
▁명성을
▁모양으로
설은
보다가
뭐야
▁룰
등의
ath
▁반쯤
▁사자
▁비리
▁어느덧
▁벌어졌다
론으로
하든
▁공공기관
▁나가면
▁활발하게
▁쑤
▁66
▁가격에
ma
▁검정
▁결혼한
▁관행
▁트위
▁들어서는
▁시공
▁양은
▁영역에
▁포함된
▁것인가를
▁공식적인
▁사면
강이
▁대답이
▁영어로
▁우리들
▁폴란드
▁정무
▁초라
▁현실은
朝鮮
▁연휴
▁자료가
▁미국으로
▁특징이다
▁금융기관
▁끄는
▁꼼꼼히
국장
▁문장을
▁버리지
▁말하였다
환의
▁개시
▁분야를
▁주실
▁기대가
▁노골
▁기존에
▁85
▁저택
▁하느님
객이
▁결핍
▁창문
▁비명을
▁있고네
▁성공했다
▁막혀
▁수소
▁다이어트
▁누구의
▁문화재
션이
▁의심을
▁엔진
▁천문학
▁마을의
CA
호로
국가의
▁방식의
▁]
▁기인
▁자체로
▁만주
▁가늘
▁점수
▁가량
▁친정
▁성사
▁바다에
▁슬쩍
▁늘어날
▁추방
▁성분이
▁있었지
환은
▁친구들은
▁호의
▁내부에서
▁무엇이든
▁숙박
▁그곳을
▁챔피언
▁준수
▁여성들은
▁5000
▁시점에
▁영혼의
▁포기하지
시킴으로써
▁사고로
▁바늘
▁지탱
▁보상을
고네
▁남겼다
▁웃으면서
▁아스
▁국회에
▁나을
▁모욕
▁됐던
에의
▁주인공은
▁원동
▁믿었다
▁여자들은
▁스미
▁아팠
▁범행
▁추진할
▁홈런
▁납치
▁쪽은
▁싱가포르
▁아베
▁각별
▁악의
▁관리가
▁국민들
주년
▁건물이
▁제고
하기까지
두가
▁말자
▁활성화를
팀은
판에서
▁은근히
▁나름의
▁궁금해
▁있을지도
▁68
▁권고
▁보유한
생물
▁저널
왔는데
▁일이지만
the
들이는
▁유지하기
방안
▁것만은
동에서
▁반응은
▁압축
▁처형
▁운동에
▁도래
급히
▁흘려
▁입구
▁그분이
▁리스크
▁익히
▁존재는
▁말미암아
▁얼룩
▁감사를
▁대중의
▁마련한
▁유용한
▁마술
▁나오기
▁불필요한
▁프로그램은
▁자궁
맣게
▁게으
공동체
▁세월을
▁삼천
▁남들이
▁인물로
봉을
▁알리고
▁싸울
▁재개발
▁결정에
익은
포가
▁주위의
▁현역
▁98
▁불량
▁요시
▁간다고
▁제임스
▁바뀌는
▁無
▁기쁜
▁제공해
▁전략이
하셨습니다
▁들리
▁비슷하게
▁개선을
▁대상에
▁김해
▁술이
▁타자
▁해본
치도
▁굶주
▁끝났다
▁생각이다
▁용어를
디아
▁폐하
▁계세요
▁주석
▁서로가
▁결혼식
▁골고
▁신임
▁프랜
▁컴퓨터를
▁한국전쟁
▁부회
▁사다
▁좋아하지
▁현실에서
근로
▁옮김
오른
▁가르침
리포니아
ide
▁빌어
▁죽이는
▁오디
▁일정을
봐도
▁자동차를
인구
채가
박물관
▁물건이
▁덮어
▁하셨어요
▁이론은
▁잇는
실제로
▁과세
▁옮긴
조원
▁팀의
▁도가
모습
▁분석해
▁병에
▁있었다면
▁잊혀
▁완공
▁한껏
▁부시
▁즉위
▁당신도
▁동생이
▁그랬어요
토론
▁농사를
▁말이었다
▁희미
▁소수의
▁봐라
판으로
▁성공의
▁남이
▁내달
하였을
▁노력은
▁여기고
화하기
▁경우와
▁지구의
▁일어난다
▁et
▁끊임없는
▁눈썹
운전
▁단계로
▁강행
▁명백한
TO
▁까마
▁클레
▁엇갈
▁진압
▁메커니즘
▁진짜로
▁모습이다
▁보전
사업의
▁중요합니다
▁수행할
▁추모
▁싶다면
후를
▁받았고
저녁
▁하나다
아유
▁찾아가는
인권
▁메이저
▁원칙에
▁주문을
지향
▁번갈
희를
▁누적
▁일부가
▁영역에서
▁아니더라도
▁Le
▁유망
▁정책은
▁심장이
구먼
▁가보
▁떠들
▁망가
▁방학
▁낙관
티를
▁여왕
▁침몰
▁심리학
었으니
▁상하
▁발휘할
증의
타임
▁내신
▁무작정
▁후계
▁일구
사회에
문제가
업계
신도시
▁노인의
▁이제야
였죠
▁현실과
▁여성들의
▁하룻밤
▁기쁘
▁왔다는
튿날
▁열한
▁들으면서
유치
▁걱정하지
이나마
▁누리
▁서류를
▁태도로
▁가족들이
▁이야기에
▁연못
▁잇따라
▁x
▁찡
▁사라지는
▁애쓰
▁깨끗하게
▁거란
▁우뚝
사항을
유통
▁딸의
▁주둔
▁야당이
▁윤리적
업자
▁배는
▁백인
▁받아들이지
▁원칙적으로
▁천만
46
▁법은
이긴
▁넣어주
아파트
▁감정의
▁대구시
▁수단을
▁성격의
▁자기네
▁하고는
SA
▁면제
다만
플렉
▁주일
아트
마케팅
▁세종시
초등학교
▁인위
▁치밀
운의
할수록
▁순간을
▁환원
성이나
▁그레
▁하든
▁못지않게
▁동조
▁공인
▁바라고
300
▁발급
▁박물관
거니와
량에
▁납품
▁규모는
▁기울여
▁분석이
▁서양의
▁지진
▁대답은
직이
ris
▁키로
▁제외하고
▁미흡
▁나왔던
▁가마
림에
변화
▁주방
▁고혈압
부도
▁앓고
▁마리의
▁매니저
▁이름도
▁첫째는
▁확신을
바람이
▁요청을
▁클래식
슨이
합의
▁브레
▁협력을
ft
언니
▁깨닫고
▁바꾸고
주아
▁중지
▁경험한
▁중재
▁버섯
▁음악이
▁형이상
▁여자와
나물
▁했잖아요
한테도
▁모습이었다
▁틈을
bert
▁구부
▁받았습니다
▁모자를
▁하셨는데
▁교실
▁일삼
▁되었으며
▁못했지만
▁불어넣
▁뒤따
단에서
▁프로이트
orld
▁공허
▁마비
▁전주
해지기
▁것에서
▁못했고
▁학기
했는데요
까진
▁면을
▁백두
▁설령
▁특징이
약품
▁밸
아홉
이천
▁유죄
▁이불
▁느끼며
▁예루살렘
운용
▁al
▁열광
▁제압
우스는
▁회상
▁아름답게
갔고
▁양심
▁이광
▁역사적으로
은행은
응하는
▁방문한
▁취하는
▁기술은
▁도착했다
▁쉬지
▁재직
▁이튿날
▁제품이
▁주소
▁‘20
▁수익률
▁어울려
▁이야기의
▁전국의
▁능동
▁(5)
▁신속하게
▁반환
▁실효
가슴
▁장사를
▁사물을
▁판매하는
타고
▁싶어하는
▁기록하고
약성
▁국민의당
▁생각해야
nal
▁상무
▁차갑
은행의
▁나만
▁비결
▁심정
▁아이러
▁이루어져야
ug
▁ed
▁알려주
▁않으면서
▁마냥
▁목록
▁비율은
▁아래에서
▁떴다
▁PR
▁동구
▁신호를
▁존엄
▁찬양
웠습니다
마마
▁꼬리를
자료를
▁명으로
▁변한
▁사제
해져서
▁데려다
▁값이
▁문명의
▁위협을
▁유승민
▁바꿨
▁지성
▁더더욱
▁과언이
▁마마
렬하게
▁지내고
▁이유에서
▁밝아
▁이분이
시키며
▁좋지만
▁원전
▁찾아내
▁늘어나는
분들
▁증가한
▁들어섰다
신청
▁멍청
▁놈은
▁해결해
황의
▁인도네시아
센트를
▁죽음이
▁실력이
▁위험에
▁역전
▁변하는
녀를
▁문화예술
▁시대적
팀이
▁날개
▁경찰의
▁빠뜨
였으나
▁떠나지
▁일본과
▁언론이
▁보시는
72
그동안
▁위주의
▁건강하게
▁죽게
자금을
▁함은
▁흔적이
사이트
▁버스를
▁달라진다
호흡
▁아니냐는
부산
▁베네
▁기업과
업의
▁흘렀다
▁사적
▁기지
▁자매
▁장기적인
▁교회에
▁논리적
▁그것들을
old
▁잔디
세계의
▁환경에서
▁공고
▁절로
스도
▁보고는
잡을
▁수화
기업이
▁않은데
들과는
▁공간에
▁나타내고
▁불길
교회의
▁시작하고
▁예술가
▁드러냈다
겠구나
▁지지하는
오늘은
▁오피스텔
▁법의
▁그림자
▁없으므로
▁할아버지가
▁우호
▁음반
▁조언을
하우스
오리
▁가이드
▁사실과
▁종족
▁당사자
▁본인은
▁만져
작용이
▁대문
마음
되었기
▁하얗게
▁베를린
▁장소에
왜냐면
▁기적
▁유신
▁아니잖아요
라면서
레이드
하였다고
▁나이를
리아는
▁일환으로
int
▁대성
▁졸업하고
▁성능
드리는
▁돌아오지
▁쓸데없는
▁말이냐
▁키우고
그러면서
▁95
분양
▁해에
문제는
▁만나지
▁휴식을
▁재앙
▁은폐
▁선조
▁인간적인
국어
▁단골
사일
지노
tiv
▁종교의
▁신도시
▁돌아가고
66
▁책으로
▁우리나라가
▁계실
▁언뜻
rans
▁열리고
▁이따금
▁돌아가신
▁큐
득한
▁않았어
▁뇌물
▁기다릴
▁낙찰
▁듣게
▁프리미엄
arl
표는
▁보신
▁민주당이
▁자녀가
▁땜에
▁이사를
▁힘입어
gl
▁공장을
▁들었을
준의
▁김광
▁발생했다
▁손가락을
▁정면으로
▁값을
감치
▁예능
▁끼어들
▁들으
▁장려
▁조사에
▁벌을
▁오프
▁보고서를
▁중순
옛날
해지면
▁이것저것
마크
▁신랑
대강
설계
천에
▁어미
▁대가를
▁여수
▁일반적
이용
스케
▁상생
▁모시
▁모르겠는데
케스트
▁멀리서
▁침을
청소년
▁1945
▁있음에도
▁몸에서
▁버린다
목은
▁불려
▁관점을
▁시기는
▁직전에
거기에
▁프린
▁매력을
▁성명
▁제어
▁차로
49
효율
oll
운동은
통화
▁증진
▁비서실
▁선호하는
▁않겠다는
초에
▁체계적인
▁절을
▁껍질
▁봤어
▁양극
어버린
월호
공무원
네네네
더니즘
▁꿈에
계층
▁왔다고
▁흘리며
▁생리
▁혼란을
닙니다
▁언제부터
▁여유를
▁플러스
▁진전
▁처해
7,
▁아무렇
▁생각했
▁사람입니다
▁대수
▁민속
▁가정에서
가정
▁법조
▁읊
▁찜
▁강조한
▁확고한
레의
회계
▁뜻은
▁감각을
▁멍하니
▁자세가
▁평가는
티는
▁심층
▁필자가
▁물질적
▁열흘
책으로
▁주먹을
전국
민주연합
▁일주일에
▁수색
▁800
▁침체
▁능력에
▁문제들을
▁재미있게
▁오셨
▁체력
소리로
▁수사가
▁원장은
목의
통제
▁쿠데
▁편을
▁기술과
▁바라볼
▁진작
교과
▁고리
▁어쩌다
▁참여해
▁해당되는
당할
받게
▁5,
▁소재로
▁걷기
수리
협정
▁대면
▁변명
▁예가
▁인도의
▁꿈과
▁의사는
▁세분
ier
▁국회가
악을
▁41
▁과시
▁마이크
▁찼
▁없었다는
결의
법률
▁공이
▁급진
▁더러운
▁시민단체
애는
▁메리
▁전무
▁자극을
▁즈음
▁근로자
▁나가지
업이
▁여건
▁아내에게
▁절대적으로
부담
▁조사가
찮은
▁아니고요
진다는
▁치명적인
기부
철은
▁탄탄
▁높았다
:1
▁이루지
▁편에
▁설치된
▁자리잡고
▁가급
중독
▁프란
▁하자는
▁한국당
▁환자를
▁대출을
▁wh
▁유월
▁공평
▁지키지
기금
만명
▁소지
▁판사
▁믿음이
▁비판적
▁인프라
▁재밌는
▁남자들이
▁손톱
▁무너져
▁발표된
▁창조적
▁보시죠
IP
▁당원
▁양국
생활의
▁순으로
▁유대인
▁어딜
만약에
▁되나요
▁활발한
▁투수
▁산다는
▁설명이다
▁숱
찌감치
▁원래는
ein
▁본질적으로
▁급하게
▁연결하는
▁레오
▁무늬
장하고
▁가다
해준
▁띄는
기계
벨트
신학
▁무너뜨
▁뾰
▁향하는
천억
▁株
▁삭제
▁갈아입
▁작업에
경으로
▁여부에
▁인간에
상도
▁주며
▁사람이나
시키려는
▁이러면서
▁하나이다
▁가져가
데미
▁남짓
▁샤워
▁포스코
▁250
▁아니오
▁머뭇
▁조약
신도
▁여론이
▁호랑이
루의
▁측이
▁들리지
▁사람들이다
교안
▁살을
▁하구요
▁자발적으로
▁보이는데
▁출동
효과를
▁귀중한
▁시민사회
▁페미
어가지고
▁인형
대도
시켜서
▁만나러
ᆞ김
form
▁빠졌다
▁설비
▁여보
▁쥐어
▁시인이
성이다
▁서구의
▁솔직하게
▁필요합니다
oy
▁지적을
▁이어진다
해방
▁만들지
▁어우러
▁집회
▁매출이
▁애초에
▁고려해야
▁않을까요
▁개그
▁예산이
짓는
▁김두
▁떨고
어제
과세
▁회고
복음
부처
▁요동
▁에어컨
▁구글
▁평가할
▁리포
▁사명
▁히로
당신이
▁일컫
▁수준에서
조각
치다
▁끼어
▁해수
▁지적하고
▁페이스북
▁무소속
▁춥
7%
무니
▁제도의
▁신생
▁상황과
▁어울리지
▁터널
았으며
▁플라스틱
곳에
▁엠비
▁구조조
▁상상을
▁볼까요
▁없어진
▁있네요
이거는
▁치며
▁미니
▁방위
▁하루가
타르
▁줄도
▁바지
▁세울
▁부모를
교에
▁전쟁은
▁않겠는가
▁먹게
▁걸어서
민주주의
▁다가와
▁포함하는
▁거느리고
▁광범위한
도다
▁동창
▁이야기다
▁•
현을
▁배정
▁컨셉
▁정도만
▁앞으로의
▁자랑하는
나기
이신
상대
▁캘리포니아
▁팽팽
어지게
▁이름의
쯤에
▁꿰뚫
▁사물의
▁하늘에서
원인
운송
▁교정
▁얼어붙
▁철학을
대며
~30
▁영화에
▁전에도
▁마련했다
▁분명했다
▁분해
말의
시마
포로
▁느닷
▁도를
▁보았던
▁적용되는
빈이
▁현실적
▁변혁
▁고유의
▁들어야
▁52
▁교역
▁마라톤
▁페이지
▁없잖아
▁넣을
▁가나
▁中
▁구성요
▁습관이
▁구슬
▁동방
▁재해
▁후속
자였다
▁건전한
▁다룰
코의
▁이같이
말은
▁보여주었다
▁넘은
문제에
근이
▁그치
▁빛의
세종
들기
▁뒤의
▁병역
▁약혼
▁비스
사전
▁착용
▁즐기고
로부터의
▁급기야
▁군의
회사가
▁시대는
▁진흙
▁民
▁피터
▁아름답고
▁랜
▁되니
▁11.
▁매력적인
▁우회
▁골고루
▁바람직하다
▁암흑
▁어젯
▁학업
▁말려
▁평론가
달에
▁물의
겠니
▁3000
어우
▁인물의
탄의
▁카운
▁잔인
바이트
▁품에
▁측의
▁고통이
완전
쳤던
▁편한
▁밖에도
▁절대적
▁도리어
▁사상의
▁성과가
▁공정한
▁던지는
▁중심을
▁가르침을
수석
▁없소
▁자원을
▁아이와
▁그래가지고
▁재수
act
▁치면
▁대주
▁방영
시에서
▁압력을
▁오월
▁인성
▁많지만
만약
죄송
▁기초로
차원
▁굵은
▁붙잡고
▁인식의
▁아름다움을
▁토로
▁냉장고
▁사항은
▁성별
▁기억해
▁미련
▁비관
▁손실
44
▁창설
아무리
화해
거지
레일
▁뛰는
▁주면서
께끼
비율
▁따위는
▁미적
▁아미
▁양파
▁60%
▁국민적
▁안정된
▁로버트
▁울렸다
혈을
▁검거
▁곡을
▁지적한
▁비례대표
▁인구의
▁놓을
▁마셔
▁봄이
▁옮기
▁동안은
로드
▁고운
▁그림은
반도
센터를
▁떠나서
▁문자를
▁본래의
▁법적으로
▁퀴즈
▁분에
상이다
▁안경
▁타이밍
▁행사에
우리나라
▁사람들로
▁직원들의
▁탈락
▁표현은
▁국민에게
▁잡힌
▁노르
스트로
▁르네
당으로
▁고마워
▁교사가
▁전까지는
▁위법
▁온도
▁시끄러
ondon
람회
▁일인가
▁공짜
▁부당한
▁부모와
▁손쉽게
▁들어가지
▁바뀌고
▁외곽
▁찾아왔다
▁논문을
▁뵈
▁내서
▁남아있
▁내놨
▁칼럼
▁적절하게
철을
피가
▁부임
▁결심을
▁참여하고
년도에
모로
▁거시
▁높였다
▁공동체의
▁계집
▁불리한
71
▁│
께서도
사람들이
▁같구요
▁고려할
▁돌아다
▁기아
윤리
▁번호
▁전념
▁정진
▁위해서도
▁꾸려
▁며느리
▁란
채는
▁합의가
▁환경의
▁아일랜드
사회를
▁행하는
▁궁궐
▁커서
▁흔한
됐지만
하셔야
▁글쎄요
▁민감한
▁즐거워
가능한
여기서
▁군주
▁범죄를
▁있기를
▁페르시아
▁대도시
▁일어섰다
eth
▁근대적
▁공기가
▁창문을
▁요구되는
▁예견
▁원주민
ech
▁통증이
했으니
▁모았다
하였다는
▁따뜻하게
▁온전히
▁분위기는
폴리오
▁나왔을
레이션
▁철회
▁반란
▁속속
▁떨리는
▁넓게
▁변수
▁김영삼
▁여인은
▁전문적인
▁정기적으로
▁노선
▁분석하고
▁전국적으로
스티벌
고용
▁선별
▁거구요
ystem
▁기회에
▁거지요
▁日
▁중에도
▁활동하고
▁있기도
br
▁통행
▁원형
▁있지는
▁내려오는
밀리
▁총독
인력
페이
▁배로
▁상주
▁미용
▁지역구
▁with
▁알바
네의
▁예뻐
중학교
▁자전거를
각각
▁잘할
했을까
물었다
▁세입
▁학교는
▁학살
한은
enc
▁마음과
올린
▁본질적인
▁복사
▁깨뜨
그릇
▁소원
▁전승
▁두려움을
▁다이아
▁것이었습니다
▁규제를
우선
▁불합
▁섭섭
▁달콤한
▁계속되는
▁도와주는
▁깨우
▁상향
▁하루는
죽을
▁스위스
안으로
▁소설가
▁때문인지
▁에너지가
▁판단하는
▁벽돌
▁스탈
이라고는
▁어려웠다
보면서
▁전두환
송이
▁"'
병으로
여명이
끈한
▁돌이켜
▁의사결
▁남자들은
▁매운
▁클라
▁전략은
판의
▁대담
▁인물이다
▁잘생
▁비율을
▁선수는
▁코리아
▁해석이
▁새해
▁펼치고
▁꼬마
▁원하지
▁했고요
소개
▁고뇌
▁수급
▁1~2
아름
▁현직
▁부드러
기술을
▁오르고
▁얌
▁LH
▁고아
▁질문은
▁준다는
▁관계자
▁붙이고
▁지방자치단체
놈이
표의
▁구워
FC
마리
▁선뜻
▁아라
▁폭이
▁터였다
▁하라는
주신
스러울
▁물음에
▁있더라도
▁만났을
▁의미와
▁☞
▁언어로
저를
▁레드
▁소홀히
들하고
투자를
▁강하다
▁나왔어요
▁넘어가는
온은
▁앵커
▁질을
▁묻은
▁포지
▁어두워
선가
▁없네
▁되느냐
▁빠지게
▁못합니다
잡이
▁전지
ha
하자마자
체제의
▁범주
▁제게
▁보이게
▁쫙
▁끈질
▁우편
▁찍고
▁자료에
▁사람인
▁이러면
▁간절히
▁내용도
▁강구
▁영감
▁생각하십니까
▁종전
년간의
초의
▁먹여
▁나간다
92
▁추격
▁출장
▁내려온
▁벅
▁행동의
▁보더라도
▁둬
▁사월
meric
피는
▁태어났다
▁광경을
▁기관이
▁해결해야
▁유병
그거는
백화점
제이
▁시켰
▁혁명의
▁북한에서
▁접목
▁별이
근을
지거나
▁지나갔다
▁수동
▁위생
신한
▁담론
▁잉글
▁달라붙
▁다녔다
▁묻는다
▁한번도
시행
▁명도
▁양주
▁말하기를
▁규칙을
▁지원할
▁깎아
▁흔적을
up
기반
임의
▁먼지
책은
모니
▁잡기
▁불쌍한
▁없는지
▁파헤
▁광화
▁나와요
▁다르고
▁하나님께
절차
▁놀라게
▁홍준표
▁십팔
▁어쩐지
▁패널
미에
포의
▁의사의
▁당첨
조약
트롤
▁고모
▁포함해서
야의
족한
▁경제에
백이
▁말아요
▁갈래
운은
▁요양
이라면서
증으로
▁의무가
▁공간에서
▁지원하고
▁IB
▁드시
▁중점을
▁역동
▁혈관
퍼스
▁가전
▁기사는
▁실시하고
▁전하고
국내
니까네
▁파생
▁당대
▁십구
▁열이
▁로맨
▁아래서
▁괴로워
▁들으며
▁생각하니
뒀다
▁보았을
▁하늘과
ocial
▁여겼
트에서
▁있겠지
▁박원
▁가족은
개정
▁학력
▁훑어
▁우승을
▁엘리자
▁소유하고
▁해주세요
철의
▁간장
▁금전
▁착취
▁몰라서
▁개체
▁수단이
▁절도
▁비판하는
▁상정
▁公
▁계란
▁끝나지
술이
▁행위의
▁했다면
▁5,000
▁민중의
▁일인지
▁자녀의
▁정밀
▁극심한
▁목적에
▁수월
▁팽창
하고요
▁영혼이
▁군수
▁조롱
▁프라
▁하여야
▁해보고
행동
▁주워
▁거리는
▁목소리에
▁밝혔습니다
▁사회와
▁왕자
셨으면
▁생각만
▁햇빛
ournal
▁당했다
▁그에게는
▁88
▁권력이
▁모두의
▁향해서
▁기초를
▁글의
▁초보
≫,
티즌
급식
ner
▁하오
▁향하여
▁계획에
▁외부의
아우
▁눈과
▁뻔한
망의
▁지식인
▁다채
▁마십시오
안과
▁제기한
▁스펙
▁극복할
▁불에
▁가치와
막한
졌어
▁투쟁을
지역에서
지만은
▁산하
▁하수
▁규모를
▁시작이
▁단일화
▁산소
▁약탈
▁자신감이
▁이화
▁하에
▁자격을
▁허벅
▁몰락
▁번을
▁힘껏
▁다음달
▁다큐멘
하셨다
▁작업은
▁민족주의
▁사건과
▁부모님이
▁각국의
▁되므로
▁업무에
▁영장
▁현대차
▁700
▁포로
▁달리고
▁호흡을
이라기보다는
▁진동
▁연구개발
▁곤충
▁근접
▁아랑
73
는가를
라고요
▁싸우고
▁사람한테
브를
▁생활은
▁개나
▁플레
▁것까지
▁외국의
▁한결같이
▁벙
측이
터로
▁연루
69
▁이르면
▁청문회
▁연료
▁유가족
▁동물의
설에
티가
▁돌리
▁장기적으로
▁줌
개소
대한민
▁전력을
▁잠자
유지
▁변증
▁인건
▁태풍
▁감옥에
▁처리하는
▁하나님께서
받기
장치
회관
▁수요일
▁시절을
▁의도적으로
골이
출판사
▁시인은
레스테
▁인테
▁칭찬을
▁사용되고
▁정식으로
귀가
▁84
▁도피
▁장인
▁재미를
▁랭
▁유적
▁초고
▁역할에
▁진행될
▁대행
▁물결
▁그때의
하겠지만
남의
▁과다
▁수수께끼
▁친구와
▁가르치
▁신앙의
▁특성에
▁소개를
▁작품이다
▁필요성이
▁결단
▁그러네요
▁분주
▁졸업한
▁정황
▁수준이다
▁일쑤
▁찔러
▁결론이
hil
▁상류
▁변호사가
▁등장한다
변호
▁중국인
▁고시
▁허구
▁포함된다
사태
▁어딨
▁생겨난
▁숟
집어
▁피해자가
▁씻어
▁타입
▁너한테
▁유튜브
▁도시로
실록
전부터
▁뒤섞
▁있는데예
상인
▁중계
▁뒤에도
광을
안정
▁비만
▁기준은
줘서
▁애정
▁톡톡
▁학자
▁두어야
▁간다는
▁떠나고
▁달한다
▁전해졌다
혁은
▁전복
▁발생하고
▁풋
증과
▁강화를
▁올라와
▁볼을
▁거기다
▁1979
장에서는
군사
▁으흠
▁주게
▁사실입니다
▁부어
제도가
▁185
▁호칭
가도
▁서문
▁Cl
▁스님은
▁사인
▁자본의
▁누군가를
▁모스크바
오히려
데이터
▁국내에
▁제휴
금액
▁아인
▁밀가루
▁백성을
▁말았
▁소크라테
▁한인
▁달랐
▁하셔야
숨에
▁고안
▁무방
▁당나라
▁감기
가을
▁53
▁끼워
광이
▁박수를
▁수여
▁못하였다
▁산림
▁소년은
▁쳐다보고
드린
▁바닥을
▁보는데
▁갯
정권
▁약속한
▁종류가
▁as
▁나선다
▁문화는
▁그때마다
▁보답
▁햇살
▁은혜를
지니어
▁--
▁분당
▁지름
▁대를
▁회색
되므로
▁코미디
ram
▁민주통합당
▁둥근
▁오산
▁재혼
▁상품이
▁자라는
▁공손
▁구조적
▁배워야
▁기초한
간접
단체가
▁블록
하고네
꽃이
역할
아침에
▁그처럼
▁유능한
남이
▁복제
▁일탈
정보를
▁까닭에
▁예정이
▁형성하는
개에
▁속해
ric
▁김연
차고
▁표현하고
▁할아버지는
▁지난번에
하길
▁숨은
▁간략
▁망원
▁쓸모
▁이론이
팅을
잖습니까
▁국가에서
▁힘과
▁제출한
잖은
▁문학을
동원
▁대학이
▁제안했다
▁人
▁개화
▁des
▁또다른
▁없으나
▁클린턴
▁급속히
▁중학생
▁타이틀
▁남았다
▁아니면은
▁째
▁송도
▁덕에
카의
▁세게
었더니
경과
▁둔다
▁여객
▁최상의
▁대하여는
행의
▁권의
▁사양
▁관철
▁중시하는
▁국민들에게
▁경멸
항에
장애인
▁거주하는
▁이야기로
맞춤
▁상자
▁따지고
▁오바마
▁유언
▁미래가
▁민주당은
감히
▁부착
▁약물
▁진행이
▁자영업
▁폭력을
▁포함하여
▁말입니까
▁전성
회복
▁일인데
▁PD
▁받으면서
▁명예를
▁무겁
▁위대
▁폭풍
▁책임은
날의
▁딸은
▁인터뷰에서
▁넓혀
▁이경
▁싱글
▁원가
▁드립니다
실히
▁성령
▁의정
▁벌금
▁정이
▁키울
▁로마의
▁초기의
▁손가락으로
레스타
▁활동의
▁발전의
▁전망이
▁시피
보도록
▁연결된
▁휠
▁대다수
포럼
▁고래
▁황제가
우주
▁감행
▁스님이
▁허가를
94
▁추종
▁소득이
디의
org
▁Con
~10
만달러
▁학문적
▁자네는
▁파산
▁죽기
기간이
▁내세워
▁포르투
로와
▁굳은
▁지저
▁III
▁생생하게
)·
과거
▁않자
▁너머로
▁지지율
ᆞ고
갔을
▁수강
▁독립을
▁소설이
▁ex
▁정중
▁지침
은행이
▁다르다는
▁하더라고요
▁몸부
▁처리할
88
▁않거나
▁총리가
▁정유
▁플래
▁둘째는
▁장편
▁변화하는
▁UN
▁호박
▁기업들의
▁저에게
벽이
통상
▁시기의
▁님께서
▁스티븐
600
▁의류
▁그레이
사례
▁단숨에
▁안아
▁하네
내의
▁재구성
▁떨어진다
▁로드
______
▁망각
버린다
▁프로젝트를
▁동아리
▁존속
▁황교안
▁국세
투성이
▁작아
▁맡았다
▁사내의
▁얘기하면
An
▁법과
▁서로에게
▁국왕
▁되구요
▁과천
도르
▁백악
▁부분이다
▁수수료
▁강화하고
봐라
▁브랜드를
신앙
▁우습
▁엘리자베
튼을
▁무게를
▁상급
▁내수
▁애기
▁밀어붙
혹은
▁하셨다
▁당부했다
▁곤두
▁쇠퇴
▁때처럼
인식
▁떠돌
▁그곳은
▁근무하는
반응
▁삼일
▁오류
량과
▁따랐다
▁웬만한
▁지금까지의
군으로
▁찾는다
▁아니니까
순이
▁담을
▁새우
▁없을까
▁하고자
▁아닐까요
ke
아니야
▁새정치민주연합
센터는
▁찾아오는
헌법
▁커질
▁부는
반에
▁가뭄
▁저었다
sy
옥은
▁도약
▁셔츠
▁파라
▁그쳤다
▁삼았다
▁이러는
▁주제가
▁넘어갈
▁적용할
재료
▁평온
했음을
▁평안
▁노릇을
▁훤
▁고려하여
▁행렬
▁SNS
▁하늘로
교류
▁형을
▁색깔이
받는다
▁시민이
▁해봐야
있어
▁대나무
▁비하여
▁표현의
▁흐름이
올해
▁주시는
5000
▁접근할
▁쉼
▁크루
▁타락
쳤습니다
▁오시
▁공기를
▁받았을
▁아침부터
▁공개적으로
▁필연적으로
채의
▁국가적
▁고등학생
▁소리야
▁높다는
▁어디를
▁여간
▁휴가를
▁건물의
▁이룬다
▁작정
▁지녔
▁행사는
▁소비자가
▁덩어
▁운영에
▁뺀
▁동독
▁망명
▁연인
▁』
으음
▁영주
▁것이요
▁광복
▁하구
▁저녁을
▁화이트
▁없었는데
토리
▁창백
일지
▁싸늘
▁말씀하시
링을
그러고
해야지
▁다녀오
▁있었기에
▁변함
▁줄어든
▁흔들었다
▁도우
시의회
▁지금처럼
▁저쪽
▁De
▁내비
▁배경을
▁전라도
▁미쳐
계약을
▁모습도
▁하지요
코가
한번
론적인
사회가
▁신기한
▁업체가
▁자유가
▁인연을
▁강화하는
자다
▁가던
▁닿는
▁사주
▁충고
▁끊이지
말에
▁문제였다
노의
판은
▁기자들이
PC
▁대공
enti
▁민감
왔다는
▁가담
▁간행
▁룸
▁탄력
▁부작용
스에게
▁성향을
io
▁인물은
화도
▁떠오른
▁점심을
▁확보할
▁배포
남북
▁과거와
▁벌어질
▁된장
▁교훈을
▁병원으로
▁폭탄
위도
▁진열
▁퍼부
▁더는
▁겉으로
▁줍니다
▁못한다면
▁남기
▁빠지지
▁셔
▁결정한
▁공간으로
겹게
▁대부
erv
▁말씀해
▁특성이
▁감안하면
▁따를
▁즐거움
▁세이
▁목요일
sh
남도
▁재료를
▁영적
▁포트폴리오
▁기법
▁출마를
격에
▁석탄
▁드러낸
▁어조로
▁불태
대학원
▁것인지를
▁못했다는
▁보호하기
해지면서
▁흐름에
▁기울이고
▁중이었다
▁답이
마지막
됐을
▁산맥
▁아폴
▁이빨
▁간편
▁세계와
▁진행할
▁權
▁펑
▁실태
▁느껴진다
두면
무늬
▁당신과
▁인지도
▁합시다
▁남편에게
▁정시
▁쪼개
▁계속되고
▁쓸어
▁중점
▁낫다
▁대명
▁실증
▁십육
▁부여하는
▁가다가
6,
▁바르게
▁쭈
▁보물
▁콘서트
▁부양
▁기독교의
▁꼬박
▁시작하면서
▁원로
▁군은
사무소
▁극복하고
▁샵
▁최상
▁공부하고
▁오가는
▁체제가
▁펼쳤다
▁거부하는
르자
카를
협약
▁여름에
▁일그러
▁경기에서
▁지적이다
▁고지
▁하네요
▁생각해도
▁사설
▁필사
공제
▁벤치
▁성질을
오프
▁내려앉
▁중구
▁싸게
▁피워
▁듬
▁강사
▁여자에게
▁나름대로의
.......'
▁참지
▁엄마와
▁음모
▁치킨
▁떨어지지
▁하듯
▁지중
터에서
▁중복
▁대화의
▁이러고
▁인디언
▁함축
▁거침
소방
▁주민의
▁피하기
99
▁일상의
▁김선
▁지냈다
강은
애의
▁부인을
하우
사업은
▁들어도
▁모처럼
▁측에서
▁과감하게
▁깨고
▁숫자를
▁날개를
one
랑을
▁반영하는
▁있는가를
▁대입
▁평범
▁날에
▁묶여
▁받았다고
▁두들
▁하므로
▁데이터를
▁理
▁국방부
▁교부
▁향기
▁살펴보았다
▁달을
방법을
▁회의에서
▁비슷하다
▁디스
▁행사할
으로부터의
▁가축
▁안이
▁변했다
▁지나서
▁않겠느냐
가인
▁가평
▁왔고
도대체
▁돌아간
외의
▁막강한
▁자존심
▁하셨습니다
민과
테이
▁곱게
▁태국
▁시중
▁협의를
▁요건
▁토지를
▁2,000
건한
비서
▁72
▁씨에게
▁조선시대
▁CD
극을
▁강좌
▁감정에
▁피하고
처에
▁김민
▁악몽
▁구월
▁관람객
▁석사
▁여럿
▁벌여
▁열매
▁선거가
▁시각이
▁다윈
▁부흥
▁세트
▁순간적으로
▁하와
아무래도
며시
▁더운
▁멈추지
▁가리킨다
▁중요하다는
▁인연이
천원
▁고생을
▁내용이다
▁늘어났다
▁1%
▁라면
▁Man
▁의원과
▁일으켰
▁정해져
▁않겠다고
▁빛깔
ution
▁늪
으루
식에서
▁요구가
라와
▁손짓
▁사실도
봤는데
▁마찬가지이다
권에서
▁없었다고
학원
은요
▁표방
▁가루
▁거칠게
▁분별
▁토크
▁굉장한
▁태도에
▁필요하지
▁에피소
장하는
▁가깝게
▁순간이
▁향이
만하게
▁연기가
공사는
ternational
▁천사
방위
▁신중하게
▁실리
▁프랭
▁까닭은
▁일부분
▁j
▁51
▁개는
▁씁쓸
▁우리들이
▁신한
▁원조
▁자진
▁선한
▁시킨
그것은
▁항해
▁마셨다
갔던
▁울음을
▁박지
▁시계를
▁고구려의
져요
▁돌리는
▁가부장
▁모아서
서비스를
▁맹세
내를
째로
▁후유
잠을
▁굴복
▁미소가
▁비켜
▁새로이
▁아세요
▁누구보다도
],
▁일간
▁급격한
▁달렸다
▁주제는
▁요구한다
▁심부
▁내면의
▁다니던
▁잃었다
▁투명한
▁구리
▁흐느
▁삼월
▁사용된
▁일행은
▁정성을
▁글씨
▁마무
▁속성
▁파도
▁시각에서
▁유명하다
▁감축
▁감당할
▁ᄀ
▁국가대표
▁모르겠어
까봐
▁표본
▁부부의
▁일컬
▁헨리
▁있었으면
량으로
▁죽음은
▁면도
전형
▁공제
신용
▁십삼
자와의
겨레
▁과정의
▁질러
관계는
▁영향력
▁종로
▁1984
▁가르치고
걸이
▁로비
▁손은
▁성장할
▁도사
▁접근을
▁거리에서
▁사업으로
▁김유
당했다
일지도
뉴얼
▁형의
화시키는
미와
주체
▁맺은
▁사망한
▁하지는
그것이
▁신문의
▁인공지능
▁배분
▁됐다는
부자
▁신세
▁탐험
▁밝혀졌다
등에
▁꿈의
▁동계
관리를
▁개념의
안타
▁시절부터
음식
억달러
년으로
▁제기되고
그러면은
▁맞춰서
▁한시
▁위기가
▁포기할
▁작품으로
▁필요했다
▁할머니의
수단
▁놀랍게도
▁발전과
담에
▁박지원
2000
에르
모르
박사
▁깊고
티미터
▁국제적인
▁부디
거린다
▁마음먹
TE
▁난리
▁자리는
▁겹쳐
▁돌연
▁발해
▁어떤가
▁뜻대로
▁참가한
▁뜸
▁용기가
▁예상되는
만족
▁죄책
▁과거에는
▁방황
▁이십오
버는
안녕하세요
?.
▁나아갈
고속도로
▁답답한
name
▁경제성
▁연예인
▁이해와
위원장은
▁우려를
▁머리카락
▁행동하는
▁쿵
▁꼴이
▁창을
수화
▁90%
▁이혼을
▁해야만
▁돈의
▁종결
▁형성하고
ee
▁꿇고
보로
▁당혹
그리스
위원회에
▁부속
통한
레스테롤
곳을
란하게
▁무수한
▁변하고
▁원래의
▁장착
색은
▁생각하면서
급하게
카르
전에는
▁앞에는
▁종업원
▁현실이다
▁신진
▁증폭
▁진한
▁글쓰기
━━━━
▁신경이
더냐
▁크기가
▁향상을
▁자세하게
▁지낼
▁번갈아
▁정리하고
▁하였고
▁아니었지만
맞는
▁건넸
▁상상할
▁안되는
▁촉구했다
▁출제
렸어
▁과학의
▁봅시다
▁체제의
▁미친다
▁상사
▁행정부
▁위기의
무의
sch
▁세웠
▁여러분들이
▁오사
▁뛰쳐
▁옳지
▁어김없이
▁기름을
▁남다른
오자
▁곳의
▁나니
▁열중
이번에
▁넓고
▁지날
▁않는데
▁기껏
▁봉투
▁요구할
▁노부
▁좋았
▁현명
▁할게요
힘을
▁78
▁높을
정치적
▁영위
▁선물로
▁신체적
▁대응을
▁맞어
▁했으니까
▁우와
▁꽤나
청에서
기관에
다를
▁유로
▁끊고
▁되새
▁격렬한
▁받아들인
▁요인으로
▁오스트리아
▁열등
▁열릴
▁어렵다고
▁글에서
난을
▁전임
관들이
되지는
번이
▁공영
화하여
▁들어가기
외교
▁鄭
법칙
▁배후
▁겁이
지도록
▁백화
▁나요
▁부진
▁직결
들아
냅니다
마땅
▁무림
기억
▁Sp
▁당을
▁자기에게
▁낚시
▁직선
▁선택이
고로
▁96
▁구멍이
▁직원들은
▁이월
주년을
▁이전에는
꾼이
▁순종
▁푸는
저가
▁무신
▁견해가
▁160
▁조직에
▁거둘
▁기각
▁자손
▁주유
▁하고네
▁활동하는
▁意
▁쓰인
▁용역
▁짊
▁우상
▁위에는
▁또래
▁뭐니
▁Mar
▁멘토
▁천하
▁열악한
▁태평양
▁펼쳐진
tical
▁내정
▁이끈
▁그랬어
▁이십일
▁중부
▁경험은
▁전화로
러를
▁옷이
▁오해를
▁알아보고
▁빤
▁포털
▁논쟁을
머스
▁이석
▁청년이
과학기술
▁있으면서도
▁표지
ther
대왕
▁배낭
티아
▁잘난
▁교육감
▁대비해
▁운전을
하시오
▁귀여운
▁비용은
▁막힌
▁장기간
▁가이
▁나서고
▁한번은
▁영향력이
▁노래는
▁언어가
55
벌레
▁관중
▁서비스의
400
정책에
▁재미가
▁시와
▁얘가
▁정면
▁미루어
▁사장의
텐데
iti
▁사례는
▁우선적으로
▁동호
▁것들에
▁발자국
마일
적이거나
▁구도
▁만기
▁사라질
▁지상파
▁적극적
▁63
▁민주주의의
▁불신
▁비비
분히
▁상황이었다
▁거래가
▁논의는
▁사적인
▁준다고
▁않았으며
▁아담
▁공사가
▁르네상
▁동그
▁빨아
▁소양
▁일찌감치
▁작용하는
MA
동기
없어
▁제도는
▁환하게
▁엎드려
▁펴고
▁강아지
▁동북아
▁철학자
▁달성하기
▁있었거든요
공공
▁마산
▁발레
▁방식이다
매체
▁He
▁이기는
▁거부하고
▁포함하고
조한
시키면서
▁요청했다
▁서독
▁탐욕
▁통화를
▁밀집
▁파격
42
▁내던
▁오줌
▁넘어선
숙은
▁꼬리
▁낙동
옵소서
▁명백히
▁잘못한
▁조치가
▁하겠지만
▁추진해
▁진행한다
뿐인
▁헤겔
볼까요
여겨
▁지팡
▁천안함
▁박사가
▁살아있는
▁변모
▁살아가고
▁민족적
▁고통과
▁계기를
현상
▁자금이
▁2020
▁인정한
▁애썼
▁미세먼지
▁지역경제
▁머리는
▁保
▁포용
었다가
▁that
▁지평
춧가루
▁정책과
억원으로
▁프랜차이
논문
▁선수를
근까
▁깨달은
▁들어가야
▁져야
▁말하자
▁당면
▁이유다
▁부끄러운
훈은
아닙니다
▁무모
▁하나같이
학교를
▁유학생
▁있거든
이것은
▁어디선가
▁박상
▁할려고
▁시체
▁아르바이트
매김
▁놓지
▁아깝
질로
▁도끼
▁장애가
▁he
▁솟구
▁열매를
res
▁남게
▁비를
▁있는데도
▁자기들이
▁옮기는
오래
▁휘둘
▁논란을
▁Kore
어촌
경기도
▁않다면
▁적자
▁편히
안에서
▁될지도
▁칩
▁원씩
▁팔레스타
▁섣
▁타격
▁물러서
▁누군가의
▁발걸음을
만도
ild
▁비즈니
▁시도를
▁청주
저희가
▁해놓고
▁출신으로
▁앗
▁가며
▁김창
▁청탁
▁부르주아
▁솔로
내일
▁나치
▁도시에
▁박사님
새끼
▁돕기
▁막걸
▁주인의
PA
▁순간부터
▁뛰고
▁미성
▁유배
중공업
▁아이스크
▁입체
▁해운
▁영향으로
물인
▁경직
▁듯싶
▁불투
▁선제
어린이
▁바탕을
▁부족하다
)-
▁야채
▁절제
▁대통령에게
주시면
▁수원시
▁현실로
▁포르투갈
심리
▁곁에서
▁씨씨
▁나이는
▁작성한
▁전쟁에서
▁?
방과
▁돕고
▁1982
▁겪게
▁욕망의
성이라는
EA
700
▁청렴
▁노력해야
▁주입
▁세미나
▁최고위원
그머니
▁원인으로
▁사육
▁저것
▁다이아몬
▁헷
사업이
▁고마운
▁사업자
▁거치면서
▁장소에서
▁이례
▁청원
셨고
다고요
▁도로를
▁마을에서
▁요즘에는
▁비추
▁원자력
▁주의해야
교와
▁선거구
센터에서
▁it
▁외의
▁대부분을
죄를
▁겪어
▁엿볼
▁창간
지역을
▁됐죠
▁짓밟
▁CC
▁이토록
▁귀엽
해보자
▁놓으면
▁도시가
▁카카오톡
▁보태
▁군포
▁수혜
▁있은
▁승인을
▁겐
그네
▁고가
▁방이
▁유족
▁곳이었다
▁선수들의
▁아들에게
▁산악
▁빠져나가
▁배추
▁휴게
▁서늘
▁어어
▁원치
▁다섯째
▁마음속
▁대책이
▁부르며
▁흔들리는
▁왈
▁나와야
▁참고로
범은
▁수험생
▁광장
▁절벽
▁걸림
▁저승
▁무리한
▁사춘
으시면
▁확보하고
직접
▁브레이
▁그림자가
년에서
디자인
▁먹이를
▁시적
브로
작의
▁채취
순히
▁따위
▁브랜
▁약속했다
훈이
ock
▁백성들이
▁열거
▁상이한
전용
▁꾸짖
▁환기
▁지방에
▁나에
▁유학을
왔을
▁일선
▁도전을
▁후보와
▁수상한
▁다양하다
▁증가하는
▁위해서였다
▁개관
▁도매
▁삽입
비용을
▁자체도
▁농산물
▁정신은
▁평가했다
먼저
▁구단
▁신동
▁직장에서
▁선생님께서
거기서
▁이론의
보안
▁파일
▁없었어
▁상륙
▁열망
▁잡아당
▁관련되어
▁무대를
▁없나
밖에는
쳐야
사회는
층에서
▁예비후보
▁마련된
▁여의도
▁내려갔다
▁결혼할
해주세요
erson
iew
▁장치를
▁익혀
▁한바탕
▁전환을
▁공간의
▁보호하는
▁상황에서는
▁쥔
▁딱히
▁이시
▁네티즌
?’
주어
▁맡기
▁제사를
▁않고는
▁안되
▁사랑해
▁파스
▁수입이
▁Journal
▁순조
▁야단
▁손님을
▁여부는
▁달려갔다
창의
▁인류가
▁검토하고
▁수첩
▁강하고
▁제목을
▁부지런히
▁깔고
▁다각
▁오케스트
▁민영
▁진술을
었는데요
▁확대를
.(
▁흡연
▁장소가
▁쏟아지는
▁박종
곡이
끄럽게
유로
▁처리를
▁걸을
▁티켓
▁환자는
63
▁파주
▁필립
▁아이돌
시킨다는
▁랩
탕을
▁간판
▁내심
▁인생에서
硏究
삼촌
▁그것들은
▁새누리당은
긋한
▁AI
▁되던
규제
▁김부
▁손자
▁신제품
▁지지율이
▁팍
검토
▁켄
▁테고
어가는
▁공부할
합이
▁고르
▁반공
하리라
▁넘기
▁사단
▁들어있
▁자리매김
▁생각했는데
구조의
들이고
▁선정된
▁신용카드
함께
▁빠지고
▁신라의
설명
▁130
▁기피
▁생생한
▁키워드
감각
테인
▁Sh
갑자기
▁만남을
ization
태의
▁경이
▁기습
▁일이라
기인
▁버티고
시에는
▁횡령
▁기대하는
▁갈망
89
▁질적
어야지
▁모습과
▁풍경을
활동의
▁진행을
▁집안에
▁쟁점
67
▁강박
▁면허
팀을
inc
▁땀이
▁자유주의
PS
▁개미
▁홍성
▁군대가
▁생각해보면
덕을
▁거네
▁명명
▁물질이
고려
국회
▁이르고
▁친구에게
▁지닌다
작으로
▁말들이
▁보낸다
▁영광을
▁방향이
▁밤낮
▁이년
대회를
▁킬
물도
▁은하
▁정화
▁꾹
▁에디
▁그것과
▁크기의
▁남과
▁러브
능력이
▁모자라
▁동안이나
▁서재
▁오징
새누리
▁했다가
▁흡사
성공
▁반가운
▁이루기
▁혁명을
환자
▁직원을
계열
릿한
정비
▁해온
▁성도
▁던지고
▁드릴게요
▁협조를
PG
리안
하였지만
발전을
▁놈의
▁생기지
▁놀라서
▁동기를
▁일방적인
라운드
년경
수용
▁가설
▁청중
▁찰스
클리
▁가졌
▁항암
▁제품에
▁눈여겨
▁착공
공천
론하고
권력
▁동향
▁두산
▁덧붙여
▁영업을
▁판단에
▁골드
▁연쇄
▁취직
▁소개하는
▁맑고
나중에
▁용병
▁올라온
츠는
▁마크
▁체류
▁물과
▁인턴
린다고
▁사회과학
▁이해관계
키아
▁간첩
▁사료
▁참사
묘하게
▁개념에
▁손해배상
▁달했다
red
군데
▁일명
▁확보를
표준
▁박혀
▁임금의
責任
▁얼핏
▁의왕
▁느닷없이
▁속상
▁하더니
쿼터
>(
▁투덜
노래
▁시체를
▁보십시오
▁투자자
▁움직였다
쳤을
희망
▁공시
도서관
▁밖을
▁거군요
▁터무니
멘트
▁돼지고
▁예측할
▁티베
▁생기게
▁전국에
▁분석했다
노가
▁목포
▁영문
▁분담
▁입었다
범의
어른
▁피디
▁도와줄
▁욕심을
▁다원
▁경찰서
▁오후에
▁온몸이
▁천지
▁누군지
시설이
▁피하는
▁해줘야
절의
▁기능은
▁판결이
▁정신분석
▁성에
▁추리
▁수입을
헨티
▁도청
▁맘에
▁오천
들게
수출
▁감정은
tics
▁가졌던
▁끌어당
▁자신감
▁장군이
내에서
▁경제는
▁나이트
▁많았고
루에
▁모르지
▁택시를
▁힘차게
▁소작
▁여주
였지
▁공소
▁미스터
▁핵실험
▁서비스가
여보
▁보기로
▁부상을
어야만
▁해보자
▁사신
▁횡단
▁억울한
▁정보화
▁국민은
▁모델로
▁색다른
장이나
▁걸어갔다
▁7,
▁노동자의
▁조립
▁기록은
▁아시안
▁잠에서
▁정신없이
▁측에
퇴근
▁이대
문서
▁줄이기
▁사슴
▁ht
▁농부
▁슬픔을
▁키스
▁그분은
▁들어오고
감사합니다
▁얄
이동
▁돌려보
▁위해서라도
▁1978
물며
▁기여할
▁필요에
▁갔습니다
▁영화에서
▁근거한
▁네트워크를
▁성격에
▁신앙을
▁다가갔다
800
▁실시하는
콜릿
▁가파
▁기하
▁대학은
되었으나
▁상황으로
▁결정은
ans
▁이다
ication
▁수성
▁방법과
▁쏜
련한
▁말레이
▁이뤄진
▁천주교
▁들어오지
너의
▁씩씩
▁기본적
▁봉쇄
▁떨쳐
▁그걸로
▁전기를
▁의지와
이야기
▁고도의
심에서
▁조선에
▁사랑으로
▁민주주의를
양에
인들과
▁구석구
▁옛날에는
▁형용
▁실적을
▁배타
▁그만두고
▁반기
▁아랑곳
▁자본주의의
▁윤곽
▁이왕
▁괜찮을
▁리모델
▁주택을
▁비명
▁요구된다
▁주장하였다
▁하였습니다
부짖
▁조심해야
쳤고
▁보행
중소
▁바다로
▁1975
▁나타냈다
▁항일
▁가다듬
▁쥬
리거나
▁이론과
▁at
나무가
동네
▁파멸
민들이
▁찾아보
▁용산
▁황태
▁전문가가
▁탑승
▁황홀
▁교육과정
▁남겼
▁소문을
데스
▁지수
▁한밤
▁환호
▁말에서
▁수차례
▁김한
▁미네
▁연다
▁만나기
▁인식하는
석으로
▁스티브
▁전국에서
▁위상을
▁가능하다는
▁이렇게까지
▁혼돈
▁빼앗아
▁울리는
▁John
▁에프
▁파묻
▁바다가
질은
▁미국에서는
지검
치자
▁브루
로마
▁분비
▁오렌
맞게
됐으며
▁구호
▁참석했다
사법
▁흐트
았으나
▁대통령도
▁것인가에
▁수감
▁정동
FA
▁싫다
▁딛
▁꿈틀
▁현저
▁불고
는데예
▁시카
었지요
▁기록되어
▁새누리당이
▁대박
▁방송에
아저
▁픽
하잖아
▁것들도
▁당국
▁법원에
▁욕심이
월이
▁농구
▁닫고
▁물질을
품의
▁무척이나
▁【
▁어렵습니다
모두
▁연신
▁전격
▁언어는
▁울부짖
▁웃을
▁반대를
▁내놓았다
▁제품은
▁젤
▁좌파
▁생방송
▁은행에
▁제목이
▁선동
▁접할
▁판단하고
▁구멍을
▁돌아와서
▁아저씨는
▁따돌
▁업적을
▁앞에서는
▁오죽
▁제한된
▁없었다면
▁이론에
▁해석할
▁http
▁이래서
▁부분적으로
루만
클레
▁내장
▁반전
▁두꺼운
▁충동
▁충격적인
▁옷차
▁프롤
▁가급적
▁대대적인
▁터라
드라마
▁결정적
▁빵을
▁말하면서
ase
▁설레
하셨어요
▁규정하는
▁필수적인
97
뭐가
주자
▁지배를
▁때문이라는
▁중화
▁지르며
▁다니며
▁두려운
▁조직은
▁초기에는
▁나타낸
▁필자의
고추
▁그랬을
▁나눴
▁법규
나무를
▁했으니
61
~1
재와
▁사상이
문예
분과
▁포럼
▁바이러
▁분석하는
▁영업이익
▁곰곰
▁주권
▁술잔을
▁태어날
전하
ins
▁충실한
▁최강
▁밧
테르
▁성균
▁걱정하는
▁대회에서
▁고종
▁이현
거리면서
▁숲을
▁동영
▁참아
소이다
▁차관
▁아니었던
▁이동평균
▁전통적으로
▁움직이
▁노력했다
▁통합진보
▁뭣
분명
▁짚고
▁더이상
절에
▁더블
▁히트
셔가지고
▁싶었지만
62
나르
▁거로
되기를
▁바쁘게
▁고민하고
▁아이들도
마당
▁부조
▁구하기
▁어떡해
▁하자고
궁을
뒹굴
▁흰색
▁숨겨진
▁영수
▁저주
두지
▁궁극적인
백의
▁이성을
티에
해결
anc
-7
림과
▁여권
▁Res
▁주말에
▁특히나
▁지식은
▁여하
공사가
▁낳는
▁중견
▁방송이
오니
▁넘지
▁단단한
▁퍽
▁꾸미
▁데다가
독일
itt
▁흐른
렸다가
▁시대에는
그가
▁출신인
▁혹시나
▁역사에서
▁스캔
▁지게
▁헬렌
▁어딘가
▁문법
▁유비
▁확인이
노인
▁매혹
▁저러
▁공자
▁ᄂ
▁점진
▁동영상
▁읽었다
47
▁쓰면서
광주
보단
야는
학기
▁DNA
▁청와대가
▁가산
▁만찬
상태에
▁종합적으로
▁나게
▁괴물
▁오스
▁단계는
▁작게
▁일제의
▁비교하면
▁어디에도
▁아버지에게
▁DM
▁어디가
▁관련해서는
▁만들어지는
전략을
▁패스트
▁포함한다
린을
티의
▁식은
세계를
▁느꼈던
▁붙였다
일체
▁토착
▁第
▁57
▁중요시
▁다진
▁얼굴도
▁육체적
▁머물고
▁황급히
▁한해
테이너
▁들어가게
▁게을
▁교사의
▁수익률을
▁깜빡
▁합창
▁무시할
▁조건에
수술
키스탄
out
아니요
▁여겼다
▁넘어서는
▁지나면서
▁시민들은
▁신성한
▁지금껏
▁1983
▁해결책을
▁겨울에
▁서면
▁항소
▁갈릴
▁뜨겁게
▁명이나
▁문제라고
전통
▁물로
▁북핵
▁소련의
▁닉
▁꼭대
▁방송의
▁누구인가
▁농가
▁않고도
▁없거든요
에너지
▁혁신을
▁개념과
▁해석하는
▁#
베르크
▁반대의
▁일으키고
▁상대방에게
▁6,
▁플랜
겁니다
▁하남
▁놈들이
▁콜레스테롤
사원
▁서식
라이언
▁달러의
▁기울였다
▁들게
▁밝고
▁거리의
▁갈색
▁밝게
▁볼까
▁검찰의
▁공부에
ublic
▁인원
키가
▁하냐
▁넣으면
▁예비후
젠테이션
▁결론은
▁진단을
▁순위
다니며
전문가
▁신체의
▁최우수
▁하버드
업은
▁Ad
▁채찍
러시아
▁따르지
▁돈에
▁승부를
▁따스
▁판례
▁거잖아
▁마디로
▁못마땅
▁주차장
라지
▁이르케
▁반려
▁여지
▁이산
▁흥행
주간
▁마지
▁애착
웠을
▁Ex
▁남용
▁잔잔
▁독립된
▁실패로
▁효력을
▁존재한다는
▁십자
▁1968
▁다스리는
▁척추
다라고
▁전이
▁극대화
▁마련할
▁사교육
▁리처
CD
레타
▁예쁘게
▁반문
▁대표와
▁압수수
거리에
주의로
련이
row
▁오브
▁재편
품으로
인물
▁십여
만원의
제도는
현장
▁고의
▁이슈가
경비
볼게요
▁가면은
▁임진왜
▁친구들을
▁교사는
關係
▁인프
▁세워진
이치
▁Al
여대
▁농장
▁sh
▁분기
▁손꼽
▁칭기
▁진출을
▁정돈
▁되거나
▁무기력
▁정보와
▁충분하다
▁이차
▁3~4
▁감각이
▁잔인한
▁텃
▁보던
▁화제를
내서
▁가져오
▁길거리
▁당대의
▁충실히
혼자
▁석방
우스의
▁얕
▁소를
▁마음가
▁새마을
▁애정을
▁냉전
▁서는
▁의의
해주었다
▁시간입니다
남은
▁되살아
▁고성
▁지음
▁찾게
느냐는
▁보건복지
~7
▁몰랐던
▁의원에
▁냉동
▁끝없는
▁대응하는
▁있었을까
▁무자
▁Rev
▁특성상
▁회의가
▁한국인의
▁했잖아
심판
▁행태
보이
▁공감을
▁환경과
자로서의
▁조사됐다
▁한반도의
▁바뀌어
▁정체를
▁형식의
▁견지
▁길어
▁미시
▁예전의
▁모형
▁62
▁관통
▁마련하고
▁사용했다
▁아이디어가
발생
불리
▁고정관념
▁전문가들이
유산
▁단연
▁만족할
▁팀은
기능을
콘텐츠
▁쳐들어
▁부분들을
▁곁을
▁질의
▁표상
▁세력의
▁주체의
▁나열
▁경험에
▁경쟁력이
▁의구
▁수사에
▁원칙이
▁추억을
▁치안
▁호위
하시죠
▁지켜보는
회사에
▁높다고
▁그릴
자리에서
세트
▁드러났
▁가정이
▁욕구가
▁모델이
▁소통을
▁강력히
ise
▁대표로
▁보자면
▁사람들에게는
▁상이
▁토해
▁다름없
지시
▁공동의
que
▁따르고
ite
▁이소
▁어둠이
암은
▁낮에
▁피력
▁2018
▁들릴
▁피는
에까지
▁그렇구나
▁탈당
방안을
▁빠르고
▁사연을
▁유럽에서
▁비워
▁회담을
▁여길
▁주전
▁나자
대회에서
▁맞추고
▁어찌나
점도
▁가능성에
▁이때부터
▁기증
▁단원
▁방과
해졌
▁천도
▁받아들였다
▁케네
▁불교의
▁비중은
▁내주
▁셈이었다
기소
▁점과
공화국
▁생각의
▁성인이
41
대리
▁아산
▁부분으로
원장
했나
▁수레
시다시피
▁보강
▁전전
웠지만
정책은
▁대왕
▁엑스
환경을
▁극도로
▁이재명
▁저질렀
▁좋을까
▁때문에음
사장
▁시킬
▁법무부
▁움켜쥐
▁장비를
▁규율
▁캄캄
엄한
▁6·
▁십칠
▁받기도
▁완성된
▁기다려야
▁어쨌거나
▁有
▁상하이
▁조선인
▁했을까
마침
▁철학의
▁봤던
▁구성하고
▁부정하는
스팅
카가
▁타서
▁규정한
▁되었지만
공개
▁뽑는
▁과정과
이크
▁둥글
▁피우
▁차지한
▁나에게는
▁적용된다
▁주장이다
▁아트
▁장담
▁위안부
너희
▁대마
▁항구
▁됐으면
남자
옥의
▁특권
놓으면
▁걸세
▁군중
▁문학은
▁어머니에게
▁구성을
▁살폈다
▁잘못이
▁표정은
▁진흥
▁마리를
▁전투를
▁여동생
▁결정된다
▁무시하는
▁연설을
▁급식
▁북경
▁야만
▁구조는
▁다국적
▁주민등록
▁얇은
▁보도했다
OC
▁남동
▁유방
▁가게를
▁뜻밖의
놓지
▁97
▁ac
▁산정
▁무엇인지를
▁강아
▁연관이
해주신
▁쏙
▁많았던
▁정도이다
▁뻔했다
▁시신을
▁민망
▁부리는
▁들어오면
▁발생하지
배에
▁남았
▁매진
▁파급
▁휴양
▁시키고
.......”
▁유목
▁장거리
▁총무
과대학
▁호응을
▁발견하게
얼굴
▁박힌
▁살다가
▁영역이
▁통하지
▁피드
▁뤼
기간을
▁끌었다
▁좋겠어
▁실천하는
▁감았다
주차
▁원주
▁개혁의
▁동작을
▁개발하는
▁이치
▁가치에
▁부러워
▁막론하고
건대
고와
▁배척
▁외래
▁일월
왔지만
웃음을
▁것이기도
▁철강
▁위해서다
▁확보하는
▁모셨습니다
DI
내면
▁다릅니다
▁수익이
▁조정을
철에
▁열차
또는생
▁길에서
▁론
▁백지
▁경기에
▁죽으면
∼19
▁나비
▁근심
▁학급
▁활기
다녔다
민들의
▁찾아오
▁겁을
▁근육이
▁있는지도
▁바랄
▁실체를
▁조속
▁여론을
시경
▁좌익
▁시작됐다
대비
▁살리는
▁않으니
▁자리로
▁아기가
▁위함
▁나오셨습니다
토지
▁시세
▁개발이
▁은행의
▁정당이
▁저리
▁공산당
▁사고는
▁아프게
▁요구한
▁아인슈타
▁개신
▁친근
▁가지지
▁호기심을
▁잇따
▁경우이다
▁~
물고
책에
회사를
▁장애를
장수
▁잃을
▁종교를
▁수주
▁판매를
▁누구에게나
▁자사
있던
짐이
▁먹었
▁하천
▁걸쳐서
▁요소는
▁NC
▁양평
▁하야
▁Americ
하겠
가지를
인데예
▁벗어나는
▁좋겠다는
▁고고
연합회
▁가정에
▁서울을
발한
▁대추
보상
코스
▁대접을
▁밟고
▁왕을
▁녀석의
▁극복하기
▁변호사는
▁방안이
▁비핵화
▁포기하는
evel
43
▁무릅
▁최종적으로
▁1948
죄의
▁쪽의
저나
▁배어
▁불의
협상
▁단군
▁신발을
▁카리스
▁터뜨렸다
▁화요일
▁비행기를
▁성형
다는데
▁학문을
통은
▁뉴스가
▁지원해
보이는
▁남자에게
▁창피
▁조합원
문화재
▁작용할
승이
93
▁투자할
AT
▁명료
▁주행
▁작전을
▁지나는
아동
▁부가가치
▁선수들은
▁주도권을
▁평가하고
콜라
글쎄요
▁김형
▁무관심
▁자라고
▁시원하게
▁전차
▁고려하지
학교육
▁금액이
▁긴장이
▁무시무
▁맏
▁대는
문화가
▁어떨까요
있을
▁악을
여명의
▁문학이
▁주시고
▁알려주는
재해
히면
▁비는
점이다
▁당에
▁동포
▁어리둥
▁원고를
▁인근에
▁나오면서
▁그려진
▁눈부신
▁뒤흔
▁빅토
▁오르내
▁현상에
걱정
못해
▁Or
▁터트
▁미안한
▁캠페인
▁심사를
▁집단이
▁떠올렸다
la
년생
커뮤니
▁맡기고
▁마음속으로
협동
움으로
행위에
▁배웠다
sp
캠프
▁선입
▁계산을
▁기관의
▁매출을
▁확신이
긴이
▁스프
▁차량을
▁앤드
▁크다고
▁유물
▁손에서
▁있으신
▁민사
▁앞당
▁이식
▁유심히
▁인력을
▁퍼센트가
있습니다
▁김에
▁도리가
▁신념을
▁침묵을
배의
▁전한다
맛을
▁빚어
iam
▁증인
▁정치ᆞ
디를
▁사람만
코리아
기는커녕
▁때까지는
▁원수
리스는
▁바꿔야
▁소개했다
▁알려지지
▁법칙을
▁불가피한
전선
▁도움으로
▁넘나
▁기자는
▁끝나자
▁드시는
▁어마어마한
급여
▁최적
▁상태는
▁종이를
▁비판하고
상가
▁있니
▁제목의
▁미혼
▁정상에
▁선천
▁이마에
▁일체의
▁쌓은
▁기억은
▁트리
▁않기로
▁의원도
▁나만의
▁도요타
▁다카
공부
나리
▁얽매
▁에서
▁젖을
▁구원을
▁것이야
▁성령의
▁땅은
▁맺는
▁상상력을
▁십만
▁흘렀
96
ife
▁줄었다
채널
▁사상은
웃음
▁발전이
▁의식은
▁엄마한테
더는
▁넘긴
▁이도
▁빨래
▁이번이
▁지사는
매출
▁받으
▁사격
▁손질
▁신탁
▁클로
▁헷갈
스트는
▁간접적으로
▁갖기
▁링컨
▁내게는
▁아들과
▁폭넓은
장군
▁생계
▁갈등과
▁결정한다
너가
학교에
▁내쉬었다
▁밤의
▁서랍
▁가져왔다
▁건전
▁능가
▁입국
이다가
▁확인했다
▁기반이
▁태양이
▁탁자
여행을
▁아르헨티
ruc
▁스스로에게
▁배경이
▁눈빛으로
▁마이너스
효과가
▁삶에서
ECD
▁게이트
▁맞추는
▁세대의
▁차세대
▁초콜릿
▁구조조정
드니
▁도리
▁든지
▁절차가
▁거기다가
▁금메달을
ree
▁거룩한
▁시설이
▁도울
▁트랙
▁너에게
▁자산을
▁엄격하게
BA
▁확률
▁획일
▁단순하게
과연
▁년의
▁드는데
▁언론은
▁주기도
대륙
▁적힌
▁제반
▁매출액
▁자에게
▁1981
▁제외하면
▁헤이
▁일시적으로
rou
▁비참한
▁욕망이
창출
▁재차
센티브
▁설립된
▁애들은
▁운명이
▁사실로
▁김윤
창업
프스키
to
▁처지에
▁병사들이
▁잉글랜드
▁공룡
▁박태
▁차근
▁생각에는
▁주도하는
▁시위를
▁증상을
통치
▁키운
▁속성을
▁사사
▁위엄
▁공기업
▁세대가
▁낫지
▁그러게요
▁걸리지
박물
병과
▁고향을
▁그대의
▁막연한
▁국토교통
▁보였
▁늘어났
▁받았는데
라기보다는
▁고을
▁배반
별로는
▁귀속
▁눈빛이
▁유력한
▁벌써부터
▁뜻에
▁가치의
▁기회는
▁꼬집
▁주춤
▁박원순
▁양식을
▁리얼리즘
오르
▁무얼
▁야당의
▁희미한
▁김씨는
▁예예예
▁대변인은
▁말씀하시는
▁들기
아가지고
▁있으리라
▁유보
▁대회를
검은
▁모차
균이
▁남해
▁발탁
▁구조의
▁뒤따라
▁외국어
▁직업이
▁희망의
▁"...
▁터질
▁논리가
▁언니는
85
▁해결될
▁확보하기
▁아껴
▁해변
▁신분을
▁믿기
▁인명
▁아님을
▁정치는
▁서슴
▁구조와
▁뿐이지
리히
옥이
▁모임을
▁지독한
▁뇌의
▁두근
지니
결과를
▁입구에
▁공장에서
▁내뿜
▁연일
▁사랑할
▁메시지가
▁저가
월드컵
▁제시한다
▁하나님과
▁못하기
▁자살을
▁쾌락
▁쓰인다
▁개발하고
▁삼을
▁발길을
▁공통된
▁대강
▁애는
▁적에
▁마시면
▁도시에서
▁사용하면
부상
▁김명
▁두면
▁등기
▁푸르
스럽게도
▁되잖아
▁조그마한
▁해당된다
▁말았습니다
옮긴이
▁1972
▁노동의
▁그중에
▁사용된다
▁밝혀진
▁일시적인
▁무수
▁불문
▁유진
투어
▁이미지는
복은
파리
▁안도
문학과
▁역으로
씨에게
▁멋지게
▁않아야
▁독도
▁정을
▁우체
출산
▁적당
▁만들면
▁온몸을
▁댄스
정에서
▁나이로
▁독자의
▁기업으로
▁성향이
▁선생님을
▁비주
▁줄어들고
▁것이어서
화장
소리는
▁그대는
이었을까
▁젊은이들이
▁딜레
▁자연에
▁정당의
▁작품에서
▁울었다
평양
규는
▁맡게
▁주가는
▁즈
▁찍는
▁연결되는
▁남는다
▁상대는
▁단언
▁110
봉이
▁사치
▁집도
▁경북도
▁1973
▁카지노
▁시스템의
▁무궁
▁그룹의
▁춘천
▁주고받
예방
▁김준
▁미륵
▁승낙
스트의
▁휴대전화
▁효과적이다
ml
▁개조
▁드레
▁칼슘
▁돈과
▁득점
▁얘기죠
▁올라간
▁어처
▁건강이
다의
▁당연하다
▁울어
▁무리를
▁부분의
청과
군에게
▁무책임
▁확인됐다
▁사뭇
소설의
▁노리는
▁담당하고
▁수질
▁평화의
▁벚
▁자처
▁장모
▁되는데네
뱅크
▁호전
▁내려놓고
▁묵은
▁뿜어
▁노력과
▁염색
▁불편을
▁그리스도교
로우
▁김문
▁수녀
▁엉망
▁이쯤
하하하
▁그럴까
▁김승
▁결부
▁협동조합
학적으로
그의
부동산
젊은
작업을
▁공약을
OS
▁예술적
▁각국
거니
▁메인
▁하기에
▁데로
▁세제
한국의
▁위조
▁원짜리
▁황당한
▁6)
▁팀장
▁사무실에
▁얼마만큼
▁롱
▁보였던
▁대형마트
▁국수
끄러미
▁마쳤다
▁거니
▁주인을
▁컨트롤
▁주머니에
ys
대행
▁거실
▁이면
▁음식은
진영
여기에
▁되는가
활한
▁치른
▁나아가는
▁필요하고
DA
▁광해
▁잡아야
▁창의적인
예정
▁뒤돌아
잡고
▁가닥
▁정경
▁xxx
▁정세
▁앞세워
자니
▁필름
▁경영을
▁약점을
▁바람직하지
▁사실이지만
'.
두로
조심
부한
히기
▁숙여
쾌하게
▁교육부
▁보이기도
▁구분할
ank
~15
▁No
▁요소로
들입니다
▁보장하는
▁데려가
▁맴돌
▁연구에서
▁복무
▁현수
▁거리로
▁이하로
▁경성
▁국산
▁가려고
▁받았다는
▁노동자들의
정원
▁독려
▁건설을
▁누구인지
▁어린이집
▁좋죠
연수
▁힘들었다
6%
▁1.5
▁신학적
▁최소화
▁정상적으로
▁나야
▁낙엽
▁충전
▁당황한
▁1940
▁사실이었다
▁부총
경찰서
▁말로는
▁있고예
이닝
▁대서
▁십년
▁오던
▁정말이지
▁진행됐다
장비
▁살리
론에서
▁제한을
▁가까스로
▁덮고
▁박스
드에서
▁부끄러워
위원회에서
▁잦은
▁쳐다보며
▁생각이었다
▁해임
▁나뭇잎
▁웅크
▁직관
▁이자를
▁노력으로
▁들려오는
▁생산을
▁홍수
▁상대적
차근
▁솜씨
▁미국인
트랙
▁일생
▁직원의
▁마찰
▁수컷
▁이상과
일지라도
▁읽으면서
▁스폰
▁오라고
▁감면
교육과
▁소박한
브랜드
▁그랬죠
▁열쇠를
▁있더라고요
▁주상
▁천문
▁140
▁사진은
▁살면
향의
▁챙기
▁한도
▁지난주
▁포기한
▁콜라
산화탄
▁출발한
▁하더라고
▁깍
▁콘크
▁땅으로
▁바나
▁많으면
▁한국어
▁보죠
▁와서는
메리
▁꼼꼼하게
강에
경원
▁멀지
▁알을
▁같지는
▁없이도
iel
▁법적인
▁전망을
▁크다는
▁떨었다
▁보험료
▁통합을
하지요
▁초점이
▁갑작스런
념이
▁벌레
▁그렇습니까
▁달빛
▁분야는
▁숙이고
뿐이
▁터득
이었지
▁기쁘게
▁오늘에
▁노숙
▁생각지
엘은
▁대여
▁익은
▁이십사
▁쟤
▁사교
▁길이다
▁민주당의
▁있었는데요
세상
지하
▁마스크
거려
▁놀아
▁사항이
▁살리기
▁기억하는
왔다고
▁내세운
▁입각한
▁십사
▁소재를
▁과학적인
▁것들이다
▁적용하는
▁생각되는
암의
▁외무
▁해줬
개월간
▁물음
▁발전할
▁의미도
농협
▁조사해
▁덜어
▁식별
▁헤엄
▁제시된
▁잿
양식
▁발병
▁그분의
팀의
▁자들은
▁투자의
▁수줍
▁쌀을
▁세계화
▁누굴
▁기초가
지역으로
▁다가올
▁둘을
▁비친
우리의
▁생계를
어주었다
▁해달라고
티비
▁사투
▁순례
▁민족이
▁출자
▁일본으로
yn
무진
부채
▁말씀드릴
▁좋아했다
▁껍질을
▁다뤄
▁세례
머리가
▁죽음과
▁백성들의
▁부동산을
둘이
▁빈틈
▁미묘한
▁유익한
▁투표를
▁문제들이
▁생각했습니다
소연
▁살아서
▁낳을
이시
회로
▁문제점이
▁저와
▁후쿠
▁최우선
▁포스트모
▁장난감
▁가능하다고
대응
도상
▁내면서
기로는
▁되돌려
▁본회의
▁주축
▁휘말
▁나라와
▁못했기
들어가
▁인식은
▁투자에
▁사로잡혀
▁의사결정
▁만족을
▁제로
▁반영한
▁분위기에
▁사회에서는
ᆞ정
담보
▁3,000
아와
▁결단을
▁나라로
▁토마토
▁썬
▁경로
▁시흥
▁리더십을
▁희망하는
역과
원한
▁작별
▁재산이
▁이야기해
표에
▁발목을
▁사고와
▁치료가
▁합작
플레이션
▁그리스도를
pro
▁기업가
▁감격
▁하겠
▁미치고
▁소개한
사정
▁김주
▁치즈
있었다
제국의
▁지니는
~!
▁통용
▁폴리
제품을
▁갔어요
▁떠올랐
▁후보에
▁시선으로
▁영향은
▁논리적으로
▁고객은
▁어젯밤
▁69
지라
▁각인
▁누리고
▁되려면
사관
▁밝힐
다가도
▁나쁘지
▁불안을
▁세련된
▁너와
▁효력이
▁지적한다
차도
했는가
▁느껴질
지상
창이
▁뺨을
▁더한
▁자행
▁중추
▁논쟁이
▁해주었다
글로벌
▁여부가
▁하늘은
▁인터넷에
진해
▁바람은
▁컷
디스
▁공간은
▁상상도
▁부유한
▁가능하면
▁가리고
▁프랜차이즈
떨어진
▁대상의
▁한중
▁허공
▁면에서는
학위
▁실질적
▁일이고
▁진실한
▁병력을
▁지금이
▁건드
▁정체성
맥을
시장과
▁일찍부터
▁생을
▁토벌
▁거두고
▁기르는
▁쿨
▁검사가
▁나니까
▁정보에
▁부드럽고
념을
백여
▁최선
▁인간적
▁학문의
▁선구
▁천하의
▁최고경영
NG
예가
타로
▁향유
▁포스터
▁수용할
▁삼키
상황을
스트가
▁납니다
iness
볼까
▁가신
▁과감히
▁뭐든
▁아까도
▁의심할
▁문학과
▁달라지는
틀랜드
▁과제로
▁과외
▁캠핑
마르
제조
함도
▁비둘
▁우위를
▁가져오는
▁들어보겠습니다
▁철폐
▁거울을
▁보기도
▁봤더니
▁방송에서
▁도주
▁가격으로
▁상황인데
▁명씩
▁쉽사리
▁의원들은
번호를
▁홈페이
▁고민하는
초는
▁94
▁단말
▁말씀드렸
대신
▁늘리는
▁수양
▁제공한
▁인센티브
▁칙
▁공격하는
▁그동안에
▁ww
▁종사하는
▁노력하겠다
▁상황에서도
프와
▁년도
▁다할
▁든든한
▁신세계
▁화면을
▁확대해
토벤
▁밴드
▁실장
▁성격과
▁전통의
텔레콤
▁댐
▁꼽힌다
▁박사의
▁구한
▁박은
▁www
▁어루만
▁좋아할
▁수로
▁정주
▁한달
그거를
▁소년이
▁숨기고
학에서
ater
▁느낌이었다
▁에릭
▁웬일
▁안쪽
▁컬러
▁죽어도
잘못
▁밤에는
▁성장한
송을
어이
▁외로운
▁주장할
▁차이로
▁엉덩이를
▁le
▁연재
느니라
▁아무렇지도
열의
전환
▁국비
▁모친
▁섹스
▁Fran
▁난처
▁심정을
▁아이러니
나라가
▁논증
▁점에서는
데네
▁들면서
▁보잘
▁한류
▁기대에
▁남쪽으로
병대
ool
▁적다
▁갈등의
▁지도자가
라고는
cl
염을
▁드림
거리로
▁은유
▁소개하고
▁학자들은
▁만큼의
그렇지만
사업으로
▁해치
▁했나
▁정서적
▁육박
▁동성애
▁피라미
명도
전체
▁무당
베리아
▁뚜껑을
▁숯
승은
▁잠든
▁책정
▁하마
시키면
▁남학생
▁물끄러미
ES
규정
측에
▁분노가
▁사람이라는
▁상용
▁터진
아메리카
▁급변
▁순전히
▁싶었는데
▁가문의
밭을
▁가두
▁양복
▁하루도
▁가리키며
점유
▁업그
▁불안해
▁반복되는
종에
▁관내
▁장면은
▁고려한
하느냐에
▁선언했다
▁위협하는
▁생각한다면
▁한탄
시리즈
▁언제든
▁돌아보았다
하야
▁면모를
▁뭘까요
▁세일즈맨
▁김혜
▁진실로
▁목소리도
▁팔려
▁화랑
▁방대한
▁마련하는
덕이
▁거쳐야
▁동기가
▁소지가
북부
하셔서
었잖아요
크와
▁말끔
▁일조
▁특집
▁판문
▁단번에
▁반은
▁넥센
▁매춘
▁희생을
▁모로
▁방출
▁구원의
▁1910
소재
fer
▁왕국
▁적용될
▁총선에서
▁아빠의
▁지역주민
바꿈
▁되길
▁사위
▁입양
년이나
▁귀결
▁소녀는
▁음그래서
암이
▁일꾼
▁보았습니다
▁이상인
▁Comp
문헌
▁소액
ress
▁강간
▁쳐서
▁헤쳐
▁가리켜
▁접촉을
3%
▁조율
경제를
▁매뉴얼
▁민주적
▁우선은
▁올라오는
▁장만
▁줬다
▁간직하고
명이다
상태를
▁시에서
▁정당화
▁비치
이거든요
범을
▁기간은
▁직장인
▁성공하는
ren
▁주를
▁커져
과정에
▁사태에
!」
히며
▁쉬워
▁유세
억원에
▁분야가
▁무대에서
▁풍자
옵니까
▁빽
키의
▁바는
▁관리에
▁어깨가
▁영국에서
코드
▁곳에서는
다양
▁○)
문화적
▁때쯤
▁목표에
▁의미에
▁아니거든요
▁있으니까요
▁당귀
천만원
▁노리고
▁상세히
der
▁77
▁총회
▁험한
▁공동체를
▁몽땅
▁최다
정책이
▁곤란한
▁준비해야
▁장소로
▁낮춰
▁김종인
▁편리한
▁92
편에서
▁상당수
위원장이
취가
ick
▁면적
▁삼위
▁무의미
▁계속되었다
왔어요
▁(0
▁배설
▁높아질
▁둘이서
▁운명의
▁여러가지
▁주었습니다
족은
▁무렵에
▁콘텐츠를
행위가
▁이세
성하게
▁차량이
▁모으는
처는
▁니까
▁부럽
그룹의
▁경우의
▁동남아
▁의심이
▁이곳의
▁했는데네
▁※
▁변할
▁산은
나저나
▁분들을
▁투자한
▁아리스토텔레
▁`
받아야
▁경우엔
▁지적도
▁할리우
삼아
▁급등
▁원칙은
비행
▁위치가
▁사무실을
필을
▁Pl
▁그때도
▁깨닫지
네트워크
엄청
척이
▁아비
▁119
▁느낌은
▁가로질러
▁숱한
▁죄의
▁버려야
▁성질이
일러
▁펼칠
▁노동을
들에겐
▁(6)
▁금리가
▁혼동
명에게
▁죽는다
시스템을
▁공급하는
▁액션
▁그려져
▁리더가
▁서울대학교
수아
▁말린
▁대화는
▁가깝다
▁검토해
▁아니한
▁효과도
▁드렸
▁경유
▁친밀
령으로
스럽지
▁소상공
▁교원
▁행한
▁민간인
▁선언을
년여
▁초반에
58
▁마땅한
▁주식의
▁사람마다
허허
▁얽혀
▁성격은
▁신속한
▁제기된
▁오버
버리면
▁같으니
▁누군가에게
▁로켓
▁엄마도
▁복잡하게
풍의
▁배의
그렇다
▁고함을
▁고향에
▁외국에
▁아파트에
이해
▁실컷
▁단호하게
▁썼던
▁전액
▁지점에서
각은
▁원하고
ink
▁그대가
▁연구하고
▁깊어
▁제네
모습을
인가를
▁범행을
트릭
▁경전
▁고심
▁지갑
▁학대
▁기회로
▁뜨겁
▁살의
▁조영
▁구입할
▁잃는
▁이용하고
ome
▁자랐
▁상징적
▁영감을
▁제목으로
▁주고받는
▁움츠
▁해결이
▁흘리고
누스
품은
▁체중
하구나
▁예수는
▁추상적인
부여
▁최일
궁의
▁열세
▁길이가
▁남아있는
부정
승의
우에
인용
▁만세
▁보다가
ale
▁Ro
중략
▁기억할
▁흔들며
▁슬그머니
▁텔레비전을
▁까지
▁포천
▁공천을
▁이때는
▁천하를
▁헤드
노라고
▁말이나
▁공론
▁농산
▁통증
▁지정된
비즈
▁89
▁광고가
▁부끄럽
▁지분을
▁실제적인
ash
▁인간으로
▁변질
▁뻔뻔
리기도
▁마음에서
한텐
▁협회
▁시점이
▁오늘이
▁(『
▁드린
▁憲裁
▁권력에
▁보내야
▁채우고
보조
▁더럽
▁읽지
▁씻고
▁방침을
▁않고서는
▁차근차근
마른
▁동학
▁형벌
▁구분이
▁소금을
▁일이나
▁하우스
▁개도
▁천황
▁비판의
▁재능이
ative
대학의
▁선수의
▁예정된
▁피부가
▁형태는
▁적법
▁된다라고
▁청사
프랑스
▁아테네
▁차원이
▁앞에서도
죄로
센티미터
▁사유가
강화
패가
ler
▁거네요
▁커졌다
포는
▁임의
▁간호사
▁없거나
▁소비자들이
▁불황
▁다하는
▁성폭행
▁원한다
▁주목된다
▁비박
▁수요를
▁코스닥
▁눈높
▁형편이
▁품목
▁흐뭇
▁거쳐서
▁음악에
ᆞ소
분도
▁산골
▁몬스터
▁접근하는
회사는
▁광고는
▁KIA
▁유지를
▁견인
▁랜드
▁함을
▁지위에
▁사람보다
▁의존하는
▁전경
▁직원은
▁사람인데
▁카를
▁모이는
선진
세서
▁내몰
▁두터
▁여전
밭에
▁빠지
▁말해야
▁1974
▁대한항공
마치
융합
▁무식
▁아슬
깨비
하리
▁신상
▁실마
▁재임
▁보여요
conom
▁결집
열은
▁문체
▁사기를
▁소식은
▁소중히
▁켈
민족의
ound
▁말고도
사다
▁더할
▁헤르
▁질주
▁학생과
▁화산
▁따른다
▁예상치
▁오래도록
▁형성되어
학규
▁둘의
▁복구
▁감이
▁추론
아이를
▁국민에
▁않나요
▁무단
▁이긴
싸움
▁(1
▁삼은
▁얽힌
▁지형
▁다르기
▁듣는다
▁1946
▁나로서는
일부
푸드
▁아님
▁괜찮다
▁조건은
경남
알이
나간
▁놀이를
▁솔직한
위권
▁출국
▁이름과
▁세상에는
▁고루
야마
▁청년은
▁샀다
▁환한
▁황폐
관도
정신을
▁말부터
▁줄줄이
enn
소리에
▁먹으면서
▁업고
▁전달할
▁산물
▁치를
▁허브
시설의
▁건축물
▁여건이
▁있다며
▁화면에
정지
▁공포에
교육청은
곳이
막에
▁팔이
▁견해는
▁구석에
▁새겨진
▁의견에
▁저자의
▁작용하고
오년
▁도구로
▁이득을
▁IC
▁썰어
▁매듭
▁성장하는
......」
▁단어는
시키려고
▁공유하고
go
▁귤
바른
▁권장
▁껌
라기
▁입술이
▁일한
▁이성의
▁차례에
▁공유하는
▁수행하고
▁시각으로
▁일산
▁회화
▁매력이
▁획기적인
면허
-20
▁봄에
▁위계
▁나아가서
▁상대에게
▁사회로
▁피부에
▁피식
대원
례로
활동이
▁차에서
분별
▁동질
▁뛰었다
▁인사가
▁할수록
새는
커스
▁버리면
▁앞서서
▁손익
시간은
▁내려가는
▁자존심을
▁소비자들의
▁순천
▁허허
▁노동자들이
2),
▁허나
▁차리고
난한
다이
효가
ble
▁몫을
▁사상과
▁팥
음그
▁거센
▁비트
able
▁불평등
▁리모델링
▁않죠
했지요
회담을
구도
급의
존재
▁끓는
▁임용
▁줄게
▁흙을
▁대변인
▁법원의
▁전망된다
▁압력
▁없으
▁열대
셨나요
▁어디서나
활성
▁상품에
▁주관적
▁개개인의
▁떨어지면
▁뽐
▁꽃잎
▁누르고
▁활용하여
▁덕을
▁긴밀한
▁안경을
▁예이다
담은
▁말고는
대교
▁뜨는
▁같네요
▁아니구요
▁구비
▁압수
지역은
▁숫자는
골프
▁턱을
▁극적인
▁명령에
▁오십시오
▁보듯
▁차별화된
▁밤하늘
미리
▁공수
▁드루
▁일등
▁해부
▁자유는
▁지속될
▁비롯해서
▁인물들이
▁내년에
▁예는
▁선택은
향은
▁소파에
▁다르지만
▁주장도
▁존재에
▁침묵이
근은
▁고분
▁압박을
▁성벽
▁초창
▁블로그
금도
▁돌릴
▁당당히
▁베란다
▁없애고
래가
▁모순을
▁콤플렉
▁화살을
▁재판부는
ene
▁소란
▁뭐든지
▁원유
▁신자유
▁소녀가
뿌리
▁잠정
▁8,
▁옮길
▁벌리고
포먼
▁신과
터테인
첨단
▁제왕
▁大判
▁껄
정치의
▁못하여
▁지점에
▁설치하고
▁재래
▁걱정할
▁몰아넣
▁1971
▁반대하고
▁자동으로
수행
해준다
▁수긍
▁따지면
▁언어와
▁미뤄
▁잠들어
▁심리적인
손은
▁성이
멋대로
오오
바의
▁쓰러진
실제
▁파르
▁치르고
▁제국주의
부르
▁원산
▁꾸준한
▁말했던
▁해보면
▁참여했다
▁군이
▁뉴턴
학년도
▁가자고
▁비평가
▁한순간
글라
▁산과
▁품은
▁양증
▁잠자리에
▁공급이
▁op
▁촉발
▁짖
▁개발해
▁떠올려
▁사이클
▁청구할
▁두께
▁종교가
▁오크
에게만
정책과
▁운영할
틀을
▁근래
▁무능
▁책도
▁정조
▁보라고
▁생존을
▁통째로
▁날카롭게
▁태어나서
▁하향
▁회의에
▁경청
▁체제로
절대
▁게임이
▁딱딱한
▁멈춘
▁그러더니
희정
▁날의
▁도마
▁수년
▁파인
▁이뤄지지
▁현상이다
알을
약은
▁마틴
▁분홍
▁그때가
▁눈초
▁발동
폰을
▁결심했다
▁관계도
▁음식점
원전
▁개인과
▁전보다
▁안에서는
▁주어지는
ety
▁처지
▁활용하고
_-
▁단체가
거릴
▁조형
▁협상이
▁계속했다
▁산으로
▁열정이
▁식당에서
▁주려고
▁스스로도
▁진심
▁타인
arket
표로
프란
▁다케
기술의
▁말에는
▁종교적인
치아
▁새가
중에도
▁큼
義務
▁빠르
▁내린다
▁시리아
▁이용하면
▁내리지
▁동등한
elf
▁교류를
▁실적이
▁농경
▁애인
▁성폭력
▁선명하게
두천
무라
▁치부
▁기법을
▁연구와
▁샌드
▁한단
▁생겨서
pt
▁개구
이기에
▁끌어안
▁모두는
▁철학과
커뮤니케이션
플라
성이란
▁것만이
5,
스페
최고
▁황당
컴퓨터
▁아시는
▁외적
▁우세
▁조현
▁코치
▁소녀의
▁독립운동
▁이바지
봉은
▁이진
▁발송
▁성장과
려던
▁당위
▁질이
▁체감
▁얼굴과
▁제안한
▁흘리는
○.
▁그땐
▁신년
▁의견도
▁펼쳐진다
▁약이
▁생각에서
社會
▁머금
▁싱싱
▁쌍둥이
▁했지요
▁추첨
▁한심
러스터
▁뻥
▁찢어
이러한
▁걸린다
▁사람이야
▁대응할
▁나누었다
▁줄어드는
▁암호
▁계속될
▁여기저기서
▁나무는
▁연평균
▁憲法
▁두리
▁시장과
▁해답을
▁괘
uch
▁징수
하였기
▁수화기를
▁시스템은
判例
▁되겠습니까
▁하루아침에
~9
▁GDP
▁시간적
염이
▁대우를
▁잠재적
▁아니었습니다
▁와야
▁지폐
▁생각하는데
▁파기
익스피
▁산업을
▁뒤져
▁부도
▁설화
▁일회
국민의
행위의
▁결정된
▁아침을
청문
▁닮아
▁논리에
▁이사장
▁대답할
▁맘대로
▁빼놓을
▁성공은
려니
▁자초
▁치중
▁동물이
▁법원이
▁태우고
▁확보한
▁엄지
▁외상
▁좁아
▁해왔다
▁이야기한
▁어려서부터
균형
한테서
▁자료는
▁많죠
▁낳았다
▁가리켰다
▁제거하는
▁트레이닝
▁왕조
▁들어주
▁본사
▁드세요
▁밑바닥
▁후에야
▁말레이시아
인간의
▁아뢰
▁연동
▁정치와
▁옴
술은
▁햇살이
포에
▁가끔은
▁도달할
▁성주
스트를
▁것이네
연에
▁사직
놓는다
▁고향으로
복의
▁단련
▁이준
▁소유한
▁펼치는
무게
플레
▁고치
▁슬슬
▁영세
▁싶어도
▁너무너무
▁선택에
▁노하우를
▁속에서는
▁희미하게
질에
▁꺼져
관에게
▁건넸다
▁공격에
▁아래의
▁올라갔
▁영역으로
플러
이에서
▁산업이
▁아프고
▁다하겠다
▁쪽에서는
▁괄
▁나뉜
▁代
자기가
▁장군의
말도
▁몸도
▁Har
▁외치는
취업
그렇군요
▁페스티벌
▁개에
▁그루
▁납입
▁끌어내
▁입어
개혁을
▁소프트웨
꽃을
럭시
섬유
홍보
▁음증
▁이공
▁갈등은
▁밝히지
▁부르짖
▁절차에
▁흘렸다
▁드실
▁다하고
▁주셔서
-9
▁동거
▁곰곰이
▁괴로운
▁지나자
▁회장을
▁깬
▁틈이
▁가세요
ᆞ일
▁져
▁입수
▁동물을
▁올라가서
▁안정적으로
카페
▁권한이
▁머릿속
▁닐
무용
▁암컷
▁누구든
▁게네
▁해낼
▁생각입니다
▁불러서
잡한
▁정전
였는지
▁개념이다
▁지배하고
▁명상
▁들었고
▁공통적으로
사자
▁과태
▁가져와
▁최영
▁북한과
▁힘겹게
▁자신들을
▁국내의
▁내려오
▁좋아해
오백
▁법제
▁보기엔
▁인간관계
▁조회
▁협정
▁기능과
▁정리한
▁지역과
지난해
▁일괄
▁탈피
▁탑재
▁환산
▁감추고
▁금메달
▁오빠는
▁중요하고
▁효율성을
▁지금까지도
▁체인
▁범위가
▁자부심을
▁밀착
성적인
▁평화와
▁들어온다
▁실전
▁이뤄질
▁추산
▁검출
evelop
▁뒤통
▁뻐
플러스
▁1976
▁갈고
▁받쳐
▁달성할
▁사고에
▁띄게
▁컨디
▁동일하게
교섭
▁관심도
▁어디론가
▁않소
▁장관을
군수
▁강정
▁농림
▁연세
▁자취를
▁행위로
▁베스트셀
▁제재를
經濟
▁사람으로서
**
여개
▁사지
▁그러시
▁금강산
발에
▁대권
▁주파
▁불빛이
▁열다섯
▁탐사
▁숙명
웠어요
▁은밀한
▁설치해
인재
▁사용자
▁준비할
▁기사의
더미
▁성추
▁잉여
▁최후
▁창조적인
저의
▁정권에
▁원한다면
ax
아시
울을
▁만끽
▁경쟁에서
53
ley
▁없어지고
▁맞물려
▁학교로
▁최저임금
』.
오스
▁74
▁피조
▁입가에
▁교육적
▁승용차
▁옳다고
▁스트레스가
84
▁옆구
▁나타나기
▁바쳐
내용을
▁SBS
▁아이도
▁비용으로
59
련은
▁문턱
▁중기
▁보통의
▁자동차가
▁물었습니다
날에
▁날도
▁살릴
▁알려지고
▁릭
나가고
드린다
-10
▁서적
▁맙
항상
▁형평
▁사무실에서
▁거둬
▁뭔데
▁성숙한
▁여야가
▁인원이
▁그리스의
▁지혜가
▁맛은
▁틈새
▁무관한
▁도전하는
▁박성
▁광화문
▁압니다
▁않으니까
ive
▁관리하고
▁결정하고
▁계기
▁창밖
지기를
▁초래할
▁삭감
▁섬세
▁방지하기
예금
▁원초
▁구조로
▁역할도
▁복잡하고
▁메타
▁실현을
▁올해도
으라
▁전투에서
사랑의
▁지금에
▁격리
▁나뉘어
▁노력할
분할
▁못한다고
▁때예
▁뮤직
▁World
해외
▁악한
▁안쓰
▁you
▁벼슬을
▁수치를
▁퀸
▁글자를
▁토대를
자식
▁참석해
▁태양광
▁독립적인
▁때론
▁밟아
▁선관
▁승무
▁낙동강
▁공격적인
욕이
▁남경
▁못된
카드를
▁일생을
▁중앙에
항쟁
▁제스
억원이
▁얀
▁친절한
만원으로
▁템
각의
▁강변
▁영리
▁수박
▁발생을
▁진행했다
▁골든
▁두부
▁그것들이
▁닷
▁구체화
항은
min
▁세로
▁어지러
솔직
스님
▁동생을
▁성장이
▁정신적으로
▁김장
▁가능케
▁기계를
▁형상을
울산
처에서
▁15%
▁다가온
▁대안이
▁이순신
▁배열
민주화
▁국무총리
답지
▁굳어
▁아낙
가격이
▁베이비
▁인상이
요소
▁債權
▁내쫓
▁일깨워
▁년대
▁바리
▁자서
세력의
훈련을
▁Par
▁경남도
▁상자를
▁되겠지만
▁찾아보기
▁높아졌다
▁대목이다
▁아카데미
면과
조트
▁정서를
▁탄소
▁광주시
▁좋았던
▁두려움이
▁조사에서
▁로고
▁소릴
▁시월
장에는
▁끄집어
▁나는데
▁혹시라도
크에
▁끝낸
▁불린다
▁얼굴에는
▁내일은
비판
▁시뮬
스마트
이제는
▁Hist
▁않았으면
▁캡
▁팔월
지금까지
▁커뮤니티
cc
ron
▁여사
▁하인
▁회원국
▁과정이다
▁인천공항
▁고통스러운
람을
▁정형
▁나무에
▁노선을
▁예수를
아니에요
▁시작해야
료의
▁랑
영어
칭을
▁마케
ital
▁170
▁지급하는
심도
▁남구
▁생각나는
▁주한미
▁이쪽으로
모와
▁붙이는
▁가운데는
공격
▁막막
▁한발
▁지껄
▁달리기
▁구요
▁사람들한테
▁경상도
▁항공기
음어
▁속옷
▁일류
▁재건
▁시험에
▁여인을
▁제시할
리케이션
▁카메라를
▁당겨
혁이
위원은
▁구조에
▁물리학
▁새정치연합
▁아니겠는가
▁67
▁GS
▁가문
▁군부
▁먹구
▁고통의
▁것인지도
▁병사들은
▁레몬
▁메디
▁사고방
▁에워
법에서
▁차원을
▁최적의
▁통증을
병우
▁어설
▁시대로
▁왜곡된
▁정신병
▁지역에서는
▁공군
▁과반
▁국민연금
▁킬로미터
거죠
▁잘한
▁구름이
▁나오자
▁무너진
────────
고등
집권
▁번거
▁문장이
칠년
▁다친
▁장군은
▁강점
▁오세
▁청계
생들이
▁호감을
▁낳아
기관을
▁헌법에
▁그쪽으로
▁오렌지
차량
▁뭐죠
▁오두
▁출처
▁가지구
▁서지
▁이뤘
▁저만
▁현미
▁겪었다
▁편의점
▁그러니깐
사단
▁교수와
▁그들도
▁믹
▁미래는
서구
▁누구든지
▁드러나지
▁뚜렷하게
▁유령
개월이
▁공개를
▁당당한
▁생활과
▁간을
▁임종
교육에
▁물어봤
밖에도
ford
▁물품을
▁했구요
▁文
▁띈
일리
▁빠짐
▁가을에
▁고려의
▁눈빛을
▁튕
창작
▁채우
▁설명하기
▁부처님
▁에밀
▁건물은
▁아무나
▁어떤지
통계
▁코드
▁결혼은
▁이상에
▁일각에서는
란드의
▁명나라
▁지방을
▁거미
▁계획하고
▁여성과
▁드러낸다
▁정몽
▁투어
죄가
▁61
▁세자
▁주역
▁누나가
▁유병언
매수
▁쓰던
▁안나
▁회귀
▁공부가
▁나왔고
아이의
▁철학이
▁반영하고
영역
▁경복
▁돌봐
▁부득
▁셈이
교육이
▁이단
발은
▁이력
년부터는
앞으로도
▁그중에서도
국수
por
▁우량
▁한방
▁미쳤다
▁한정된
▁1969
▁개성공단
▁누구라도
▁인체
▁추경
▁마을이
▁정의당
▁전망했다
▁건져
▁아플
▁있습니다만
곡의
▁공연이
▁구성해
▁자연이
▁적었다
▁데이비드
평생
이었다면
단일
도도
▁방은
▁보실
▁억누
▁동일시
▁지켜봐야
▁91
▁me
▁분과
▁외국에서
거가
▁성모
▁이념을
▁저작권
▁어른들이
식사
이것이
▁CCTV
▁냉정하게
▁이천십육
▁장악하고
스퍼
ave
▁면담
▁이야기했다
▁구애
▁득표
엄마가
업체가
▁그러세요
더스
▁이밖에
▁재밌게
선한
문재인
▁나뭇가지
형님
▁때다
▁들린다
▁본질은
▁설명은
▁대통령께서
▁새누리당의
다리를
▁자연과학
니라
주며
▁문지
▁기술에
합리
▁할애
▁지사가
ox
▁교감
▁놈을
▁하에서
▁구실을
▁그러냐
▁그릇을
▁일이지
▁쫄
▁의례
업체의
▁네이버
▁발견하는
eb
▁경력을
▁아브라
▁탈바꿈
독을
하구요
▁옥수수
어찌
자격
▁차입
롭게도
항이
얼마나
▁국경을
▁사나이
▁우울한
▁정도까지
개와
▁긁어
▁여기다
▁연구원
궂은
▁웹툰
▁유포
길에서
▁하였으나
▁순회
▁신재
교육은
▁민심을
▁드러나고
▁원칙으로
말고
▁비누
▁연결이
▁비판적인
▁면세
▁보였고
▁상응하는
것이
▁컨테이너
▁깜박
▁변수가
만요
선도
유사
▁머무는
▁우리나라에서는
▁감은
▁벨기에
▁사용이
▁성균관
▁디자인을
▁똘
공헌
영과
▁후로
보고서
사상의
▁호텔에서
▁굶어
▁예기
▁순순히
▁받아들여야
▁본문
aul
ics
았으면
▁용어가
▁심정으로
겠군
▁목사는
▁높지
▁떠나기
▁근처에서
▁올라가면
▁멜로
▁꼽았다
▁남한의
▁답은
▁이질
▁하듯이
▁리는
▁올라오
▁빡
▁말들을
▁쌈
▁부응
시간의
▁머지않
▁먹어요
▁저항을
▁헌법소
▁가히
▁떳
율의
▁우정
▁언급을
▁재생산
▁수익률이
▁맛도
▁보이면
▁강압
▁기저
▁다녀온
▁싶지만
터와
▁순응
▁삼성은
▁신뢰가
▁주었던
적이지만
▁골을
▁명성
▁양상
▁자국의
▁경제성장
▁생각하여
살아
▁나노
비슷
▁버림
▁오른쪽으로
▁아파트가
▁제멋대로
▁지방에서
▁형성되는
죽은
였다면
▁정상화
▁외부에서
▁페미니즘
▁항만
이기는
▁나하고
▁중장기
▁기와
▁나로
▁넘을
▁사정은
▁차례의
공간을
▁경찰청
▁노력에
▁82
상거래
▁간절한
▁넘었다
▁용서를
▁장남
머리에
제에서
▁주시기
▁지지도
▁후자는
미다
▁명사
▁악용
▁지대
▁마인드
▁반으로
▁지경에
▁마케팅을
▁선대
▁유관
▁활동과
▁부평
▁자생
이었는지
▁내포하고
해보면
▁편지가
▁냥
루스
츠의
▁드려
▁살에
▁꼽히는
▁떨어져서
그린
술의
.),
▁별도
▁코르
양으로
▁설정하고
▁발산
어져서
▁단식
겠군요
▁바다의
▁위치해
죄송합니다
▁휴일
▁친구도
경기에서
▁나타나게
▁주목해야
물어
훈의
경찰청
▁생명과
▁아이구
▁이해해
~12
▁자지
▁한은
▁역할과
▁소개한다
▁전까지만
▁알았지
▁식이
▁안될
▁역력
▁한이
나이다
▁능력의
▁음악의
▁마차
업체인
▁등급을
▁뿌리는
▁원내대표는
▁청와대에서
▁87
혁명의
▁않으려
▁자아의
▁때문인
▁용어로
▁이스라엘의
▁블라
▁상표
▁걱정은
▁줘요
▁주기를
▁보수적인
▁스타일이
▁이루었다
뱅이
보살
▁붉게
▁근무를
▁무시한
▁而
▁김구
▁활발히
▁죽음으로
김치
▁별을
▁광범위하게
RA
극장
기한
▁동사
▁위배
▁클리
▁지금보다
▁머리카락을
갛게
▁판을
earch
극의
▁정대
▁예상을
▁취했다
▁퍼포먼
▁추정된다
rad
▁발상
▁서글
▁이해는
▁재판에
▁풍기는
반은
보유
▁죽어서
일기
▁공표
▁내로
▁차트
▁더없이
▁하기는
▁없겠지만
가자
▁from
▁알아보는
▁자체적으로
▁광고의
▁전문가들의
▁롬
▁덤벼
▁바빴
베이스
▁쉬었다
▁합리적으로
아르
▁하되
▁장에서
▁혼잣
준다는
▁삼성의
숙의
▁판정
▁감추지
▁서유럽
▁저자가
▁하이데
했거든요
▁하나였다
▁나리
▁최진
▁연이어
렬히
▁주당
▁하여간
▁그렇게까지
▁심해
▁발언이
▁원활한
▁일상을
▁회사로
룡은
▁라이브
▁읽어야
▁느슨
▁와요
시대를
▁대표님
▁않았으나
▁하는데네
었네
▁저희도
홈런
▁걸러
▁버텨
▁활력을
▁유형을
▁다양하고
성인
온의
워야
전남
짐에
▁함락
숙하게
▁별개의
▁공교
▁실습
오르고
▁복숭
▁배제할
▁비현실
▁피우고
▁의미다
▁용돈
▁것부터
▁책임지고
▁이재용
▁입문
▁진피
으라는
▁이러다
▁79
▁바이러스
▁가엾
▁불면
▁말하
▁기록에
▁티셔츠
▁결론적으로
아뇨
▁뼈가
▁법률에
▁원리에
혼을
▁근대화
상으로는
▁1967
요금
▁경작
▁북방
▁투여
▁언론사
▁퐁
▁줄로
있어요
▁부회장
▁어찌할
▁있답니다
▁이벤트를
기업은
당연히
뭐라고
어나는
▁말인지
▁취약한
▁드라마를
▁명목으로
!?
▁돌며
▁겨울이
▁있었으므로
달의
식물
▁놀이터
▁단계의
▁출신이
▁민주노총
▁스태
▁남성은
▁우리한테
▁까만
▁최하
▁성적인
▁자갈
ower
▁기이한
▁달러에
▁정당성을
▁법도
▁숨쉬
▁거기는
▁눈에서
▁시급한
▁연관된
▁제기하는
중간
마르크
▁달라졌다
정리
▁세르
▁알라
▁입니다
▁인테리어
▁도착할
▁실시했다
오와
▁무슬
▁칠월
▁누워서
▁에스엔에
부턴
자주
▁메고
▁그거에
▁재활용
아버지가
▁개별적인
▁대피
▁샐러
▁찾아가서
순한
▁용맹
수업
▁치르
▁고려대
▁것입니까
▁따서
▁뷰
무기
▁종의
▁예수가
▁등장했다
▁Econom
끝을
비스
석과
▁소나
▁정약
▁어린애
▁펼쳐져
▁실시한다
▁짱
▁공학
▁몸소
▁양호
▁개발과
▁볼게요
▁제치고
지원센터
ction
씨도
▁난민
▁잠들
▁분석이다
▁대한민국을
▁허락을
▁극복하는
랑의
▁백제의
▁수백만
▁정리가
▁첼
비전
손에
▁거면
부에서는
▁만들어졌다
aus
▁드나들
▁성명을
▁과정으로
▁깃털
▁유추
기업을
▁용어는
부품
▁용도
▁판촉
▁한명
알았어
▁명의로
▁맵
색과
▁구입한
▁만난다
▁보여줬
▁통제를
▁번이
▁제후
▁보통은
▁장례식
▁피해자의
▁호소하는
▁숙지
▁누리는
▁마이크로
▁일억
▁만났던
AP
▁해봐
▁판단한
▁멎
바는
▁구직
▁강연을
▁서초
▁선명
▁올라가고
▁참나
▁화제
기업에
▁부작용이
▁나가기
▁혁명이
▁도시계획
회원
▁스쿨
▁외형
▁파시즘
▁갖추어야
렴풋
▁텍사
▁격차가
▁따라야
▁불안정
▁영국은
▁램
수정
▁있었음을
▁경감
▁수축
▁맥주를
▁음악은
▁돌보
▁똑똑한
시나
실천
▁왕복
▁천명
산업을
▁세계대
산업단지
이년
ert
▁무례
▁Rep
▁따위를
▁진리의
▁철학은
▁가혹
▁늦추
▁시진
▁급격하게
▁선보인다
▁유도하는
킹을
▁기여를
▁수준은
▁책들을
어버렸다
▁없음
▁임직
▁군대에
▁탄생한
▁돌아가서
스틴
피의
▁담담
▁인구는
▁93
▁옷은
▁하물며
▁아마추어
▁움직이기
체인
▁뭉쳐
▁병력
▁야마
▁번호를
▁잡아서
▁1965
▁떠오른다
▁제한하는
▁계셨
▁중이
▁향수
투자가
▁도입을
▁한순
야가
▁>>
▁도미
▁불사
▁산의
▁어허
▁장단
▁스님의
▁순간이었다
▁1977
▁내륙
▁행진
▁찾아갔다
놀이를
▁건물에
▁마시며
▁하잖아
▁동맥
▁성장에
▁조직과
빛으로
토피아
▁이유에
▁충격이
▁찾아내는
▁문제입니다
▁낮다
▁25%
▁남궁
▁이곳으로
▁알았던
▁판단은
ision
▁박용
사람의
▁문학에
금속
구조가
등하게
▁시너지
▁없어야
▁흐르
▁고통은
▁공부는
▁통제할
▁퓨
▁방문객
냈습니다
▁펼쳐지는
▁온실
▁당뇨병
▁문제인
주의자들은
▁닳
왜요
시키려
▁공화당
▁우익
▁노력의
▁신나게
술에
작전
▁한성
▁신문은
촉진
▁불명
▁거기가
▁연주를
▁오토바
인으로서
▁책과
▁특화
▁봐서는
▁기분이었다
나온
▁옵션
▁힌두
▁온몸에
▁걸치고
▁장치가
▁공무원이
▁International
▁경험의
▁정리하는
Th
▁다윗
▁육상
▁그치고
(16
idge
▁감독을
▁달아나
▁행동과
▁판타
▁난감
▁풍속
본부는
▁무시무시한
내게
▁사백
▁공화국
~17
▁아사
병들이
▁과학과
▁설립한
▁수치가
▁아우구
▁얻는다
▁주체는
에서처럼
▁인간들이
▁닿을
▁발현
▁기관에
▁사명을
▁해외에서
)》
특정
▁씨름
ated
점검
▁흐려
▁소년의
▁제작한
gh
▁말기
▁대회에
▁온도가
▁펀드를
명령
▁심리를
▁간파
▁발발
▁이삼
▁충만
으시고
▁상세한
번의
▁굴뚝
▁떳떳
▁달라요
위안
▁지그
▁시청률
▁오면서
▁종목을
▁책이다
▁문건
아닌
▁다그
▁이강
▁차별화
▁풀어야
▁향기가
▁혁명적
임으로
▁부인과
▁씨한테
혈이
▁튼튼한
▁표정이었다
즈와
ery
▁소아
▁체납
▁다물고
▁확대하고
▁Br
▁사생활
백은
▁과감한
▁바라본
▁상태의
▁위력을
▁두말
▁전라
▁패스
질서를
▁교회에서
▁유리하다
isc
▁셋이
▁장에
박하고
▁헤아릴
▁만들었던
▁우리에게는
▁게요
▁눈도
▁con
▁교수를
▁작곡가
▁일본에서는
▁토마스
▁건강보험
▁매립
▁무겁게
▁영적인
▁두려워하지
▁스코틀랜드
▁됐든
▁(200
▁맛있어요
배나
▁몸뚱
살인
지급
▁집안이
▁×
공주
▁님은
▁닥쳐
▁풀을
▁그만한
▁시선은
▁의식과
▁조광
▁춘추
▁요건을
▁전시회
▁직장에
▁크기로
▁보였습니다
GO
▁샴
▁진실이
들레
▁더민주
▁법원은
▁거두었다
바위
▁핵을
▁없애는
▁기울여야
▁비겁
eter
▁조선을
▁맞죠
▁불륜
▁습격
왔기
탄은
▁가세
▁참전
▁대구의
▁뛰어넘는
▁방정
ener
▁한국으로
▁갑작스럽게
통과
▁눈의
▁배나
▁상점
▁술집
▁쌓고
▁옳다
▁오디오
▁반복해서
그려
프스
▁어렴풋
▁부풀어
▁수업이
▁배급
▁재학
▁무너지고
▁여겨진다
동성
▁하숙
▁0.0
sk
▁힐링
▁결정적으로
▁욱
가기
▁수거
▁목사가
▁학자들이
없고
▁박찬
▁다가오고
▁테니까요
농민
카와
▁적용을
▁또렷
▁동생은
▁불쾌한
▁자기들
▁주도한
협동조합
▁상징적인
▁집안에서
▁관건
본인이
▁총리는
▁학습을
▁말한다면
▁주인공의
▁붙들고
▁이메일
▁곰팡
세력이
▁발짝
나라도
니스트
▁OECD
▁악기
▁침범
▁과제는
▁무수히
▁생각나
▁대다수의
▁등장하고
배로
▁데리
▁국회를
▁'1
▁CJ
▁개요
▁무리하게
▁생물학적
절차를
▁연세대
▁시간으로
▁세워야
▁편의를
▁않으므로
▁둘러보았다
▁비벼
▁상습
▁기대어
▁악수를
▁예상하고
OU
태우
▁결산
▁그러죠
▁들어설
▁무심코
▁이후부터
▁노골적으로
eh
▁성당
▁언론을
지듯
▁군림
▁사시
▁해지
조치를
▁not
▁딛고
▁연산
▁장갑
▁근육을
▁치르는
▁보호하고
▁아니라네
마와
▁쌍용
▁내년도
▁언어적
문화예술
▁반짝이는
▁곳에는
▁비공식
창에
▁76
▁김대
ility
모토
▁낮고
▁풀리지
▁가운데서도
▁모양입니다
▁막대
▁자작
▁통지
▁거점
▁시커
▁바다에서
▁뒤틀
▁발전은
▁옆에는
▁쉐
응답
노동자
▁갖도록
▁자아를
사유
▁발주
▁요령
▁최경
▁교회와
▁되겠다는
▁들어서자
▁윤석
▁흠뻑
▁스타일을
)',
▁펼친
시스코
▁Med
▁섬세한
▁의사와
아프리카
라에
▁갸웃
▁시조
▁제임
▁대세
▁양적
▁인정해
▁아니겠어요
8%
▁림
▁조망
제공
▁젊고
▁거침없이
의사
▁Wh
▁규정은
▁마련을
▁본격화
▁지구를
▁도입한
▁판단했다
▁들어서면서
▁돌린
▁청각
▁그러게
▁소비자에게
사각
장면
▁레벨
▁불공
▁통해서도
영국
▁트레
▁건강과
▁드리면
법도
▁은은
▁날에는
▁채널을
강도
졌는지
▁비약
로서도
▁것에는
▁종래의
▁좋겠다고
▁오래전부터
▁내딛
▁추궁
▁선교사
▁예술을
▁수식
하시기
▁Vol
▁지리적
평이
▁났을
▁공포를
▁지경이었다
▁다방
▁이동을
▁이동하는
자문
▁아마존
▁아이스
▁직원들에게
▁un
아이는
▁Ind
▁군대는
▁들어본
▁개로
▁평론
▁기자의
▁도시는
▁73
▁열지
▁허망
▁방안에
▁점수가
▁권총
▁먹으러
▁메이지
▁기능에
▁보기는
▁어딘지
▁측면도
▁im
▁뿌듯
▁생식
▁월남
사상을
▁부모에게
▁친구들에게
분쯤
oph
블록
▁갇힌
▁자연스레
▁김홍
▁등록을
▁보내지
▁본연의
▁지금까지는
▁귀환
▁첨부
▁헤어진
▁기분으로
▁하였는데
▁감찰
▁이불을
▁처지가
진으로
할지도
합시다
▁들어보자
무장
척을
▁거스
▁잡아먹
▁계십니까
출한
▁박해
▁아는데
▁재보
▁퍼붓
되어서
자이다
▁곁으로
▁조각을
▁이해해야
▁각하
▁무명
▁멈추었다
▁엄마에게
(12
▁돌멩
▁루스
▁새는
▁없지요
▁생활에서
나눔
▁엔지니어
▁원활하게
바르
bid
▁맺어
▁써도
▁통로
▁기획재
▁전면에
▁지원에
▁하찮은
▁올바르게
▁몸부림
▁우울증
토피
▁되다
▁가족들은
ail
iff
▁뼈를
▁여기에서는
▁이장
uman
▁공부도
▁상품은
▁일치하는
울한
으리
▁성은
▁하사
▁아프다
▁결정되는
▁올라간다
▁아지
력발전
▁브랜드의
잡아
자였던
▁띄지
근무
▁프로세스
어허
▁실천을
그렇다고
▁생의
▁어수
▁종자
▁효능
▁각자가
▁신뢰할
▁향하고
▁자발적인
▁침대에서
▁선이
▁미성년
▁작용한다
량도
머니즘
▁들었어
▁명칭을
▁유쾌한
▁구급
▁모퉁
▁외화
▁하노
그러게
▁오른다
온을
추세
▁강호
▁보나
▁베토벤
▁산에서
▁영역의
▁임금은
▁겉으로는
▁지시했다
▁처음이다
▁할당
▁혐의가
▁1961
ai
▁미드
▁왕위에
▁중에서는
매니
▁배수
▁서성
▁일본군
▁자이
▁의의를
▁투자는
▁당기
ural
▁일관된
▁협약을
▁취지
▁생산과
▁생활하는
끝까지
요하게
▁여성에
usiness
보전
▁부려
▁포함돼
▁건강하고
▁아티
포지
lin
▁김씨
▁탈퇴
▁경지에
▁목표와
▁우선순
▁정은
▁뒤이어
▁피우는
▁뵙겠습니다
▁불타
▁태음
▁워크숍
▁재정적
▁이리하여
▁여하튼
▁풍경이
▁여성에게
용지
▁월간
▁전향
▁취하지
MW
폭이
▁나처럼
▁승리로
▁기만
▁널려
▁것이고요
▁조장
▁뭔가가
▁어처구니
▁거행
▁복도
봤자
포트
▁3%
▁아바
▁폭을
▁정신에
▁노력한다
식도
▁꿈도
▁약속이
불가
▁1:
▁당도
▁원만
▁이한
▁복음을
▁아시죠
▁형님이
▁못하지만
▁사용될
▁얘기했
▁이외에는
울이
직업
▁게을리
▁원숭이
▁전략의
▁그제서야
▁기록하는
▁휘발
인이다
▁머리칼
▁시늉
▁확정된
▁바라보면서
익이
▁계엄
법이다
▁인정받고
54
制度
▁아부
▁울릉
▁호화
▁여름철
▁당근
▁멀어
▁아날
사람들은
▁그림으로
걸요
유기
▁역을
▁내려놓
▁무게가
▁71
비용이
▁사우디
▁색깔을
▁실행에
▁예정인
▁방해하는
진단
▁FA
▁김원
▁유희
▁호텔에
▁나기
▁은총
소리와
▁경찰관
▁조정의
▁첫째로
▁왼쪽으로
▁시민들에게
(17
▁세상과
▁여행은
▁이기지
▁여보세요
식민
▁처참
▁외부에
▁연평
▁지방이
·2
▁선의
손가락
▁과도하게
▁핍
신탁
알고
티노
▁기본권
▁선거운동
▁계발
▁광대
▁가혹한
▁1949
발표
어쩌
평등
▁각오를
▁뿌리가
ett
▁광산
▁시비
▁치열하게
인수
▁사탕
▁정상이
▁호기심
▁힘없이
▁눈앞에서
▁디스크
▁민족을
▁제한이
레타리아
▁있었지요
▁긋
리더
반대
▁것만큼
▁경영의
▁싫어서
위원장을
▁행사하는
▁현상으로
▁해서네
대한민국
▁있었으니
▁단체의
▁마리는
▁아니니
▁무엇입니까
▁공적인
▁발표가
박스
▁안식
▁카프
▁하나요
▁외계
▁상황의
▁집단적
▁그러하다
▁불로
▁옮겼
▁원효
▁이탈리아의
가지구
▁더불어민주
감정
그죠
줄기
▁명과
▁운운
▁남녀가
▁적용해
청소
까지를
▁1500
질과
▁상실한
▁활약을
간은
대지
류와
북도
▁사야
▁속은
▁허탈
경제가
▁십이월
▁의자를
▁훈련이
▁갈비
▁자와
▁것이었
▁보듯이
▁체계가
▁성장하고
▁아름다움
▁배우가
▁알렸다
▁사무실로
▁궐
균은
자리가
▁처분을
▁카이란
외과
▁으뜸
▁짜고
▁영국과
▁지위가
슬라
▁이마를
기초
정답
▁벌이
▁어둠을
▁자들을
▁부모들이
▁과자
▁일자리가
벽에
퍼런
▁추기
▁실리콘
▁어색한
▁지르고
▁행복해
91
▁익힌
▁두드리
▁시집을
데도
▁다져
▁그리구
▁생기기
▁대해서만
▁말씀드리면
종과
▁債務
▁맡길
나오는
▁시카고
▁요즈음
▁이웃을
▁인식과
키퍼
▁출가
▁과제가
▁신비한
▁세미
ames
▁근처의
▁조조는
▁시작하자
▁날렸다
▁질병을
▁확산되고
az
▁갈까
▁뭘까
▁완수
▁클릭
▁택한
▁기록된
▁핵심을
▁까맣게
▁숟가락
▁자존심이
▁天
▁이국
▁범죄가
▁주문했다
▁마오
▁나무의
▁두들겨
▁NH
▁갔어
▁특성화
▁쿡
비밀
▁패권
▁방송국
규가
▁떠들어
▁진행한
▁20~30
▁노랫
▁학부
▁국회의원이
▁이겼
▁드려야
행은
les
▁부녀
▁설치한
▁자본이
▁좌우로
▁구성된다
▁발전시켜
릴라
거리던
▁실수로
▁느긋
시켰고
▁정책적
▁확인하기
▁알았습니다
단체장
직의
▁솔루
▁정년
▁좁혀
▁첨예
▁지적인
▁근거하여
▁재즈
ings
▁루이스
왕조
▁온천
▁표창
계급의
▁동원해
▁피해야
도시로
▁싸움은
섭은
▁군에
▁느린
▁싸운
▁음이
▁과목을
▁금액은
▁다리에
▁마을로
▁말일세
▁올려놓고
채로
▁이발
그룹은
▁소비를
▁동문
▁빤히
▁아득
▁문서를
▁생태계
▁끼친
▁눈길
▁촉촉
▁대표에
▁차갑게
▁없어지는
계좌
오로
있지
▁명제
▁사항에
▁선언한
▁안았다
▁환자에게
▁곧잘
▁마녀
▁풍습
▁기록해
▁얼굴의
▁기술적인
▁있겠어요
마라
▁농담을
▁까다로운
위치
▁게다
▁허술
분으로
▁기본으로
▁휠체
▁손님들이
▁끈을
▁여우
~200
▁제도에
▁해야죠
▁사용하기
∼3
▁갖은
▁개장
▁뒤쫓
▁타이어
벤션
▁아뇨
▁말씀에
▁동양의
▁겨울철
▁나타낼
▁중요성이
돼지
직은
sych
탄에
▁부위
▁근거는
▁서경
▁사안에
▁증가할
▁이산화탄
▁컴퓨터가
월은
▁감춰
▁담뱃
▁댔다
▁못지
▁발목
▁개정안
▁은행이
▁어딘가에
▁공부한
(30
chen
▁was
▁셰익스피
▁의미이다
왕에
클래
팔이
형제
모임
현상을
▁들어보면
▁말했지만
▁음미
▁찼다
▁통틀
▁목적과
지니까
▁누구냐
▁프로야구
▁업그레이드
▁심상치
▁금호
▁짝을
▁검사는
▁당사자가
▁어이가
▁일정이
▁조성을
▁아파서
영향
▁힘도
▁겨냥한
▁신중한
▁되었으니
품과
▁순찰
▁공격이
▁아니란
▁국가들이
▁표현으로
도전
지출
▁제대
▁독자는
▁반란을
▁법안을
▁손목
▁원은
▁계약이
▁드물다
러기
▁공민
▁집중할
▁아니었고
▁인천지역
▁남성과
▁고춧가루
▁사라진다
▁사람만이
▁요소들을
층과
▁처칠
▁변함이
▁생산성
▁허리가
▁전문가의
▁후보자가
페르
▁섬에
▁시대와
▁따름이다
▁프레젠테이션
재에
처로
▁말썽
▁타지
예예예
▁오전에
▁Poli
~16
▁야심
▁가르칠
▁검은색
▁심장을
▁이곳이
illiam
▁대부분이다
랑한
▁교리
▁배양
▁제보
는다고
▁불길한
▁무릅쓰고
▁색이
▁도구를
▁만들었
▁헌데
▁배우자
▁중국어
▁대내
▁부문의
얘기
▁밥도
▁산학
▁죽었
▁손학규
▁올라서
▁태양의
▁들여다보
▁못했다고
▁빠짐없이
▁실현하는
▁팔레스타인
깊은
▁킴
▁그뿐
▁꼴을
행사를
▁세력은
▁일행이
립을
▁기뻤
▁닦고
▁높아진
▁정권은
▁아니잖아
▁경은
▁숙제
▁자자
▁처박
▁카이
▁팔꿈
▁이슈를
▁혜택이
▁어버
▁사회학
▁접근이
▁전략에
▁하던데
▁천구백구십
▁박주
됐는데
▁떠오르
▁일반인
▁부문에서
친화
▁장은
▁전만
▁해리
▁소비에
▁태도와
▁월세
▁천국
▁농어촌
▁추진을
▁보여주기
▁보고도
▁살피고
▁하여도
▁하하하
▁현장의
▁바른미래
▁고칠
▁침공
▁고맙다
▁사상적
고생
▁내민
▁이적
▁뿐더러
▁특성과
▁받았지만
▁짬
▁아드
▁팔에
산업은
▁사연이
▁연결해
▁벼랑
▁서남
엑스
으면은
▁경로를
▁백성들을
▁후보자의
▁딸과
▁나가자
▁다니엘
▁마련해야
▁바치는
▁그동안의
▁취급하는
▁메이저리그
▁듬뿍
▁힘드
일단은
▁경향은
▁않았던가
택을
▁보따
산업이
운동과
나야
▁들끓
▁퇴출
국장은
▁감싸고
▁전자상거래
아침
amp
▁Bl
▁게르
▁개인은
▁불구속
▁부정적으로
거에
미아
▁시속
가들의
▁요인은
▁개발도상
▁빅데이터
▁아니하고
전혀
▁비아
▁지면
▁Ass
▁개성을
순은
▁고갈
▁먹이
▁상권
▁시술
▁천막
▁함양
▁금리를
▁임진왜란
▁정문
▁떠올라
▁출퇴근
▁폭넓게
▁방문하는
▁융통
▁산업에
▁시작은
▁外
▁긍까
▁법한
▁인슐
▁모르니까
▁파악하기
▁말씀드리고
▁떨며
▁기득권
▁분수
▁학창
▁신화를
가면
▁노년
▁아직까지는
▁만지
▁청소를
▁초부터
▁되어버린
쇠를
▁모리
▁심도
▁여타
▁以
▁서버
▁옆의
▁지킨
▁입지를
▁말하지만
▁부모들은
▁부족으로
▁프로그램으로
레나
▁IS
▁1964
찬을
▁대목이
▁오류를
▁지났다
▁미안하다
▁서쪽으로
변경
팔년
▁도자기
▁주민이
▁옛날부터
▁친절하게
저우
▁뜻의
▁매몰
▁실물
▁르네상스
now
▁법령
▁희곡
▁해명을
▁그림자를
클린
▁故
저널
▁속임
▁반기문
▁소중하게
▁인물이었다
▁과실
▁속삭였다
방법은
▁내놓을
▁넘는다
▁목욕탕
▁무차별
▁있었나
만일
지지만
▁그곳으로
▁되었는지
단히
▁노력해
▁아파트는
▁아시다시피
포도
▁증후
중심의
▁소설에
▁요번에
▁재검토
▁황제는
문자
▁z
▁분석은
▁오르면
▁김은
▁내렸
▁이용을
▁해외에
▁마찬가지입니다
귀에
성ᆞ
하십니다
▁베푸
▁자위
▁월급을
▁이의를
▁내용들이
▁촘
푸른
▁Rel
▁WTO
▁가입한
▁담았다
▁성범죄
▁온전한
질랜드
▁있군요
▁전통이
▁탄수화
벤처
▁부르지
▁느낌으로
▁백성들은
▁자동적으로
달은
▁서점
▁인식할
▁불이익을
▁사람이라
▁일어났던
▁할아버지의
▁변환
▁성리
▁자들의
▁理事
▁낙하
▁권력과
자에게는
▁그대로의
▁고구마
▁만나야
▁보스턴
▁걸어가는
▁시도는
▁아들인
▁에로
▁집주
▁마음만
▁성큼
▁오랑
▁우대
▁기차를
▁발생하면
▁주셨습니다
▁휙
▁으쓱
▁총장은
▁혹독한
▁아시아의
됨을
언은
▁되냐
▁놀라는
▁삼성이
▁케이스
▁강동
▁배꼽
▁싱크
▁흐트러
시키고자
▁부탁했다
▁이미지로
▁뽑은
▁의병
위기를
동아일보
민정
▁실상
▁억지
▁재가
▁평정
▁모시는
▁브라운
▁이와는
▁키스를
망에
이란다
▁주님의
▁된다라는
▁단계가
패로
▁공범
▁질려
▁종교는
▁타당한
(14
▁신당
▁끼치는
▁범인이
▁부인할
▁많았습니다
▁신봉
▁건데네
▁기묘한
되다
▁고귀한
▁유지해
▁살아남을
▁인정되는
▁지원한다
87
▁구하고
▁놀라지
▁학위를
▁아쉬움이
▁팁
매입
▁연안
▁이쁘
들였다
▁믿었던
▁품격
▁부스
▁섬뜩
▁오너
▁박차를
▁육체를
▁서북
▁허둥
▁모델은
▁세번째
▁하고예
▁자기소개
했네
▁본질적
상환
앞에
총장
▁애매한
▁三
▁찐
▁되겠지
▁색을
▁이들에
베리
마음을
▁For
▁겪었던
▁발전해
▁컨설턴
▁종교개혁
▁확인된
부부
마루
짱을
▁기동
▁등용
▁밥이
▁타깃
▁손실이
▁가능하고
▁유무
▁생겨났다
▁제기하고
▁성장의
▁슐
▁북구
▁두르고
▁치료에
▁요원
▁나들이
▁보거나
▁전통과
▁찾아낼
백산
ati
▁고통에
▁상승을
이다라고
▁정책으로
uro
름에
인치
▁고른
▁냉소
56
▁관례
▁그칠
▁유예
▁규제가
▁안다고
▁원에서
▁드러내지
▁상세하게
▁독자들에게
께요
▁세례를
▁주기로
▁추천을
▁환상을
테는
▁기막
솔직히
▁대사를
▁영토를
▁잠자코
계에서는
▁실현하기
▁자극하는
▁통해서만
정확
청와
팔을
▁미미
락으로
▁우리에
▁대중교통
교환
편은
▁정령
▁실시간으로
▁신조
▁어림
▁방법의
▁종이에
▁콘스탄
차적으로
▁떠오르고
▁원한
▁미세한
▁만들어져
본이
▁분석에
▁대꾸했다
('
▁81
▁보금
▁높아진다
▁맡긴
▁핑계
▁보더니
▁파리의
킬로그램
▁차지한다
▁깔아
▁날라
방울이
어져야
▁전달했다
봉의
▁아세
▁말아라
▁하나라도
▁수하
▁경기는
▁뿐이야
▁타당성
만이라도
▁갔고
▁말구
▁무분별
▁다채로운
▁비하
▁방향에
▁비교를
▁위원장을
▁입소
기준을
▁소원을
▁구분하는
▁끄덕이며
▁선택해야
▁잊은
▁않겠나
십자
▁86
▁못하며
▁안간
ates
▁그곳에는
▁지배적인
▁新
벌써
▁거들
▁김우
▁에르
▁알맞은
▁잠재력을
▁감정과
▁서울과
▁요인을
에프
나무는
▁논의할
▁매개로
▁했었고
달리
유예
▁83
▁경사
▁의상
▁토양
▁오늘부터
황은
▁자선
사고가
▁곧이어
▁놓는다
▁아가씨가
▁낙후
▁제목은
는디
▁근절
▁때마침
▁벌일
▁생김
▁나쁘게
▁조정에
▁Stud
▁대구경북
▁이것으로
투스
▁0.2
▁가치관
▁그렇듯
▁두리번
▁운동과
▁알렉산더
씩을
▁맥을
자들로
▁다양성을
▁대비한
▁정도밖에
차와
▁백출
▁온다고
▁주민들
▁위원장의
▁확인해야
설과
▁달의
▁못난
▁1900
▁지금이라도
쓰는
▁당직
▁조조
▁차용
년만에
▁무관하게
FTA
▁자로
▁돌았다
▁숙였다
▁커지는
고마
배는
▁식초
▁주교
▁한몫
▁이들과
▁중소기업의
구매
당초
▁김이
▁백성이
혔던
▁수산
▁체제에
▁재물을
▁사용해야
▁일어나면
▁의식적으로
▁개량
▁사례로
▁基
▁벌고
▁비쳐
사람을
살이를
터미널
▁따위의
▁유리하게
▁자동차의
▁두려워하는
민중
▁삼겹
▁허공을
▁얘기들이
▁행복이
▁아실
고기를
▁늘리고
수고
증명
▁퍼뜨
▁다니다
▁살아남은
적과
학력
▁9,
▁정벌
▁차림
▁치닫
▁보기에도
▁아니어서
▁전자는
▁해외로
▁도련
▁맹목
▁개최했다
▁자비
▁팩트
▁나서지
▁없다라고
국대
주행
▁범인
등으로
▁기술개발
▁일어나기
▁일이라는
evelopment
보와
▁누이
▁곳까지
대인
▁집과
아무튼
일자리
▁거두어
▁내려왔다
▁사이에서는
귀는
티스
식사를
▁고대의
▁한쪽으로
값은
연습
▁맞출
▁예민한
▁흔들리지
▁事
▁진격
▁집약
우니까
▁장점은
급이
▁실례
▁왕과
▁명분을
▁의장은
▁이만큼
ina
박하게
아저씨
berg
▁벗어나기
덕은
설마
▁걸렸
▁버스가
▁아무렇게
▁강기
체계의
▁경영에
▁조사는
번지
▁경희
▁이북
중이다
▁승리의
▁제시해
▁London
회전
▁네모
▁대할
▁소가
장까지
▁필요해
▁1919
▁존경하는
데다
일도
▁보류
▁의제
▁접대
▁양질의
화나
상품을
ount
▁리처드
짓을
폴리
▁시행착
)(
경도
월과
▁낮에는
▁보시고
▁소장은
▁여자들
▁그렇기에
▁선보였다
▁전문성을
▁프로그래
멸의
소스
야를
▁치자
가지로
법상의
▁비판은
▁유니폼
▁집단을
▁참기름
더라구
▁몸무게
▁현저히
▁한국에서는
사람은
▁동두천
▁음식물
▁유지하면서
韓國
▁효용
▁힘써
▁게임의
▁과학이
▁버려진
▁운명에
▁무너지는
MS
서치
간으로
▁설치를
▁보셨
▁줘서
재생
▁배부
▁커튼
지원을
▁견디지
▁이익에
▁1962
▁하더군요
▁영의
▁당시는
▁들어섰
과제
▁번쯤
▁옳고
▁능력도
▁행보를
▁바이올린
▁la
▁법으로
이념
▁IV
▁상시
▁보면요
▁엄격히
▁바라본다
이까
▁이창
▁분들의
▁심부름
▁영상이
▁않겠어요
정기
호도
▁그네
▁뜻에서
▁총장이
각기
▁후인
▁자기들의
▁청와대에
▁쏴
체제가
▁그럽
▁사임
▁일사
▁국가로
▁떠는
▁장마
▁커버
▁탔다
▁시켜서
▁영혼은
▁거기까지
▁지금이나
항만
▁재원
http
▁엠비씨
ality
▁이야기들을
▁리더는
▁상황인
▁재판이
▁정리할
▁버틸
녜요
치던
▁자에
곳에서
▁논의의
▁강요하는
▁보니까네
냈고
▁구세
▁대낮
▁부리
▁패턴을
▁햄버
▁경력이
▁왔지만
▁이분은
▁지역별
▁파악한
▁그러기에
▁듣겠습니다
▁단풍
▁대처할
▁순서를
수영
▁선착
▁부정한
▁그보다는
▁Ed
▁네게
▁뒤인
▁음악과
▁내세우는
▁비난하는
▁진공
래는
▁강해
▁게야
▁뜨거워
▁하였으며
▁자연은
▁출판사
▁1963
▁경우에만
▁국가들의
▁나라에서는
▁Commun
▁찬찬
▁일시에
▁그중에서
▁선정됐다
궁에
돌을
우스가
▁특성은
▁펀드에
▁한계에
▁행복의
보존
▁빼앗긴
설의
▁경악
▁한쪽에
▁대한민국이
방학
만원이
▁물어볼
되었음을
수인
ose
▁좋으
▁현기
▁IBM
▁벤치마
▁냅
▁이색
▁성공에
적이어서
▁있어야만
▁순교
▁연구한
▁이해의
▁먹거리
▁지구가
차대
▁울지
▁거치지
▁그렸다
▁남녀의
▁도지
▁빼돌
reat
▁제기할
▁일이에요
수학
▁반죽
▁뚜렷이
▁Mc
▁이문
기관인
준다고
▁나가게
▁반발하고
남을
▁국유
치고는
▁일컫는
▁안락
▁그림의
▁준비된
▁학생들과
궁이
▁선배가
▁전쟁으로
파괴
혈관
▁승계
색한
히도
▁곤혹
▁파출
Ar
했거나
▁노트북
▁확연히
▁잘못하면
정치를
▁대신해
▁생명체
▁카스트
여보세요
▁꽁꽁
▁서산
▁많잖아요
장난
▁본인도
▁탓이다
어버리고
폐기
▁KTX
▁수행을
▁자격증
▁장으로
적으로나
▁알다시피
무한
▁튜
▁껴안
▁수다
▁하급
주머니
▁나오니까
▁제기했다
님들
▁서브
운드를
께선
불교
▁술과
▁시일
▁유정
▁독서를
▁적시
▁못해요
▁테니스
▁정류
▁탄식
▁취업을
리라고는
▁그렇다는
▁마련됐다
▁낱말
▁능히
▁미주
▁물질의
▁바르고
▁회복을
▁않았는가
▁한반도에
빌딩
▁상당의
▁마나
▁생동
▁탄탄한
▁토론회
▁프로이
51
혜의
▁들이마
▁보내어
▁제도와
노무
▁방해가
자신의
▁전환이
▁좋았을
부들
▁가미
▁북돋
▁좋으면
▁주겠다
▁고취
▁모험을
▁서비스에
▁생각하시는
부진
▁공안
▁띄워
▁씌어
▁겨울을
▁고문을
▁날부터
▁돌보는
▁추세를
근의
선전
하군
▁지질
▁구성이
▁둘러싸여
▁십일월
▁하지도
▁공무원의
▁소스
▁하청
▁비밀이
▁시절이
▁주위에서
다툼
▁무공
▁서고
▁군대의
▁명예훼손
▁출세
지법
▁무성
▁인사들이
▁있으세요
▁떠나야
▁사업비
▁불안감을
▁예수님의
조제
▁자도
▁비율로
▁소외된
▁않으나
▁출렁
▁현대적
▁흘러가는
산성
▁거뒀다
▁결론에
▁발표할
▁지중해
▁소극적인
▁이념적
▁전형을
▁챙기는
▁판정을
▁달러로
정상회담
▁Co
▁이글
검사를
▁1966
▁엷
▁분출
▁측정하는
RI
▁형식이
로나
현상이
▁잇달아
▁매일매일
▁브랜드가
▁사랑하지
net
▁관용
▁분자
▁공격할
▁기쁨과
▁지역적
▁프레스
들에게서
▁없습니까
▁종합적인
▁'-
▁쏘는
▁안토
▁관심의
▁없는가
▁쾌적한
▁말했듯이
▁原
기적
▁거였다
▁충성을
▁카이사
▁사라지지
▁복령
▁모호한
▁풀어주
▁추구하고
▁같았습니다
▁Qu
▁조개
▁자본을
▁촬영을
▁구축하고
▁그렇듯이
▁치료하는
▁측면에서는
▁밀양
▁새끼를
▁선거는
MC
어음
했기에
ature
▁들어가자
fl
보드
▁의약품
▁홈페이지를
▁강이
▁반영된
▁정의의
▁결정해야
▁서비스는
▁모임에
▁탓인지
시키거나
▁됨으로써
▁텍스트의
▁이야기한다
▁제때
▁춤추
▁의도는
▁지나쳐
▁여기다가
▁테이블에
그래가지고
렀던
신화
▁전산
▁천둥
디지털
만원에
▁다짐했다
▁겨를
▁명실
▁상고
명에서
▁위협이
▁대변하는
집중
화성
▁뒹굴
▁민선
직으로
▁단적으로
유형
▁명목
▁근대의
▁선에서
52
▁든가
▁바랐
▁독일에서
▁주관하는
전반
▁김인
▁자외
군에서
▁신분이
▁생각하였다
we
▁체념
▁문장의
▁청년들이
」)
자신
▁요란한
▁피부를
▁히틀러
채무
카로
▁부탁드립니다
유니
any
▁절충
▁알지만
▁사회공헌
▁순조롭게
▁하필이면
▁깔린
▁실버
▁여관
▁한구
▁소신
▁검토를
▁어리둥절
▁主
ull
▁개국
▁술은
▁본인에
▁새겨져
▁퍼졌다
▁뿐이라고
▁이천십사
▁소셜
▁못하면서
▁만의
▁상냥
▁공개된
▁손에는
품에
▁원도
기라도
▁급속한
▁사안이
▁공동주택
▁깔끔하게
▁전략으로
▁닿지
▁만연
▁스윙
▁드시면
▁정부도
▁취재를
했음에도
▁성실하게
▁시스템에
▁타인에게
쿠스
▁끼여
▁나카
▁맡을
더라는
▁예기치
▁우스꽝
내로
▁오자
▁유년
▁고객들이
아냐
츠가
▁단결
▁인텔
느냐가
▁판매가
타워
▁기금
▁짜여
▁-_-
▁열기가
주십시오
86
▁극한
▁살펴보는
아슬
▁감금
▁다분히
▁불완전
체육관광
▁前
▁쯤
조선의
cess
▁자연적
▁질서가
▁온몸으로
8,
▁가느
▁나르
John
▁개선이
▁기계가
▁생각해보
▁대포
▁시신
▁접한
▁카네
▁멈췄다
▁한때는
실장
▁밤은
▁모르는데
▁운영되고
프란시스코
▁홈페이지에
▁바란
▁카톨릭
▁가지고는
품질
▁기밀
▁튀어
▁찬란한
했으니까
▁돌아가야
▁완전하게
▁이야기이다
▁고인
▁사슬
▁심미
▁기술로
▁크기를
▁공통점이
▁발표하고
커피
▁광고에
▁성실한
▁내려서
▁덩어리
▁일까지
▁걔가
▁달은
▁바싹
센터가
▁관점이
▁삼년
▁향을
▁발언은
▁김정은이
);
▁리드
▁제지
단계로
▁보조금
▁만들어낼
▁보여집니다
▁무르
▁평가에
▁프랑크
▁교수님이
▁금융감독
▁훌륭하게
▁살펴보기로
▁열기
▁끓어
▁애도
▁주식이
▁지어진
▁들어있는
이래
▁남기지
▁살해한
▁열정과
▁만들려고
▁북쪽으로
▁가능합니다
해본
▁잘게
▁정제
▁그림에
▁단호한
▁아줌마가
란에
▁코칭
▁가족들
▁방식과
▁올리브
▁미치게
▁선수들
▁단계적으로
기존
분께
▁심오
▁뛰어내
▁입맛을
Al
▁돌로
▁듣던
▁계열사
▁멀어져
▁지구촌
▁쓰러졌다
▁우주를
보육
찬이
▁의기
▁업무가
▁책임질
▁구축하는
르를
치듯
아가고
▁Sci
▁대표되는
▁추정되는
▁메신
▁승마
▁무대로
▁산업혁명
▁선생님과
▁독자적으로
▁권을
▁네놈
▁이라는
▁동원하여
▁폄
외국
▁창시
평가를
▁그랜드
▁맺었다
▁본성을
▁주관적인
▁얹어
▁갖추지
▁이라고
▁깨달음을
▁많거든요
▁표현했다
▁개씩
▁넋을
▁수료
▁잠잠
▁산업화
▁예외가
▁어렵지만
▁고정된
▁차별을
▁부모님의
▁목도
▁적폐
조직의
▁기점으로
▁흔들리고
▁맞대
▁생각지도
▁좋아해요
밸리
▁택배
▁막아야
▁희한
▁까닭이
▁않음을
▁학생에
공자
내면서
▁각별한
▁들었지만
▁환자들이
▁했었습니다
air
▁찍을
▁신부가
▁이기고
▁생각됩니다
▁솥
▁가로지
▁만나보
▁아무렇게나
아로
▁그때그때
▁조사하고
▁이상하게도
덩어
시네
▁GM
▁듣자
▁미술관
▁악마의
▁절실히
▁파악해
▁집계됐다
▁퇴원
▁전부를
▁생각했을
▁통합진보당
▁흘러나왔다
나왔다
▁업체는
▁읽으면
▁모더니즘
▁금방이라도
절은
▁열람
▁특별법
▁현재와
▁1997.
▁고착
▁문은
▁그룹이
▁나무로
▁반갑게
▁움직인
▁가족들의
▁머지않아
▁차이에
▁계속적으로
▁아름답다
혁의
▁멸종
▁가늘게
▁소득을
▁외할머니
▁책임지는
▁목구멍
▁보잘것
▁차지할
▁알레르기
프에
▁LA
▁육체의
▁경험하는
▁말하는데
請求
▁멀다
▁성가
세상에
학교에서
mg
▁정우
내셔널
▁세대를
▁아들로
▁”
원자
았는지
▁턱없이
▁후자의
여곡
▁견고
▁척도
▁똑똑히
▁시각은
▁시절에는
▁다큐멘터리
▁청소년들이
▁직원들
룡이
rac
▁난리가
▁대대로
▁뾰족한
▁이들도
▁전쟁과
▁여러분께
▁있겠느냐
댄다
▁농축
▁개구리
▁{
▁東
장구
▁아끼는
▁4000
▁뜻입니다
9,
월을
▁축산
런트
▁그물
▁서열
▁나경원
▁필요성
년대부터
▁경기도가
▁되겠네요
▁2%
▁극소
▁이규
▁짧고
▁기업인
▁대사가
▁Phil
서기
▁국물
▁잠에
적이기
▁규정된
▁화려하게
▁팔로
▁것일까요
▁집중하고
르륵
ald
▁정찰
▁고양시
▁단점을
▁소요되는
▁원료
▁제거하고
▁라스
▁애원
▁편지는
▁만든다는
▁보인다는
▁너랑
▁카라
질렀다
▁사상에
▁원리가
▁일에서
▁탓으로
▁알렉산드
루미
▁신종
▁계속하고
▁류현
▁시도가
▁열리
▁요게
▁통영
▁마사지
▁본질에
▁상품으로
▁측에서는
특위
▁한옥
▁드레스
▁싸움에서
▁대령
▁외삼촌
▁우병우
노를
▁됐지
▁숙련
▁신에
▁말인데
브이
▁서게
▁기숙사
▁설득력
▁사이트를
▁날뛰
▁도화
▁몽고
▁영영
▁성과는
줌으로써
▁소설에서
▁국고
▁공급을
▁움직인다
formation
▁맛볼
▁태조
▁밤마다
▁창업을
▁혁신적인
눈이
쳤지만
▁논리는
▁의원들
▁펀드의
▁행복은
갈이
▁조경
▁집에는
▁피곤한
▁알아보기
우린
▁겪을
▁한상
▁보수를
▁콘크리트
▁이름에
▁일상적
▁아버지도
▁자랑스럽게
가만
▁으레
▁화상
▁졸업생
▁취지로
▁불참
▁창당
▁싸움에
▁국악
▁지우
▁진다
▁어울릴
▁독자들이
▁지양
▁내적인
▁사냥을
▁만들었고
▁지칭하는
▁커뮤니케이션의
▁대관
▁죄악
▁아빠를
▁피의자
▁IP
▁vs
▁병든
▁씨랑
▁후려
학교의
▁Tim
▁교육청
▁없고요
▁허리에
▁구분된다
▁표현한다
▁압록
조건을
▁그날의
▁않거든요
▁나두
▁비법
▁직권
다니고
▁방송은
▁보도에
▁합당한
▁오프라인
▁위치하고
배추
블리
▁소파
▁썩은
▁상관없는
▁알렉산드로
티오
혜는
▁왕실
▁초인
▁날이면
▁절박한
▁시기에는
▁Korea
▁부족해
▁싶은데요
류로
전지
▁가서는
시쯤
▁디즈
▁우즈
▁시작될
▁지점을
▁형제가
▁직원들을
▁과대
▁치마
셨다고
▁정원을
▁차의
▁토의
▁동유럽
▁생명은
▁증언을
▁핵심이
▁중입니다
▁其
거짓
인상
▁시각에
▁정할
▁마법을
▁반발을
▁본다는
▁고마워요
9%
살에
▁다자
▁알뜰
▁입대
▁치워
▁코카
▁균형이
▁것인지에
▁미디어의
곳의
▁이송
▁주소를
▁청년의
▁급속도로
▁가태
▁고충
▁짓이
기관과
▁찾아뵙
▁폭행을
▁결혼식을
▁호소했다
▁뛸
▁국외
▁백성의
▁경기지역
▁내에서도
▁형식적인
▁불러일으키
처벌
▁운항
▁노력한
▁봉투를
희와
▁온라
라구요
▁결혼이
▁먼지가
▁역사학
▁바라보던
▁않으려는
▁무엇일까요
▁벌거
▁형수
혁명을
▁애썼다
▁제약을
agement
▁빙긋
▁주연
▁하곤
▁하부
업무를
▁도시락
▁젊었을
▁후반에
▁주변에는
▁아시겠지만
▁원내대표가
▁상공
▁계급의
▁신문이
▁형성에
▁이뤄지는
▁잠깐만요
▁담그
▁떠밀
▁북극
해주지
▁산책을
▁캠페인을
▁평화로운
인지라
▁그전에
▁약간은
▁이때의
▁돌아섰다
번을
▁인조
원에게
▁패러다임
▁사람이에요
▁발에
▁Ibid
▁발휘하는
▁공청
▁영등
▁방안도
▁의견은
▁이름만
탈을
▁판에
대부분
아직도
▁받거나
▁어렵기
▁주었고
▁단독으로
▁들어보시죠
▁비방
▁허다
ociety
▁뒀
등기
▁하나둘
▁여태까지
▁퀘
토로
▁장난을
▁프로가
▁만족하지
▁선봉
▁자들
결국은
▁고집을
▁기대해
▁팀장은
▁숨진
▁테레
됐어요
mann
▁Col
▁나뉜다
이었기에
▁사령관
▁울면서
▁제품과
▁찾아낸
▁뺐
▁결실을
▁내리기
▁아쉬워
간담
▁규탄
▁초빙
▁기록하며
▁기기
▁떠들썩
▁마법사
▁치밀한
퍼를
iter
▁범죄에
▁복수를
이었지요
▁이야기들이
▁法律
▁거부할
▁지시에
▁시작되고
▁하기에는
▁깐
▁꼽을
▁학교와
▁즉흥
▁∙
▁국무총
▁시간만
▁추억이
▁내용이었다
▁대한민국에
▁사악한
▁연극을
▁혼란이
▁날이었다
▁존중하는
카이
▁고함
▁누운
미술관
▁합의에
설비
▁늑대
▁맥도
▁구두를
▁찬찬히
▁외식
▁투사
▁데스크
하겠는가
▁알아들을
▁뮌
▁껍데
▁반지
▁수군
▁통역
▁논리로
▁1947
▁사건에서
소시
▁왕비
▁유유
▁언론에서
▁공구
▁먹자
▁죽자
아들이
▁다르다고
▁민감하게
▁덫
▁남산
집단의
▁모르기
▁조심스레
▁백일
▁라이벌
몰라
업체에
회사인
▁연애를
중소기업
▁만들겠다
족과
▁아찔
상태가
시구요
▁자네의
▁매일같이
▁공용
▁차장
▁도지사
▁잡으면
▁두드러진
▁알릴
▁그곳의
▁내셔널
▁나가겠다
▁압도적인
▁같을
정부와
▁이윤을
▁장관의
무대
▁노스
▁화석
▁그릇된
▁일에는
▁것이었고
')
57
▁엥
▁자유무역
▁하십시오
청사
▁뒤바
▁잠긴
생활이
▁are
▁기온이
▁만남이
▁법학
▁질질
▁친화
▁붙잡아
▁듯합니다
▁죽어가는
신데
▁달릴
▁옛날의
▁회사와
갱이
▁빛과
약으로
▁사방으로
둔다
▁시댁
▁관념을
▁실체가
▁열여섯
▁슈퍼마켓
▁필요한데
▁합니다만
합병
▁거머
▁이상에서
▁불충
▁나라도
▁뒤에야
▁띄었다
▁베이스
▁씨네
▁부분과
▁어둡고
▁정교한
▁지도부
▁투자자들이
▁예사
시면서
▁발견이
▁들여다보고
▁때문이기도
··
▁02
▁We
▁본선
▁케인
▁후예
▁순서로
▁뛰어들어
▁비교하여
▁Cor
▁사장을
▁영화로
▁존경을
답을
▁공신
일전쟁
▁우여곡
▁진행해
▁대표이사
▁의원들의
지주
▁no
▁움찔
▁청정
관리에
▁기다리며
▁외환위기
가입
▁들썩
▁멈출
▁녀석을
▁단점이
▁중국으로
기대
▁교향
▁몇십
▁NGO
▁본능적으로
신보
▁김춘
▁파크
▁사랑한다
RT
▁대에
▁이회
▁잔치
가지가
avid
▁맡기는
▁바울은
▁집회를
▁수용하는
▁진을
공사를
나가야
▁가니까
▁소감을
▁책상에
▁크기는
▁상당수가
▁비자
▁짧아
▁많으니까
격의
식당
▁손아
▁안지
▁어떻든
▁유혹을
▁이미지와
▁생각하세요
▁알몸
▁조수
▁짐짓
▁2001.
▁뗄
처의
▁7)
▁김희
▁기분은
▁우연한
현장에서
테러
▁닫혀
▁자료의
죄는
▁나위
▁어마어마
건물
▁부쩍
▁대륙의
▁대표이
▁호기심이
활동은
▁지루한
▁통일의
수급
▁타인을
▁다행히도
▁마지못해
▁실패했다
▁정보기술
▁해결하고
▁아랑곳하지
총회
테랑
▁빈민
▁코가
▁크림
의식의
▁그래픽
▁오르지
▁장소는
▁매장을
▁시도한
▁직후에
▁희망과
▁작품들을
▁반납
▁완결
▁항공사
요리
▁관대
봤어요
행위는
▁울타리
▁다름없는
▁입장에서도
줄에
▁자만
▁담보로
▁따지는
▁올해부터
▁앎
▁사러
ors
▁수장
▁번번이
▁실시할
▁의지의
▁인류는
▁안심하고
르와
집고
▁누비
▁유흥
▁자책
▁미지의
▁상반된
▁내년부터
목과
▁장병
▁추대
어차피
증가
▁아래와
▁적립식
▁아파트의
필드
환율
▁바치
▁진시
▁합계
▁좋을지
▁친구인
▁행여
▁노동당
▁메르스
▁우유를
▁간결
▁남미
▁질린
▁골키퍼
▁부산에서
이름
oss
▁번개
▁350
▁갖추어
▁매출은
▁머리와
▁유권자
▁초라한
레인
시인
영수
▁김남
▁독이
▁엮어
▁죄는
▁독일은
▁의사소
▁자그마한
▁아직까지도
▁섭외
▁이이
▁용서할
▁전문의
▁그나저나
커가
▁900
▁걸리고
로이
순의
▁거닐
▁정태
▁집결
▁틈에
▁나지막
▁떠도는
▁매체를
▁화장실에
나면
▁면치
▁분간
▁틀에
상당히
▁소통의
▁변한다
▁진출한
▁예비후보는
문화에
▁권력은
▁우아한
▁인정한다
▁샘플
평론가
▁뱅
▁기세
▁목덜
주에게
▁멋대로
▁순이익
▁나흘
▁루터
▁암기
갔는데
▁우리말
▁이래로
▁기쁨이
▁가능하도록
echn
▁시장점유
▁지나갈
▁창의적
▁움직임에
▁Social
카메
▁돈만
▁대화에
▁절실한
▁정의는
▁비극적인
▁작가들이
뉴욕
▁뇌졸
빠르게
▁전략과
▁이전부터
▁펌
▁끈다
▁아낌
▁전철
▁이곳저
준을
▁제의를
▁주식에
▁투입해
저러
▁애완
▁염소
▁의욕을
▁샅
겨서
▁손흥
▁칭송
▁아이폰
▁연대를
▁텃밭
▁날짜를
또는생삼
미도
▁난데
▁떼를
▁바야
▁커진다
다닌
▁權利
▁도망쳐
▁원리는
플랜
▁돌발
▁반역
▁숲이
때문에
바람을
rist
거늘
▁만들게
단장
ven
▁qu
▁분만
▁신속히
▁부적절한
▁활동으로
월말
줄게
▁고부
▁급성
년에도
▁구축을
▁누구야
▁불투명
▁시진핑
▁추진한
▁톡톡히
▁하나밖에
▁안타깝게도
▁버무
▁별의
▁생체
▁고향인
▁떼고
▁국민과
▁American
▁무표
▁검증을
▁찾아간
▁시베리아
▁2000.
▁박병
▁관리할
▁느껴지지
中國
쟁의
▁역학
▁절단
▁키를
▁기여한
▁의식에
▁노려보았다
것을
▁마포
▁찾으러
▁것만으로
▁윙
메가
▁애로
네스코
▁선물이
화되면서
▁부여하고
▁빌린
▁되지요
▁자질을
▁포괄적인
ru
거리다
▁여긴다
▁돌아보며
▁저널리즘
▁손끝
▁저랑
▁짐이
▁가을이
▁범주에
▁소유자
▁속도는
▁여당이
▁하시면서
나니
듯하게
▁난폭
▁높기
컨설
필이
▁데까지
▁유럽연합
▁추가적인
▁했었어요
겼던
ile
▁간식
▁활을
보려고
▁어지럽
▁꼼짝도
교실
▁받던
▁먹어서
▁임직원
▁찾아올
▁간단하다
▁확대하는
......?"
▁넘고
▁말리
▁원장이
▁도착했을
남에
유한
▁pl
▁개울
▁맛과
▁속셈
심하게
▁가파른
▁그녀도
▁논란에
▁요소들이
네스
▁'3
▁바친
▁씨앗을
▁엄마랑
▁선택하고
▁우산
했더니
▁온다는
▁높아지는
▁차분하게
즈에
-15
-18
고시
▁지울
화시켜
▁골프장
▁당국은
▁방향은
▁준비했다
▁동무
▁수락
칩니다
▁김경수
▁매스컴
▁군산
▁수돗
▁갤럭시
▁내놓는
▁보고자
▁선배님
▁순서대로
▁부릅
▁워터
▁죄다
▁태자
▁편향
▁밤늦게
▁자유에
▁1956
널드
▁갱년
▁의사표
▁교수로
▁피해는
▁해주면
▁혼란에
▁회담이
▁영호
▁남양주
▁활기를
▁기업에서
▁뉴질랜드
▁명심해야
▁어우러져
▁이동통신
가르
순을
▁교재
▁대감
▁통에
▁전국을
▁언급하고
▁은행에서
▁에스엔에스
▁비엔
▁대표도
▁선풍
▁기다리던
▁쏟아졌다
너도
좋게
~50
▁sp
▁사채
▁프로모
▁받는다는
웠는데
▁의혹에
▁훔친
▁과일을
▁출발을
독재
스톤
ius
▁값진
▁농지
▁체코
하셨던
▁방송사
▁직업에
▁시장으로
▁헉
과장
lex
▁결속
▁과소
▁집무
발전의
나에
▁면접을
▁축구를
bridge
▁너가
▁경험할
▁음식에
이만
▁미학
▁협상에
▁즘
격은
▁(2
▁同旨
▁산수
▁조류
ited
▁가사를
▁외적인
▁이십칠
▁즐겁고
자아
직하게
▁친구들의
...'
▁상상력
▁시달리고
▁꽃은
▁난방
▁어지간
▁자원의
▁하든지
드라구요
달러를
▁일었다
▁자리하고
▁반이
▁강도가
▁계속할
▁용서해
▁이산가족
▁핥
10)
▁배우게
▁충분했다
▁허용하는
AS
흐로
▁눌렀다
▁덩달아
▁취득한
하옵니다
하단
▁공명
▁극우
▁유람
▁정정
▁지리산
▁마지막까지
▁난무
▁수에
▁툭툭
업으로
▁딸에게
▁지상의
▁짜증이
▁것조차
▁핑계로
▁生
▁그립
▁정치인들이
▁금이
▁주었
영화를
인이나
▁가맹점
▁노인을
▁파도가
액에
형사
▁아니므로
▁운동으로
개방
▁추워
▁수학을
▁창조의
▁화장을
▁확보해
▁시작하기
▁댕
▁거랑
▁휴전
▁모르나
▁바깥으로
더를
▁금연
▁미달
▁않냐
▁온전
▁입점
▁개정을
▁會社
▁방북
기관은
▁기억의
▁올해로
기관으로
턴은
▁강철
▁경기장
▁되었기
▁사기꾼
▁왕에게
▁감리
▁끝도
▁선정한
ck
▁對
지부
단지를
▁개최된
▁립
중개
uss
▁언더
▁끝에서
▁아니었을까
81
NC
▁구독
▁몸매
▁자수
▁존재와
▁취해야
▁밉
▁떠서
천으로
▁개인정보
▁경기도의
전력
▁섬을
▁세습
▁학위
▁요정
▁두었던
▁진행되었다
▁브래
▁시련
▁둘째로
▁리더의
▁싶지는
▁직접적
▁분입니다
▁ᄃ
저럭
▁중성
▁도로가
화ᆞ
▁귀농
▁늘어놓
▁선수들을
▁외국인이
▁궁금합니다
83
커를
stit
▁연관되어
▁싸고
종으로
▁없어져
▁전략이다
각에
감초
▁쌓는
▁사냥꾼
▁깼
벗은
ake
▁감돌
▁도적
▁인사는
▁기껏해야
▁모의고사
▁무엇이냐
▁아십니까
▁움직임은
조례
▁뒤처
▁잃어
▁때리는
▁축축
▁했단
럭저럭
ents
▁선택과
▁오징어
▁해석은
▁돌아간다
▁이기적인
붉은
두었다
▁최고로
▁하더라
▁동쪽으로
▁의존하고
▁넘길
▁열풍
▁유선
▁가격의
▁됐지만
▁그렇게도
▁발표하는
▁쌀쌀
▁주시죠
▁공자는
▁내걸고
▁사진과
▁작품들이
▁댈
▁거치
▁에코
▁기관을
▁눈앞의
▁묘사한
평의
ove
▁구약성
▁내려야
▁사업과
▁모습에서
OT
면접
을까요
▁구절을
▁느껴지
▁번이고
ission
▁입게
▁문제에서
▁아슬아슬
▁일개
여러분
▁동안에는
▁금은
▁개그맨
▁있으면은
암을
▁냉정
▁스승의
▁앰
니에
▁이것에
▁현재에
▁아벨
▁연행
▁입금
▁말투로
▁쿠데타
학술
▁권영
▁충당
▁견디기
▁이끌었다
▁1998.
세인
제주
권력의
▁순간의
▁전해지고
리케
씨에
언정
커는
▁거룩
▁바이어
▁운영해
▁둘러싸인
▁함께하고
82
ᆞ미
▁가든
▁뇌물을
▁뭐랄까
▁비스듬
▁여건을
▁처지를
디다
▁말까
▁방탄
▁사죄
▁이희
▁과학자
▁물건은
언의
웅은
ute
▁계파
▁민요
▁장정
시험을
▁이루게
▁결혼하고
▁이어가고
▁쾅
자꾸
▁노을
▁조급
하신다
▁마련이
▁맞는다
▁태권도
▁펀드는
▁대답하지
▁사람이고
▁支
▁당당
▁맞붙
▁저건
▁종북
▁친다
▁(7)
▁돌아가지
▁발견되는
▁발전하는
▁권총을
▁풍성한
▁집중하는
▁글에
▁변액
▁빨려
▁파리에서
▁엘프
▁플루
니아의
▁깨닫는
▁오사카
▁이어가
▁돌아다니며
▁선과
▁지긋
▁터지는
▁생각했기
▁아날로그
▁자기만의
해내는
▁가기로
▁발행한
▁비과세
▁확대할
▁땅바닥에
▁일이라도
LS
▁강수
▁성수
▁컴퓨터에
▁들여다보면
열한
▁도덕적인
▁소용돌이
▁참가하는
▁궁리
▁휘청
더구나
▁그치는
▁동네에
▁잡는다
▁증거로
▁지장이
▁활용을
▁두려움에
▁머릿속에서
▁쪄
▁청량
▁포섭
세기를
님께서는
▁가정은
▁면밀히
▁살림을
▁샌프란시스코
▁위촉
살의
▁국장
▁순진
▁피자
연도
ix
너를
렁한
▁웃기
▁드루킹
▁먹으며
▁것이어야
▁멀티미디어
▁가슴으로
예의
일째
▁니콜
▁부리고
조달
▁꺼낸
▁내놔
▁남자들
▁반복적으로
DS
▁대위
▁마요
▁웰빙
▁진짜요
메르
▁요란
urch
▁게임에
▁목숨이
▁버릇이
▁인터넷의
흐름
▁구로
▁본성
▁우거
였을까
▁배우기
▁여자도
▁시행하고
▁하느님이
▁곡이
▁발톱
▁자긍
▁퇴진
명이나
▁감안할
▁고르는
▁들이닥
▁바닷가
▁스파이
▁잘생긴
▁폐기물
▁나타나서
▁일상에서
▁정신으로
▁아이스크림
▁양지
▁평면
사와의
규의
(197
▁맡았던
▁쓰여진
억을
요법
위생
▁선점
있는데
▁공연히
▁했어야
▁나왔다고
황제
▁기절
▁달여
▁로렌
▁병은
▁등장을
▁욕망은
led
▁개인에
▁정답은
▁멧
네이
▁바깥에
▁1995.
대화
▁재킷
▁견해에
▁열일곱
▁영국에
▁부모님은
▁동남아시아
▁못생
▁음란
▁4~5
▁길들여
▁다름이
▁제작된
▁가슴속에
▁문화관광
▁어린이들이
▁동전
▁마누라
▁맞대고
▁유발하는
(11
▁신명
▁떨어졌
▁백오십
▁안개가
▁원인에
▁떠올리며
문인
▁개혁에
▁내밀고
▁되고네
▁바지를
▁홍보를
▁중공
▁차례나
▁투쟁의
▁Book
▁밀접하게
▁설득력이
▁왔다갔다
▁개별적으로
ott
▁놓쳐
▁저명한
▁준비에
900
▁오대
▁그것만
▁영역은
▁모니터링
▁해는
▁행성
완전한
▁기대는
▁새롭고
▁양심의
▁공경
▁기적을
▁시점을
▁받았어요
▁보이면서
▁얘기예요
▁行
▁바래
▁대개는
▁그래야만
피에
▁공자의
▁발달한
▁보여야
▁책들이
▁하셔서
▁시작했는데
▁안드레
▁ad
▁금감
리아가
▁수명이
▁예상이
▁충고를
슈퍼
ᆞ사회
▁연탄
해가는
▁그릇에
▁마시지
▁현금을
▁주민들에게
▁믿게
▁양면
▁과장은
▁블랙홀
▁장시간
▁물건들을
비나
틈이
▁일리
▁외교부
▁地
▁횃
테의
▁초월한
▁대기업의
▁한국은행
먼은
▁여진
▁저해
▁형법
선수권
▁덴마크
▁빛나고
▁소망을
▁형식은
▁Cent
▁보고서는
▁공교롭게도
▁교외
▁띈다
▁미역
▁가시는
▁끊었다
▁섹스를
ger
▁채운
사령관
▁차원으로
▁얘기에
▁하소연
▁공정거래
▁아버지에
레오
▁수선
▁어둠의
▁김규
▁낳게
▁발령
▁과장된
▁상상해
▁선생을
시켰던
▁싫다고
▁홈쇼핑
세권
!!"
▁국도
▁총재
▁손상을
▁있단다
▁무엇으로
▁있는지에
▁배심
▁고난을
▁분석과
▁떠올리게
▁운영한다
▁힙
점인
▁강성
▁구출
프라이
▁슬라이
▁주식은
▁안타까워
보였다
2%
▁결별
▁고이
▁대뜸
▁늘어서
▁생전에
▁증거는
▁티베트
▁불안정한
▁했다라고
▁무의식적으로
IE
들며
연구회
▁지나가고
4%
▁헌재
▁무엇에
▁정권교
▁강화해
▁사대부
▁저번에
▁내용들을
▁있었잖아요
▁줍
제발
교육감
▁맞아서
▁목욕을
임으로써
▁비난했다
▁여겨지는
▁시종
갔다가
▁아침이
▁하루종일
율과
▁BC
▁엉뚱
▁해줘
다보면
버스터
▁없구나
▁드시고
▁확대되고
재미
통으로
하고예
▁사태는
▁참여가
▁시장경제
▁거제
▁관장
▁장벽
▁무기로
▁실천에
색에
철한
▁수분
▁숙소
▁영재
▁순진한
▁예술은
▁근로자의
▁떨어지게
▁명령했다
▁정치권의
이었거든요
▁기고
▁납작
▁요거는
▁위반한
▁첫사랑
▁됐는데요
▁아니고네
▁포인트를
포장
▁버럭
고리를
▁시비를
▁뒷모습을
충남
사고를
▁유형은
▁적용이
▁예정입니다
▁AP
▁동대문
▁일관성
▁잡히지
▁이뤄졌다
▁전문가를
▁주민들을
▁봉사활동을
민간
판사
▁박진
의식을
▁고기가
▁일가
계획에
진다고
▁신에게
생활에서
▁물질적인
고양
ret
▁받도록
▁전달하고
▁밸런
▁서러
▁조정이
▁불가피하게
▁잦아
▁큰소리로
▁맞닥
▁창단
▁가라고
▁고객과
▁상대적인
정부에
▁독자가
▁일관되게
장사
▁노리
▁최승
▁개인을
▁경찰과
▁규모에
▁상황도
▁선택했다
▁킨
▁말게
▁유영
▁아니나
▁용도로
▁웃는다
▁행복할
하마
▁로열
▁모음
▁복을
바닥을
▁스타트
▁열여덟
▁했느냐
▁독창적인
▁쳐다보는
강과
일치
▁쿠바
대상이
덩이를
▁시그
eph
▁꾸민
▁찍힌
raph
▁계시고
▁공장이
▁기어이
▁cont
▁경우라면
▁망할
▁흐를
▁느낌도
▁이마트
)2
ext
▁거창
▁미숙
▁붓고
▁웬만
▁개의치
▁국회는
▁일이죠
▁저소득층
▁누구에게도
TX
af
다오
▁사학
쳤다고
▁가족에게
▁동아일보
▁甲
▁승강
▁한들
사업자
책임을
▁가하는
▁업체에
▁물론이다
▁제공하기
▁좋겠는데
▁매료
조에서
▁않겠지만
▁History
손의
(50
▁2:
▁늘릴
▁산문
▁관점에
▁라이트
▁준다면
더가
야에
편집
▁천년
환경이
▁세심한
▁추진한다
화폐
▁쟁취
박람회
▁○○○
▁기본이
▁옮기고
▁美
블로
▁맞닿
범으로
▁관계와
▁하는지를
자적
▁뭐고
스라는
▁감안해
▁과학을
▁기색이
▁세인트
▁누르
시네요
▁사유의
▁왔으며
▁뜻밖에도
▁어려움에
▁돋아
▁떠받
▁그랬지
▁정했다
▁조선은
▁통로를
▁있겠네요
Un
▁SO
▁불출
▁훤히
▁들으셨
▁할지도
▁관상
▁김밥
▁쓰이고
▁예산은
▁일대에
▁환경은
▁1953
▁가능하며
▁가득했다
▁도와주고
▁올라왔다
▁지켜보았다
조사에
▁나날이
▁지켰다
년대에는
▁괴롭히는
▁그럴까요
▁생각들을
▁설치하는
윤은
▁벌려
▁오미
▁흑백
▁문명을
▁바람과
▁보지도
▁실천적
▁이걸로
▁부정하고
▁낙천
▁시금
물질이
▁가르친
▁아프가
▁그분들이
▁수수료를
▁먹던
교회는
는지에
▁병원이
▁양반이
시켜주는
▁미안해요
유아
패의
▁겨누
▁궁극적
▁시멘트
▁축제를
▁돌아오면
▁경의
▁뇌가
▁도읍
▁착륙
부장관
▁그날은
▁남보다
▁뭐하는
▁이치를
▁작용이
▁전투가
▁어머니도
▁장안
▁싫었다
▁아동의
▁마르크스는
▁툴
▁지독
▁매달린
▁적으로
▁때문에아
극이
▁둘레
▁테크닉
▁통제하는
비싼
▁공방
문제의
부분에
▁도망을
▁표시를
행성
icy
▁동력
▁무도
▁많이들
▁겁에
▁떡볶
▁연중
▁섣불리
▁이비에스
▁말씀하셨다
▁담가
▁지켰
▁경고를
▁바뀐다
▁감소했다
길의
무사
보리
▁아편
▁되어도
▁세금이
▁업계의
▁증명하는
도어
▁불릴
수들이
▁숨겨져
▁인용한
▁말했어요
▁시도하는
be
▁발각
▁싸서
ambridge
망은
▁설립을
거주
▁손과
물처럼
하려던
▁문장은
▁성매매
▁올린다
▁프롤레타리아
▁北
▁김모
▁레인
▁한우
▁요구는
▁지나도
물가
▁기용
▁신영
에서나
▁섬기는
▁시간이다
-12
▁방의
▁번져
▁전래
▁관련을
▁생산된
▁안내를
요렇게
▁그들에
▁오토바이
▁그래서인지
일날
▁공립
▁밀레
▁풀기
▁놀라고
▁과학적으로
교부
한지
▁여기저
▁임대료
▁누군가는
▁죄송해요
▁않지
▁폐허
▁반하는
▁재학생
▁통일이
▁가치관을
▁제공했다
▁아프가니스
억여
연속
▁되신
▁연맹
홀에서
▁소통이
▁안희정
▁자기와
▁퍼센트를
행으로
▁언어에
▁이해하게
됐기
들일
igh
▁대도
▁바꾸지
고교
라노
▁안방
▁앉을
문제로
obal
▁성서의
▁안녕히
▁알면서
▁다이아몬드
전투
▁논평
▁막았다
▁걸음으로
▁박경
▁총각
바이오
주면서
▁새어나
▁생겨났
▁일기를
▁종교와
형식
▁정자
▁엉덩이
▁국가들은
▁자리잡은
▁제조업체
▁살균
친구가
▁원인과
▁치면서
▁구운
▁왔기
▁대전시
▁많았는데
CO
해지지
▁양심에
▁여행이
선물
▁속담
▁꺼내어
▁불안과
▁겪으면서
▁여지없이
▁집에서는
▁반을
국회의
본부장
▁적나라
▁벤처기업
▁일이라면
▁꺼려
▁단서
▁떼지
호르몬
▁것이든
▁대체할
▁소의
▁어쩜
페이스
▁바탕이
▁대상이다
쓰레
찮게
▁고흐
▁미덕
그때는
▁기관은
▁불공정
▁조기에
▁잊어
land
▁무거워
▁결과이다
▁경험으로
▁냉정한
▁돌이킬
▁바라지
▁상승세를
려구
mon
▁모신
▁이십삼
음료
▁콜롬
▁개혁이
▁신부는
▁어울리
▁털어놓
▁애초부터
미사
▁산타
▁타파
▁경계가
▁데에서
▁손길이
▁유럽에
▁구심
▁저울
▁찌꺼
보라고
페이지
▁개입을
▁대안으로
▁Ge
▁갚을
▁0.3
▁절반을
▁취급을
모에
▁경건
▁평민
▁되지는
▁일종에
▁향기를
▁공통적인
▁할머니를
▁들여다보았다
뚝뚝
▁탱크
▁보증금
▁부산에
▁지방자치단체의
▁꾼
제기
▁US
▁도민
▁감독과
▁논리적인
▁입건
▁정열
학위를
▁가리는
▁운명은
▁유산을
락은
▁느끼기
▁비치는
▁사랑한
▁스케이
▁야당은
화되었다
▁때문이죠
▁현금으로
▁미만의
▁분야로
▁터미널
▁단기간에
▁살아남기
누군
▁마저
▁외침
▁만남은
▁실패할
▁진보적
▁투자해
▁삼위일체
광역
당사
렸기
▁소독
▁호가
▁공개한
▁시켰다
▁좋아해서
▁동이
▁투영
▁내놨다
▁드러날
▁부채를
▁여행의
▁사건들이
닷컴
불안
▁저걸
▁디제이
▁아버님이
▁위치에서
상수
▁공의
▁당나
▁별거
▁그대를
▁손목을
▁스탈린
▁왔다가
▁있음이
▁현상의
▁너희들이
▁앞장서서
▁둑
귀의
불에
폴리스
▁마신다
▁살인을
▁싫어요
▁고려하면
아예
▁골치
경기를
▁대놓고
▁심판을
▁왕국의
▁우습게
▁지금과
▁자녀에게
▁컴퓨터의
▁했는데예
▁생각하지만
▁기웃
▁담요
▁피에
▁LED
▁끝내는
▁힘겨운
▁벤치마킹
▁이용한다
됐어
.0%
▁목걸
▁옆을
▁0.5
▁슛
▁놀랬
▁던지
▁가지런
▁살피는
▁하기가
▁Cont
▁머물렀다
▁생겨나는
▁없어졌다
▁찍혀
▁노하우
▁오랑캐
▁이사회
적이었던
▁순수하게
거부
돈은
지휘
gan
▁대본
들이기
▁문자로
▁재료가
▁지금쯤
▁얘기했던
테일
▁송영
크스
▁면에
수익률
▁기자님
▁눈길로
▁욕설을
▁잊어버리고
▁김미
▁발족
▁중산층
▁떨어지기
뻣뻣
▁물량
▁오실
▁불꽃이
▁클라우
슬렁
콘서
▁기병
▁관리의
▁인사청문
배기
상업
▁사회ᆞ
▁이상하다
빨간
▁오키
사건이
치료를
▁도입된
▁인권을
▁자유로워
▁전화번호
▁튀어나온
끼는
▁노회
▁전립
▁발가락
▁같은데네
▁따랐
▁에미
센터의
▁개발된
▁났습니다
▁반대되는
▁청와대는
▁System
▁김옥
▁전원이
▁주의할
▁몰랐어요
▁생각해볼
▁파격적인
▁政
끼를
눈을
감에서
▁res
▁가슴은
▁중요할
영리
▁쓰며
▁범죄의
▁지대한
보내
▁폭포
▁뉴스는
▁명단을
▁팔짱을
▁행태를
▁고마움을
▁구입하는
▁어긋나는
▁샷
싸게
▁와도
조직을
▁편견을
▁끌어안고
▁헬스
▁소장님
▁심정이
▁들어서면
고전
신인
▁거인
▁덮여
▁상투
발전에
주기를
▁부정할
▁허공에
▁마셨
▁맞닥뜨
▁맞으면
▁의미심
▁합의한
▁언제라도
▁필요하다면
불량
▁가릴
▁석가
줬으면
▁내려갈
▁사업장
▁생겼을
▁전통에
▁표면에
▁현재를
▁씀
겨진
▁0.1
▁때이다
▁섞어서
▁식탁에
▁않기를
▁여행객
▁위원님
▁진나라
▁내다봤다
▁대수롭지
▁하시는데
▁낭독
버리지
▁들기도
▁미쓰
▁배송
▁벽이
▁두드려
▁양념을
▁자발적
였거든요
▁살살
이라구
▁다닌다
▁살며시
▁정직한
▁제기를
▁나온다고
▁되었으면
▁알아보자
▁법치
영향을
▁장사가
▁헝가리
▁흔드는
▁바꾸었다
▁바야흐로
▁성스러운
위인
▁만회
▁더듬어
▁병원의
off
▁쓰라
▁호프
네들이
아이구
▁놓치고
▁실현할
▁같긴
▁궁핍
▁산재
▁유격
▁전선
▁팀에
▁현혹
▁작지만
▁예로부터
▁다양성
▁바다는
▁보았지만
▁이사장은
▁______
▁양해
▁원금
▁일보
▁이거죠
▁제각기
▁구분하여
▁2002.
▁相
▁빛은
▁이양
▁구절이
▁비효율
▁"1
▁모터
▁집단에
분권
소사
▁미팅
▁박인
▁쇄신
▁장원
▁다가오
▁심사위원
▁국면
▁닦는
▁멋있
▁멱
urn
▁콘셉
▁변화된
▁종교에
▁부릅니다
물류
▁악성
▁노래도
▁바람의
▁사표를
▁1996.
▁무장한
▁바뀌지
▁아기의
▁사람과의
▁신빙
▁아키
공부를
▁엄연히
▁이씨는
▁정의가
▁레저
▁실을
▁병으로
▁인력이
조명
▁차차
아니오
▁그리며
▁머리로
▁인식하지
ET
▁중상
센터에
▁당국이
▁부정부
▁선거법
▁선보인
▁틈틈이
▁때문이야
▁작가들의
수다
연극
▁문맥
▁종신
▁주창
▁비교과
▁상사가
시계
▁있음은
▁주식형
▁日本
▁굳건
▁등단
▁선원
▁기업체
▁도의회
▁떠난다
▁분석의
▁빙그레
▁인격을
▁커피숍
▁자격으로
문도
▁음양
▁찬반
▁요새는
▁인건비
(2000
상호
헌은
▁미약
▁통곡
▁반하여
▁수출이
▁토막
업계의
▁특권을
▁평가한다
▁우리나라를
▁락
▁보드
▁Ver
▁소름이
▁역동적인
터테인먼트
▁김학
▁열네
시키게
체스터
▁경제부
려다
▁다크
▁모텔
▁생전
▁연도
▁인가
말라야
▁신세가
▁신청한
▁형식적
교육지원
▁가까이에
▁감초또는
▁해결되지
▁우리나라도
▁거품
▁떠맡
▁상상의
▁평등한
▁기울이는
”,
녀와
으응
쩍은
쾌히
▁문구
▁원본
▁단어의
▁원했다
▁임의로
▁핀란드
▁햇빛이
토스
▁늘리
▁재위
▁카톡
▁뒷모습
▁매체의
▁하십니까
ection
▁뻔히
사업과
▁게임은
▁그거야
▁연계해
▁좋네요
▁채권을
이봐
체적
▁논설
▁크면
▁공연은
▁말예요
▁소유의
▁시도해
▁유치를
▁적자를
기아
▁맡는
▁이쁜
▁중심적인
타자
▁쓰리
▁스프링
▁신세를
▁안간힘을
▁우리보다
▁풀이된다
▁레슬
▁부축
안철수
▁버튼을
▁공단
▁대청
▁켜고
▁허덕
▁사무처
▁측면에
▁메시지는
▁먹다
▁무색
▁시합
▁사건도
▁생소한
▁유토피아
▁충분하지
▁초가
부인과
port
▁충동을
일드
하기란
▁대승
▁흘린
▁계속해
▁증권사
▁교과서를
▁창조경제
▁판단된다
발행
▁한낱
▁스킨
▁헐떡
정부를
▁권리는
▁뿌리고
▁물리적인
▁후보들이
▁上
▁김범
▁반발이
▁보여서
▁오리엔
▁년도에
▁잔소리
예수
▁연필
▁유지해야
빈을
▁개연
▁번식
▁빌리
▁심은
▁추는
▁막걸리
▁목록을
▁불행을
퍼센트가
▁독자들의
▁점입니다
Com
▁다는
▁기사에
▁구별되는
▁그에게서
▁뛰어넘어
▁무언가가
▁프랑스에서
▁녹여
▁멸치
▁제철
▁맞추기
할아버지
악산
▁오케이
▁왕위를
▁노동자가
천한
▁나나
이고네
▁계속된
▁신분으로
▁가겠습니다
▁이고
▁잉태
문학을
▁근본적
▁이해찬
▁되었어요
▁의식하지
▁뛰어들었다
티드
▁북적
▁조계
▁다리는
▁쓸쓸한
▁업체의
▁여주인
▁정치인이
말라
▁공조
▁급급
▁뚝뚝
▁불현
▁아휴
▁동생의
▁표현에
▁못했는데
▁얘기하지
임과
▁건너가
▁성적은
▁깨끗하고
▁못했어요
▁부처님의
▁비행기가
냈던
▁쓴다는
▁적용한
▁시간에는
".
잖니
장소
▁대덕
▁털이
▁허영
▁숙제를
▁잔잔한
▁시행하는
▁터무니없는
조작
▁늦지
▁리스
▁강인한
▁결과다
▁관점은
▁목사의
▁체력이
▁뻣뻣
▁하염
▁향토
▁논란의
▁밝혀야
▁소리만
▁등급으로
▁所
▁道
▁잎이
공사의
▁그림과
대학에서
이었음을
▁관찰하고
▁發
▁홉
▁모을
▁서강
없었다
▁강화할
▁거라면
▁신문사
▁해보는
그러게요
▁상승했다
▁국사
▁가게에
▁무모한
▁내에서는
▁대대적으로
▁뻘
부사
혜원
▁봉착
▁요셉
신청을
▁청나라
▁변함없이
▁오셨어요
르렁
수라
▁바랐다
▁안도의
▁점검을
비즈니스
▁1958
▁많아지고
▁고런
▁파동
겠다며
▁보호할
▁싶기도
▁아녜요
▁파스칼
▁높습니다
▁다중
▁코끼리
▁통틀어
▁팬들이
▁했었죠
현과
▁넣지
▁반론
▁식용
▁음네
실하게
▁되고자
▁실었다
▁집안을
▁1929
▁말하기도
▁한국경제
자율
▁Be
▁배우지
▁설정한
▁통과한
▁막판
이천십
▁무서워서
▁대금
▁삼가
▁권리와
▁불규칙
▁없어질
▁늙어
▁털썩
▁올리며
▁잘해야
▁손가락이
▁끼얹
▁빼면
▁문제삼
▁신호가
▁의지에
▁명백하게
▁방안으로
자라
▁알리기
▁줄어든다
▁힘들다는
▁준비했습니다
링은
ateg
▁기구를
▁이천십삼
빠진
▁걸터
▁자료로
▁거부했다
▁수상했다
▁이분들이
▁선생님들이
방문
▁GE
▁갯벌
▁빚은
▁말리는
▁살리고
▁생산에
▁돛
양성
▁경부
▁근저
▁깃발을
▁눈길이
▁분노와
▁증가를
▁따뜻하고
▁어려웠던
▁알죠
▁염상
▁전자의
니까예
▁남경필
▁서명을
▁와인을
크라이나
▁때문으로
요구
▁튀김
▁틀림없었다
검이
쌌다
▁기침
▁늦어
▁달랑
▁수표
▁소비가
가상
▁사관
세계에
체계가
▁사모님
▁일이든
▁효과에
▁국민들을
▁반박했다
▁성적으로
▁파괴하는
▁김관
▁성행
▁자물
▁좌석
▁폭염
▁von
▁보살펴
▁보고했다
▁안쪽으로
▁한순간에
▁콕
▁졸라
▁황토
▁모차르
▁법칙에
▁유기농
▁군인들이
▁발전하고
▁변화하고
▁줄어들었다
브는
▁구태
▁마가
▁우발
▁전동
시설에
▁업무의
입은
총독
▁집어들
ae
▁그을
▁장영
▁천정
▁Bar
▁사태의
▁시달리는
▁1999.
업소
▁캄보
▁가지에
▁힘들지
▁구조적인
▁시사하는
▁자치단체
▁민주주의가
▁쌤
속도
▁으로
호흡을
▁그곳이
▁모양새
▁분리된
서운
▁소피
▁음향
▁평을
태평양
▁개발할
▁시의회
셨는데요
문동
섭의
세도
과장은
▁따스한
▁멀쩡한
▁중세의
폭탄
▁시립
▁부문에
▁시까지
▁은밀히
▁삼성전자는
▁만류
▁접시
▁최재
▁얼마를
▁취한다
▁친구들도
디에
▁코트
▁구성돼
▁여자로
▁음성이
▁에드워드
피고
▁쓰일
▁막무가
▁변호사를
▁커뮤니케이션을
리언
저께
▁뒤쪽
였으니
▁결심한
▁달려온
▁대여섯
▁두터운
▁무슬림
▁실시된
▁많았지만
▁MB
▁kt
급으로
당신의
수에게
▁가야지
▁부대를
▁중심적
▁동안에도
▁시간이나
▁위험성이
▁극단적으로
책의
▁불린
▁헛된
▁감성을
▁운영이
▁국가보안
▁괜찮습니다
▁분개
▁역도
▁전가
궐선거
▁꿈에서
▁위안을
▁파악하지
▁마이크로소
▁각계
▁신통
▁입김
했어야
▁되네요
▁나온다는
▁후보에게
▁en
▁基本
▁낱낱
▁스킬
▁조성하는
▁노동자들은
광은
▁쓰레기를
▁학생에게
지성
▁契約
▁격파
▁곡은
▁국채
▁송이
▁잠실
▁채울
▁처리가
▁애플리케이션
꼬리
리시
브가
hip
ole
▁안중
▁후임
▁수석이
olution
▁끄고
▁소쉬
▁중장
▁차도
▁포토
였기에
▁물기를
아카
▁웃지
▁웨이
▁퇴임
▁교류가
▁왕으로
▁요청에
▁치밀어
거래를
▁전부가
▁피아니
▁하자면
▁인플레이션
곡은
▁꽂아
▁타면
ould
▁썼는데
▁독자들은
▁지혜로운
▁깨진
▁미인
▁붙는
▁중생
▁한낮
▁총체적
▁치러야
▁판소리
▁자녀들이
▁株式
▁평상시
▁가능했다
▁이뤄지고
나쁜
산한
▁다독
베트남
▁원장님
▁작가와
▁캐스팅
▁이미지의
▁特
▁바빌
공학과
내려고
▁보려는
▁익숙하지
▁타기
▁꿈에도
▁이해한다
▁입장에선
연방
▁방한
▁신전
주어야
▁다정한
▁신학의
▁이십이
▁실패하고
▁전국적인
▁것이거든요
▁사람들이었다
보지도
았으니
▁뿐인데
▁실수가
▁이끌려
▁충남도
▁되었을까
▁임대주택
▁촉구하는
대형
시적
▁드셔
▁보스
▁직감
방식은
▁보람을
▁사업이다
▁어머님이
▁프랑스는
작년
▁붙일
▁수지
국가를
▁글자가
이잖아요
▁머리카락이
문화와
▁간담회
▁당국의
▁대중적
▁식당을
자들로부터
)3
▁사계
▁후일
▁넘기고
▁믿음의
▁보이던
▁슬픔이
▁대구에서
공립
번역
▁가실
▁그밖에
▁넘기는
▁질서의
▁믿습니다
▁어떠세요
이놈
▁본보
해지자
▁근무하고
▁물어보는
▁으음
▁당장은
▁세차게
▁스폰서
▁언제쯤
▁활성화에
션은
▁검열
▁난이
▁Cal
▁주장과
▁대선에서
왕과
▁시티
▁의외
▁타율
oint
▁무뚝뚝
▁계획대로
▁창출하는
▁영하
▁오오
▁원어
▁주제의
▁체결한
▁형성과
▁여러분도
▁가열
▁개선에
▁때에만
▁모임이
▁인정했다
▁조절하는
지표
▁문단
▁선험
▁신형
▁나이도
▁사유를
▁통계를
▁회의는
(13
랜드는
▁선생님도
▁解
대금
불로
파트
▁어진
▁파손
메리칸
스타일
투자의
▁시각적
▁상태이다
균의
누나
정동
▁위가
▁경쟁에
▁도깨비
▁실제의
▁정반대
▁진로를
▁일으킨다
다녀
천군
탈로
푸르
ubl
▁유고
▁쿠폰
▁포옹
기간은
산업에
▁잘한다
▁여자들의
▁자연적인
▁곁들여
▁너희들
했으므로
▁러시아는
▁전통시장
▁대체적으로
▁계량
▁마칠
▁회식
환경의
ward
▁존재이다
달래
후배
els
▁부터
▁알어
▁응징
화라는
▁토지의
▁특징으로
▁시작하겠습니다
▁상소
지금도
설립
아에
▁cit
▁공공의
▁되겠어요
▁상설
▁정선
리우스
▁가태요
▁수행한다
교로
세라
중계
트륨
▁무형
▁태안
▁경험적
▁한여름
▁利
벨이
▁끝낼
▁상법
▁몰아붙
▁법률의
risti
해졌고
▁뒤로는
▁드라마가
▁인정해야
▁환상적인
석기
▁타워
▁레이저
▁수출을
▁키우기
▁상상력이
▁군비
▁수제
▁명함을
▁보고가
▁열렬한
▁사람이라도
▁날씬
▁문인
▁줄고
▁헬레
▁고전적
▁희망은
자유구역
ᆞ유
出版
▁항아
▁사례도
▁왕조의
▁자원이
▁전기가
▁해결에
폐하
▁내실
▁돌진
▁머슴
▁명단
▁색채
▁콜럼
▁노태우
▁컨텐츠
겠는데요
자로부터
▁누구한테
▁마련하기
람쥐
원리
▁입혀
▁항생
우면서
▁보면네
▁지원과
관한
▁김만
▁헌정
기면서
▁자사의
▁장학금
▁크로스
Le
▁심문
▁vol
▁친하게
마니
▁여동
▁저놈
▁천진
▁낮추는
▁명령이
▁크라
영화제
▁받으러
▁시간이었다
ms
스쿨
▁외쳐
갔다는
자전거
▁따라잡
▁임대차
부서
▁PP
▁예속
▁공장에
▁신화의
▁돌아온다
▁일부에서는
▁뷔
▁갈대
▁세수
▁정글
▁대개의
▁안다는
선다
여명
......)
▁공백
▁볶아
수익을
▁지켜본
▁가족들을
▁간략하게
▁부위를
▁빠져서
▁업체를
▁자신만
▁현실화
▁군사들이
ays
▁놓친
▁루시
▁어학
▁잡게
▁카피
▁허우
▁넘으면
▁유럽과
▁조선족
▁중심지
ᆞ수
리얼
플루
▁끼칠
텍스트
▁언론인
결제
▁내무
▁메가
▁액면
물질을
▁경제와
▁다니지
▁무덤을
▁피보험
▁현황을
▁동그랗게
▁주식투자
취득
~40
▁그간의
▁웨스트
▁이해될
▁테크놀
등은
▁영성
▁검토할
▁문자가
▁여기서도
▁중요한데
적이면서도
▁제비
▁도망가
▁챙기고
▁통일된
▁곡물
ness
▁물어보고
▁웅크리고
▁전부였다
▁지속되는
▁현대자동차
▁유화
▁인신
▁끈질기게
▁당사자의
▁양도소득
문명
주변
시기를
▁공통의
▁꿰뚫어
▁달려와
퍼센트를
난이
▁갱신
▁고달
▁노여
▁얇게
▁칼이
▁법인세
▁하시오
질적으로
했었는데
▁웹사이트
保險
도네
IST
▁방패
▁적성
▁
이
.
다
는
에
을
의
하
고
가
지
그
한
로
서
은
기
어
도
,
아
사
를
나
있
자
리
들
대
인
시
니
해
게
으
수
라
정
것
요
제
보
면
만
적
일
부
주
과
"
상
전
장
었
거
여
했
1
구
문
성
우
신
원
스
데
되
마
내
국
러
생
무
야
소
동
까
위
'
0
말
경
)
오
할
조
(
비
와
화
안
?
모
세
없
중
관
때
네
예
공
계
음
2
간
선
실
진
유
미
습
분
치
회
려
않
당
~
학
금
연
교
히
명
개
런
단
물
방
e
용
각
년
저
통
람
된
바
래
운
며
재
영
식
입
체
행
업
렇
등
더
두
드
던
발
산
같
르
건
3
9
차
민
작
결
심
역
터
반
속
았
a
트
i
현
n
5
직
처
남
력
o
감
또
불
후
든
법
양
겠
점
4
본
t
r
였
강
설
난
표
많
노
합
근
집
른
달
호
번
알
타
천
받
형
못
배
살
6
8
매
질
권
종
s
군
출
함
임
따
파
뭐
목
태
죠
약
청
버
7
느
날
포
월
피
론
준
프
록
님
추
너
좋
최
외
책
능
편
럼
l
울
디
변
언
복
걸
크
절
새
평
!
올
활
특
박
열
잘
-
향
석
초
린
란
격
판
술
증
루
머
김
육
확
돌
레
늘
십
급
독
환
품
황
누
키
온
씨
좀
참
랑
필
손
순
담
길
져
될
녀
투
름
c
토
워
께
별
m
족
얼
친
백
냐
막
애
련
앞
눈
령
병
험
h
삼
왔
ᆞ
망
항
맞
북
d
떤
테
료
존
창
승
u
먹
희
카
곳
움
줄
갈
광
억
채
렸
쪽
졌
침
접
겨
규
잡
놓
혼
왜
벌
극
악
뒤
송
죽
코
찾
얘
볼
“
떻
싶
철
”
검
립
견
취
충
듯
쟁
‘
’
p
허
축
림
류
C
엄
힘
쓰
됐
긴
빠
:
응
협
쳐
갖
g
왕
총
%
S
갔
택
큰
A
락
·
찰
범
답
높
뿐
떠
글
째
색
완
잖
티
익
셨
돼
몸
논
메
밖
굴
써
끝
량
돈
T
효
잠
귀
밀
득
났
혀
넘
끼
찬
브
닌
케
농
커
팔
I
먼
패
럽
베
례
몰
획
P
」
「
측
y
및
슨
혹
몇
념
율
『
』
f
냥
짜
둘
탄
켜
떨
봐
M
골
B
릴
칠
착
>
덕
꾸
객
폭
엇
봉
혁
깨
즉
웃
<
숙
갑
_
씀
풍
놀
밝
큼
뜻
퍼
엔
죄
페
욕
즈
싸
D
센
혜
겁
k
탈
b
슬
삶
E
풀
붙
층
징
곡
므
궁
액
욱
홍
헌
틀
숨
w
첫
암
윤
앉
짓
v
끌
플
얻
랜
믿
L
략
폐
빛
벽
앙
읽
률
R
밤
쉽
잔
G
균
낸
봤
듣
염
맛
빨
압
넣
탁
/
랐
굉
핵
N
곤
훈
꿈
흥
K
씩
냈
웠
F
땅
빈
쉬
흔
곧
O
셔
칙
션
척
쳤
클
즘
흐
뜨
츠
휘
휴
좌
뉴
렵
깊
옥
뛰
팀
괴
퇴
롭
혔
짝
헤
H
즐
낮
블
융
찍
꼭
럴
V
램
닥
꺼
꽃
랬
짐
찌
흘
혈
벗
펴
낙
킨
엘
탕
됩
겼
슴
맡
롯
끄
널
뭔
텔
칼
옷
칭
놈
맥
섭
밥
렀
섯
딸
젊
춘
딱
x
푸
촉
옆
슈
빌
걱
맹
W
킬
쓸
묘
○
똑
[
]
낌
끔
닐
묻
텐
멀
넷
낼
힌
컨
둔
잃
촌
납
찮
씬
템
뇌
켰
튼
빼
팅
털
쯤
끊
둥
졸
옛
괜
녕
솔
묵
J
섰
맨
섬
꼬
턴
줘
─
훨
옮
몽
쿠
싫
U
홀
늦
닙
녹
슷
뢰
쓴
캐
탐
잊
밑
냉
넓
깐
껴
컴
뿌
델
젠
흡
쁜
깔
콘
링
;
웅
웨
덜
값
펼
춰
쇼
멸
폰
겪
핑
벤
녁
벨
룹
쁘
긍
렌
쌓
싱
쩌
폴
굳
쥐
뒷
콜
춤
쾌
닫
쨌
릇
랍
릭
봄
《
》
듬
벼
뮤
흑
옵
쇠
떡
뭘
덩
낭
퓨
셈
∼
멋
릿
끈
썼
걷
홈
펀
렬
쇄
랫
멍
픈
法
맺
짧
줬
人
낳
훌
꾼
엉
멈
첨
듭
곱
뀌
냄
빙
셋
쌍
쏟
뽑
닭
샤
떼
=
쫓
몬
콩
z
혐
랄
렁
뤄
●
맙
봅
힐
앗
겸
캠
칸
붕
싼
픽
삭
륭
잉
숲
덧
―
탑
깜
大
팬
쌀
Y
즌
껏
젖
밭
옹
톤
겐
챙
틈
쩍
숭
렴
륙
덮
컬
國
룩
멘
&
잇
룡
|
*
쪼
킹
붉
섞
뷰
탓
흉
뚜
꼼
엽
첩
텍
픔
덤
눌
꼈
넌
之
쩔
흠
럭
끗
잎
숫
꼽
롱
끓
긋
+
옳
곁
빚
틴
뚝
컵
팽
딩
△
띠
權
렉
둑
뻔
됨
핀
깃
퀴
셀
왼
튀
不
롤
닝
좁
깝
엠
낄
뚱
룬
낯
띄
앤
줌
的
햇
괄
꽤
X
꿔
딜
뼈
뚫
헬
낀
빵
者
묶
≫
흰
읍
≪
턱
닿
얀
펜
겹
밟
×
쫌
젝
땀
둠
◆
꿀
흙
딘
썩
一
■
늙
곽
닦
빗
눠
닷
솟
쁨
꼴
돕
톨
녔
릎
릅
쎄
쏘
뇨
콤
덴
뭇
子
뻐
쭉
싹
文
웬
곰
굽
릉
맑
켓
行
맘
짚
事
낫
윈
횡
톡
會
룰
딪
벅
놨
딴
큐
뜩
랙
돋
씻
겉
촬
밌
놔
쑥
렷
→
쵸
金
땐
톱
中
닮
닉
튜
홉
學
義
앨
핸
붓
`
훼
빅
랭
無
主
샘
j
깥
탱
뭉
性
삐
天
륜
山
멜
뻗
理
民
댔
댄
틱
찔
칫
헛
日
덟
껍
━
넉
Q
商
엑
퉁
댁
道
몹
볍
▲
젤
書
社
줍
핏
갚
엿
뱅
上
윗
볶
q
몫
밍
本
궐
有
섹
李
갓
펠
公
爲
갱
훔
윌
神
뜯
컸
生
폼
푼
헨
뉘
똥
헐
컷
뱃
王
궤
東
論
썰
엎
꺾
찢
젓
家
흩
三
삽
팩
깎
밴
윽
킴
롬
〉
〈
쿨
꽂
웹
뜬
둬
自
걔
짖
룸
앓
랴
地
뱉
낱
낡
뱀
틸
◇
얽
同
說
댓
잣
솜
判
휩
봇
Z
왠
셰
캔
而
얹
푹
史
낚
굶
씌
定
갇
政
셉
뜰
짱
팡
콧
앵
代
뷔
務
씹
註
意
心
正
샌
촛
췄
꽉
쑤
굿
짙
캄
넥
保
셜
듀
렘
制
以
툭
눔
핍
뵙
멤
펄
웰
겔
뿜
物
經
쉴
뒀
갤
꾀
쏠
▶
也
新
샀
憲
렛
굵
所
앱
엌
成
븐
꽁
밸
툼
빡
갯
뜸
뿔
明
時
뀐
탔
債
늬
│
記
깡
팍
知
韓
텅
其
멕
朝
利
꿰
랩
敎
年
水
쿄
훗
떴
랗
룻
륵
相
化
볕
풋
꿇
下
約
땡
탠
氣
넬
껄
깁
高
찜
長
칩
늑
體
잦
쉰
핫
햄
슐
世
海
任
名
엮
뽀
쩐
톰
力
南
믄
긁
폈
믹
냅
싣
實
外
□
얇
集
株
챔
業
北
펑
껑
用
關
出
켄
벙
켈
쭈
캘
立
軍
合
잭
쩡
쿵
小
팎
前
▷
治
傳
뺨
安
팝
方
렐
뭡
分
內
君
原
츰
걀
붐
컥
西
言
숍
使
則
씁
쿼
뤼
펙
넨
官
德
二
띤
通
動
宗
얗
󰡕
󰡔
쥬
平
四
덥
五
샐
윙
州
짤
뺏
횟
뎌
짠
命
城
팠
눕
옴
對
빤
詩
曰
딛
鄭
月
헝
찼
즙
思
後
議
젯
式
於
꿨
툴
훤
漢
白
古
늠
첼
善
門
훑
美
聖
늄
슘
왈
툰
田
똘
둡
댕
샵
能
發
士
귓
裁
元
썹
겄
댐
땜
契
報
可
基
【
非
】
쓱
맣
럿
太
갸
作
故
和
찻
全
넋
鮮
땠
解
떳
證
反
信
륨
産
濟
院
꾹
淸
솥
戰
禮
在
맵
퐁
잤
쥔
間
死
맴
京
얄
要
受
武
求
夫
石
與
삿
깍
女
뵈
빽
ᄀ
콕
댈
뀔
퍽
期
쭤
是
龍
帝
部
썬
ᄂ
資
陽
情
十
뤘
得
員
觀
例
꺽
仁
킥
찡
江
決
語
괘
馬
^
춥
춧
☞
좇
°
府
뻘
녘
뭄
見
얌
來
當
눅
身
・
쌈
然
度
風
돔
表
•
臣
先
第
궈
팥
光
숱
헉
#
튿
萬
뻑
킷
귤
效
펌
캡
律
뾰
돗
숟
쫙
支
샷
佛
딕
族
엣
쉼
늪
數
條
處
촘
휠
읊
빴
샅
썽
如
朴
é
形
林
責
뒹
木
컫
機
入
險
칵
쉐
我
師
궂
運
쾅
뭣
重
樂
都
眞
쏙
統
司
딨
밋
錄
土
빔
밧
の
뻣
將
由
害
手
뺀
周
쟤
究
쁠
過
令
界
닛
川
꽝
罪
多
共
字
쩜
콰
問
헷
퀘
甲
未
私
規
總
췌
請
딤
쫄
老
寺
華
쯔
開
硏
퀸
멧
節
限
〕
섣
〔
찐
뽕
텃
火
異
짊
싯
現
벳
쿡
벚
슛
뮬
給
넸
엥
氏
張
野
志
親
옌
九
뻤
黃
냇
件
益
兵
쯧
눴
春
獨
告
쏜
失
힙
孫
別
花
堂
六
껌
쌌
市
係
숯
想
뻥
맏
祖
。
텀
容
얕
靑
펫
旨
典
캉
流
訴
章
끽
歌
갛
變
圖
샴
常
百
벡
잿
空
꿋
챘
財
質
此
챈
父
귄
팟
셸
選
끙
位
雲
꼿
八
첸
깬
※
示
콥
類
뮌
己
河
船
格
짬
場
取
食
目
⋅
福
팁
吉
샹
惡
멩
修
至
特
交
諸
슭
號
何
面
母
랏
촐
靈
因
녜
곶
起
話
ᄃ
改
崔
밉
去
늉
刑
聞
宮
휙
{
造
價
}
뽐
申
七
엾
黨
監
象
禪
易
켠
進
委
引
뉜
뿍
쿤
텨
英
뮈
@
텁
趙
止
縣
玉
口
承
튕
加
왓
强
從
興
멎
띈
等
營
쌤
닳
今
題
次
탬
村
精
郞
乙
忠
直
省
皇
計
맷
島
路
앰
탤
챌
轉
팜
羅
∙
里
團
色
孝
茶
뚤
頭
찹
渡
償
千
券
쏴
近
術
犯
識
룽
陰
職
農
居
핥
版
뛸
宋
永
꿍
쪄
쬐
폄
若
ᄅ
덱
큭
唐
矣
背
富
愛
源
텝
덫
結
松
겟
守
酒
컹
音
科
앎
兩
┃
웁
虛
草
星
廣
ᅲ
功
養
案
쳇
뺐
뺑
良
갠
必
種
엷
儒
編
念
擧
配
뼛
工
存
客
쫑
킵
範
考
뗄
넛
領
像
맬
序
設
果
補
鄕
쟈
丁
建
齊
護
秋
感
돛
禁
調
登
送
消
仙
祭
紀
郡
乎
훅
멱
景
損
깼
認
提
딥
被
샛
洪
管
極
잽
賣
印
歸
뛴
少
줏
횃
랠
뻬
吾
壽
큘
★
～
車
샬
滿
賢
臺
徐
順
復
派
秦
딧
慶
品
왁
洞
亂
達
吳
寶
許
舊
슥
엊
遺
組
査
殺
勞
깻
듈
衛
谷
始
宣
麗
構
옇
應
歷
半
儀
謂
指
致
쭐
根
好
智
겋
準
휼
讓
違
탉
器
足
借
香
§
뎅
策
탭
큽
連
뺄
病
哲
絶
辭
쥘
뫼
他
參
畵
熙
핼
梁
難
活
初
聲
井
朱
캬
遠
헹
⊙
츄
續
陳
亦
散
俗
尹
昌
料
敬
釋
柳
及
買
빳
狀
回
寧
찧
還
갭
除
館
劉
境
擔
勝
헥
尙
쌩
房
땄
핌
夷
欲
깅
믈
左
퓰
局
夏
首
略
틋
ü
戶
男
卷
校
育
額
齋
씽
爭
于
系
貴
視
勢
衆
持
玄
넝
옐
ᄋ
移
뵐
再
離
斷
夢
$
孔
팸
執
血
審
卽
맸
쇳
點
程
婚
尊
雄
洋
짭
鎭
奇
覺
짢
最
魯
잰
留
素
句
衣
孟
잼
遊
莊
室
湖
챠
銀
項
藤
附
屬
藏
殿
泰
置
接
訟
喜
伯
숀
侯
胡
款
履
찝
抗
丙
苦
皆
望
夜
틔
革
談
냔
婦
꿩
ᅮ
御
換
醫
ᄒ
몄
曲
植
終
役
誠
習
嚴
쨍
閣
陵
굼
씸
と
雜
쐬
蘇
볐
竹
仲
型
展
쌔
팻
켤
貸
施
餘
向
꽈
否
企
옅
線
魏
協
適
量
鐵
滅
邊
澤
味
放
띔
젭
沈
쐐
紅
賃
辨
僧
稅
破
舍
助
博
比
願
康
列
態
姓
갗
칡
個
備
듦
溪
◎
柱
服
付
藝
兒
遂
各
察
웍
布
댑
雨
킁
藥
앴
貞
렙
亭
域
落
波
亡
乃
載
收
퀄
虎
友
땔
밈
펭
靜
雪
推
뗀
右
午
辰
末
單
奉
ː
릏
讀
깰
뎠
α
寒
ā
깟
篇
票
秀
述
更
園
喪
о
μ
魚
住
伊
阿
才
벵
昭
電
錢
榮
聯
楚
臨
逆
劍
湯
般
욥
씰
具
겅
惠
둣
完
退
썸
假
吏
已
際
辛
뗐
낑
恩
팰
帶
筆
敵
숴
純
牛
秘
낍
盡
算
傷
갉
越
꿉
펐
깄
隱
評
辯
邪
講
쫀
密
救
弘
后
託
괭
♣
뼉
‧
延
쩝
積
樹
籍
黑
試
防
著
免
—
鳥
燕
端
넜
丹
曹
豫
ä
僞
奴
楊
又
區
沙
督
♤
飛
乘
얏
戒
橋
깽
樓
貨
徒
譯
淵
뇽
童
껐
ᄆ
深
詞
寅
津
홱
刊
脫
넙
緣
圓
邦
舞
葉
費
干
괌
陸
環
供
顯
텼
赤
逸
냘
泉
危
뎀
띵
群
홋
〃
ᄉ
眼
鬼
技
ᅳ
뗏
亞
骨
岩
副
젼
놋
弟
珠
닻
짰
焉
삯
注
肉
꼰
投
坐
檢
₩
耳
晉
啓
授
旣
店
侍
に
魔
封
卿
熱
а
욜
곯
浦
訓
淨
追
普
̄
峰
庫
홧
е
멓
歲
負
超
介
엡
섶
る
影
렝
禍
콸
專
и
켐
獻
\
誌
姜
☎
照
즁
莫
賠
섀
鑑
鳳
蘭
÷
久
톈
角
좦
占
ᅵ
윅
蔡
좥
퉈
署
욘
切
毛
威
쁩
巫
急
壬
귈
稱
봬
β
雖
귐
往
池
숄
繼
創
헴
罰
均
差
뭍
唯
쐈
賊
固
謀
牧
碑
乾
隨
앳
倫
♥
溫
錫
隊
障
侵
盛
廟
ᄏ
維
割
納
꺄
鍾
ᄇ
云
쏭
疏
쭙
烈
佐
蒙
笑
遼
숏
微
紙
或
浮
誤
槪
露
宇
荷
倂
克
聽
믐
俊
魂
롄
庚
步
볏
斯
彦
퓌
賦
優
′
쟝
幸
毒
導
剛
織
警
̊
콱
ö
戊
演
겊
캥
튬
펩
待
妻
邑
刀
쉘
캣
卯
旗
셌
惟
뼘
確
凡
혓
段
桓
葬
輕
쌉
崇
呂
米
⇒
鶴
쾨
쿰
妙
座
材
嶺
흄
爾
綱
便
튤
增
率
캅
튈
倉
±
依
丘
孤
궜
휑
斗
梅
豊
愚
冠
猶
쩨
솝
廳
꿎
쑨
巳
띨
季
疑
墨
秩
製
퀀
競
亥
洲
窮
哉
症
晩
쇤
꽥
哀
央
洙
細
倭
옻
酉
射
勤
庭
뵌
悲
錦
妃
烏
閔
恨
雙
晋
츨
貢
◈
屋
껀
い
顔
盧
웜
탰
劇
쉿
賞
丑
ο
н
盜
쪘
飮
脈
叢
橫
値
墓
扶
숩
巨
厚
答
彼
뮐
с
充
쎈
샨
戌
降
息
懷
短
왑
廢
曾
狂
叔
壇
巖
떵
恒
兄
揚
톳
픕
–
宅
着
촨
階
р
☆
拜
庵
勇
減
郭
첵
憂
윷
⁄
浩
뎃
癸
빕
到
鴻
標
覽
뺌
慈
那
汝
殷
곪
宜
젬
暴
舜
攻
벧
陶
隆
댜
伏
묽
徵
球
貿
敗
긔
弱
衡
遡
떫
且
盟
è
悟
班
遷
據
韻
퀵
툇
慧
舶
似
陣
т
嘉
宰
圍
尾
슌
休
빻
簡
햐
旅
寫
廷
顧
◀
獄
퀼
停
←
允
檀
蓮
包
災
甘
震
龜
∥
健
禹
劃
召
놉
훙
띌
뿅
束
貧
홑
雅
穴
融
軒
て
뵀
卒
征
翁
羽
λ
洛
壁
냑
祥
胎
棄
賤
탯
殘
텄
却
騎
셍
港
幻
甫
祿
愼
甚
丸
走
岳
땋
抵
塔
謝
淳
し
鳴
忘
윳
岡
뷸
勿
希
宿
就
閑
弓
셩
揭
鏡
幽
整
긿
低
壯
옭
稿
擇
課
ン
咸
잴
輪
須
潮
秉
曆
幕
彌
拒
杜
級
了
瑞
좆
樣
戱
遇
獸
庶
冬
❶
燈
諾
翼
亨
凶
呼
看
賜
욤
仰
姻
冊
諫
寂
錯
妄
煥
避
∷
片
忍
藩
兼
桂
豈
뙤
羊
穀
符
嘗
坤
擊
紫
每
涉
贈
в
넵
❷
簿
板
鼓
麻
낵
恭
奎
謙
ᄌ
伐
迅
↑
쾰
刻
尺
複
覇
綠
豪

炳
席
歐
蓋
贊
怒
皮
岸
殊
痛
뢴
疾
丈
匠
街
慾
尉
賀
耕
к
互
훠
摩
肅
舟
箕
唱
層
庸
뜀
ス
堯
幾
鬪
삑
󰡑
患
暗
󰡐
█
巡
か
콴
